{"<pad>":0,"<s>":1,"</s>":2,"<unk>":3,"<mask>":4,"!":5,"\"":6,"#":7,"$":8,"%":9,"&":10,"'":11,"(":12,")":13,"*":14,"+":15,",":16,"-":17,".":18,"/":19,"0":20,"1":21,"2":22,"3":23,"4":24,"5":25,"6":26,"7":27,"8":28,"9":29,":":30,";":31,"<":32,"=":33,">":34,"?":35,"@":36,"A":37,"B":38,"C":39,"D":40,"E":41,"F":42,"G":43,"H":44,"I":45,"J":46,"K":47,"L":48,"M":49,"N":50,"O":51,"P":52,"Q":53,"R":54,"S":55,"T":56,"U":57,"V":58,"W":59,"X":60,"Y":61,"Z":62,"[":63,"\\":64,"]":65,"^":66,"_":67,"`":68,"a":69,"b":70,"c":71,"d":72,"e":73,"f":74,"g":75,"h":76,"i":77,"j":78,"k":79,"l":80,"m":81,"n":82,"o":83,"p":84,"q":85,"r":86,"s":87,"t":88,"u":89,"v":90,"w":91,"x":92,"y":93,"z":94,"{":95,"|":96,"}":97,"~":98,"¡":99,"¢":100,"£":101,"¤":102,"¥":103,"¦":104,"§":105,"¨":106,"©":107,"ª":108,"«":109,"¬":110,"®":111,"¯":112,"°":113,"±":114,"²":115,"³":116,"´":117,"µ":118,"¶":119,"·":120,"¸":121,"¹":122,"º":123,"»":124,"¼":125,"½":126,"¾":127,"¿":128,"À":129,"Á":130,"Â":131,"Ã":132,"Ä":133,"Å":134,"Æ":135,"Ç":136,"È":137,"É":138,"Ê":139,"Ë":140,"Ì":141,"Í":142,"Î":143,"Ï":144,"Ð":145,"Ñ":146,"Ò":147,"Ó":148,"Ô":149,"Õ":150,"Ö":151,"×":152,"Ø":153,"Ù":154,"Ú":155,"Û":156,"Ü":157,"Ý":158,"Þ":159,"ß":160,"à":161,"á":162,"â":163,"ã":164,"ä":165,"å":166,"æ":167,"ç":168,"è":169,"é":170,"ê":171,"ë":172,"ì":173,"í":174,"î":175,"ï":176,"ð":177,"ñ":178,"ò":179,"ó":180,"ô":181,"õ":182,"ö":183,"÷":184,"ø":185,"ù":186,"ú":187,"û":188,"ü":189,"ý":190,"þ":191,"ÿ":192,"Ā":193,"ā":194,"Ă":195,"ă":196,"Ą":197,"ą":198,"Ć":199,"ć":200,"Ĉ":201,"ĉ":202,"Ċ":203,"ċ":204,"Č":205,"č":206,"Ď":207,"ď":208,"Đ":209,"đ":210,"Ē":211,"ē":212,"Ĕ":213,"ĕ":214,"Ė":215,"ė":216,"Ę":217,"ę":218,"Ě":219,"ě":220,"Ĝ":221,"ĝ":222,"Ğ":223,"ğ":224,"Ġ":225,"ġ":226,"Ģ":227,"ģ":228,"Ĥ":229,"ĥ":230,"Ħ":231,"ħ":232,"Ĩ":233,"ĩ":234,"Ī":235,"ī":236,"Ĭ":237,"ĭ":238,"Į":239,"į":240,"İ":241,"ı":242,"Ĳ":243,"ĳ":244,"Ĵ":245,"ĵ":246,"Ķ":247,"ķ":248,"ĸ":249,"Ĺ":250,"ĺ":251,"Ļ":252,"ļ":253,"Ľ":254,"ľ":255,"Ŀ":256,"ŀ":257,"Ł":258,"ł":259,"Ń":260,"ĠÐ":261,"Ð¾":262,"Ðµ":263,"Ð°":264,"ÑĤ":265,"Ð¸":266,"Ñģ":267,"Ð½":268,"ÑĢ":269,"Ð¾Ð":270,"Ð»":271,"Ñĥ":272,"Ð°Ð":273,"ÐµÐ":274,"Ñı":275,"Ñĭ":276,"ÑĮ":277,"ĠÐ¿":278,"Ðº":279,"ĠÑģ":280,"ĠÐ²":281,"ĠÐ½":282,"Ñĩ":283,"Ð²":284,"Ð´":285,"ÑģÑĤ":286,"Ð¼":287,"ĠÐ¾":288,"ĠÐ¸":289,"ÐµÐ½":290,"Ñħ":291,"Ð¾Ð²":292,"Ð°Ð»":293,"ĠÐº":294,"ÑĤÐ¾":295,"ÐµÑĢ":296,"ÑĪ":297,"Ð¾Ð»":298,"ĠÐ´":299,"Ð¾Ð¼":300,"ÐµÑĤ":301,"ĠÐ¼":302,"ÐµÐ»":303,"Ñİ":304,"ĠÑĤ":305,"³Ð¾":306,"ĠÐ¿ÑĢ":307,"Ð°Ð½":308,"Ð¿":309,"ĠÐ±":310,"âĢ":311,"Ð½Ð¾":312,"Ð°ÑĤ":313,"Ð¾Ð´":314,"Ð±":315,"Ð¸Ð»":316,"Ð·":317,"Ð¸ÑĤ":318,"ĠÑĢ":319,"Ð°Ðº":320,"ĠÑĩ":321,"ĠÐ·":322,"Ð¾Ð¹":323,"ĠÐ½Ð°":324,"Ð½Ñĭ":325,"ÑĨ":326,"ÐµÐ¼":327,"ÑģÑı":328,"ĠÑĥ":329,"Ð¾ÑĢ":330,"Âł":331,"ĠÐ½Ðµ":332,"Ð¹":333,"ÑģÐº":334,"Ð³":335,"Ð¸Ð½":336,"Ð¶":337,"Ð°Ð¼":338,"Ñī":339,"Ð°Ð·":340,"ĠÐ¿Ð¾":341,"Ð°Ð²":342,"ÐµÐ´":343,"Ð½Ð¸":344,"Ð°ÑĢ":345,"ĠÑ":346,"ĠÐµ":347,"Ð»Ð¸":348,"âĢĶ":349,"ÑģÑĮ":350,"ĠÐ³":351,"Ð¾Ð½":352,"ÐµÐ½Ð¸":353,"Ð¾ÑĤ":354,"Ð¾Ð±":355,"Ð¾Ð³Ð¾":356,"ÐµÐ¹":357,"Ð¾Ð³":358,"ĠÐ»":359,"Ð¸Ð¼":360,"Ð°ÑĤÑĮ":361,"ĠÐ¾ÑĤ":362,"Ð½Ð°":363,"ĠÐ±Ñĭ":364,"ĠÑį":365,"Ð¸Ð²":366,"Ð°Ð´":367,"ĠÑĩÑĤÐ¾":368,"ÑģÑĤÐ²":369,"Ð¾Ð¶":370,"Ð°Ñģ":371,"ÑĢÑĥ":372,"Ð¾Ðº":373,"Ð¾Ñģ":374,"ÐµÐ²":375,"ĠÐ°":376,"Ð¾Ð»ÑĮ":377,"ĠÐĴ":378,"ĠÑģÑĤ":379,"Ð½Ñĥ":380,"ÑĤÐ¾ÑĢ":381,"Ð¸Ðº":382,"ÐµÐº":383,"ĠÐ¶":384,"ĠÐ¾Ð±":385,"âĢĵ":386,"ÂłÐ":387,"ĠÐ²Ñĭ":388,"ĠÐŁ":389,"Ð¸Ñħ":390,"Ð´Ð°":391,"Ð»Ñı":392,"ĠÐ¡":393,"Ð¾Ð·":394,"ĠÐĿ":395,"Ð°Ñı":396,"Ð¾ÑģÑĤ":397,"ĠÑı":398,"ÐµÐ»ÑĮ":399,"Ð»Ð°":400,"Ð¸ÑĤÑĮ":401,"Ð¸Ðµ":402,"ÐµÐ·":403,"Ð¸Ð¹":404,"ĠÐ²Ñģ":405,"Ġ-":406,"Ð¸Ñı":407,"ĠÐļ":408,"Ð°Ð»Ð¸":409,"Ð³Ð¾":410,"ĠÐ¸Ð·":411,"Ð¸Ñĩ":412,"ĠÑģÐ²":413,"ĠÐºÐ°Ðº":414,"Ð¸ÑĢ":415,"ÐµÑģ":416,"ĠÐ¿Ð¾Ð´":417,"ĠÐŀ":418,"Ð¸Ð´":419,"ÐµÐ±":420,"Ð°Ð»Ð°":421,"ÐµÑģÑĤ":422,"Ð°Ð¶":423,"Ð¾Ð¿":424,"ÑĦ":425,"Ð¸Ð¸":426,"ĠÐľ":427,"ÐºÐ°":428,"ÑĥÐ´":429,"Â«":430,"Â»":431,"ĠÑħ":432,"ÑĥÑĤ":433,"ÐµÐ³Ð¾":434,"ÑıÑĤ":435,"ÑĢÐ°":436,"Ð»Ð¾":437,"Ð½Ð¾Ð¹":438,"Ð°Ð±":439,"ĠÂ«":440,"ÐµÑĩ":441,"ÐºÐ¾":442,"Ð°Ð»ÑĮ":443,"ĠÑģÐ»":444,"ĠÑĢÐ°Ð·":445,"ÐºÐ¸":446,"ĠÑĤÐ°Ðº":447,"ĠÐĲ":448,"Ð¸Ð·":449,"ĠÐ¾Ð½":450,"ĠÐ·Ð°":451,"Ð°Ð¿":452,"Ð¾Ñĩ":453,"ĠÐ¢":454,"ĠÐĶ":455,"Ð°ÐµÑĤ":456,"ĠÐ¿ÐµÑĢ":457,"Ð½Ð¾Ð³Ð¾":458,"Ð¸Ñģ":459,"ĠÐĺ":460,"Ð½Ðµ":461,"ÐµÐ¿":462,"ÂłâĢĶ":463,"ĠÐºÐ¾":464,"Ð½ÑĭÐ¹":465,"Ð°Ð¼Ð¸":466,"ĠÑįÑĤ":467,"Ð°Ñİ":468,"ÐµÐ½Ð¸Ñı":469,"ĠÐµÐ³Ð¾":470,"ÑĭÐ²":471,"Ð°Ð¹":472,"ĠÑįÑĤÐ¾":473,"Ð½ÑĭÑħ":474,"Ð½ÑĭÐµ":475,"ĠÑģÐº":476,"ĠÐ¿Ð¾Ð»":477,"ÑĥÑĩ":478,"Ð¿ÑĢ":479,"Ð½ÑĭÐ¼":480,"ÑīÐµ":481,"ÐµÑĪ":482,"Ð½Ð¾ÑģÑĤ":483,"ÐºÑĥ":484,"ÐµÐ¶":485,"ÑģÐ»":486,"Ð¸Ð»Ð°":487,"ĠâĢĶ":488,"Ð¸Ð»Ð¸":489,"ÐµÐ³":490,"ÐµÐ½Ð¸Ðµ":491,"ÑĥÐ¼":492,"ĠÐł":493,"ĠÐ²ÑģÐµ":494,"ĠÐºÐ¾ÑĤÐ¾ÑĢ":495,"ĠÐ¿ÑĢÐ¾":496,"ÑĥÐ¶":497,"ĠÑĦ":498,"ÑĥÑİ":499,"Ð°Ð³":500,"ĠÐĳ":501,"ĠÑĪ":502,"ĠÑĤÐ¾":503,"ÑĭÐ¹":504,"ĠÑģÐ²Ð¾":505,"ÐµÑģÐº":506,"ÑĢÐ°Ð½":507,"Ð¾Ð¼Ñĥ":508,"Ð¾Ð»ÑĮÐºÐ¾":509,"Ñĳ":510,"Ð¾Ð³Ð´Ð°":511,"Ð¸ÑģÑĤ":512,"âĢ¦":513,"Ġ1":514,"ÐµÐ½ÑĮ":515,"ÑĥÑĢ":516,"ĠÐ¾Ð´":517,"ĠÐ½Ð¾":518,"Ð¸ÑĨ":519,"ÑħÐ¾Ð´":520,"Ð°Ñħ":521,"ĠÐ³Ð¾":522,"ÐµÐ½ÑĤ":523,"Ð°ÑģÑĤ":524,"ÑĢÑĥÐ³":525,"Ð½Ñı":526,"ÑĭÐµ":527,"ĠÐºÑĢ":528,"ĠÐĵ":529,"ĠÐ¿ÑĢÐ¸":530,"Ð¶Ðµ":531,"Ð¾Ðµ":532,"ÐµÐ½Ð½Ð¾":533,"Ġ(":534,"ĠÑģÐ¿":535,"Ð´Ðµ":536,"Ð°Ð»Ð¾":537,"ÑģÑĤÑĢ":538,"ĠÐ´Ð²":539,"Ð¸ÑĤÐµÐ»ÑĮ":540,"ÑĪÐµ":541,"ĠÐ¿ÑĢÐµÐ´":542,"ÑģÐ¿":543,"ÑĭÑħ":544,"ĠÐ¶Ðµ":545,"ÑĢÐµÐ¼":546,"ĠÑģÐ°Ð¼":547,"ÑĭÐ¼":548,"ĠÑģÐ¾":549,"ÑĤÑĮ":550,"Ð½Ð¸Ðº":551,"Ñį":552,"ĠÑĢÑĥ":553,"ĠÐĽ":554,"ĠÑĢÐ°Ñģ":555,"ĠÐ±ÑĭÐ»Ð¾":556,"ĠÐ¸Ð¼":557,"ÑĢÐ¸":558,"Ð¾Ð²Ð¾ÑĢ":559,"ĠÐ¯":560,"Ð¡":561,"Ð½Ð°Ñı":562,"ÂłâĢĵ":563,"ĠÐ¾Ð½Ð°":564,"ĠÐ²Ð¾":565,"ÐµÐ½Ñı":566,"ÑĥÐ¿":567,"Ð½Ð¾Ðµ":568,"ÑĨÐ¸":569,"ĠÑģÐ¼":570,"Ð½Ð¾Ð²":571,"ĠÐ±ÑĥÐ´":572,"ÑģÑĤÐ°Ð²":573,"ÑĥÑĪ":574,"ĠÐºÐ¾Ð½":575,"Ð°Ð»ÑģÑı":576,"ĠÑĨ":577,"ĠÐ³Ð»":578,"Ð¸ÑĩÐµÑģÐº":579,"ĠÐ²Ð¾Ð·":580,"ĠÐ»Ñİ":581,"ĠÐ´Ð»Ñı":582,"Ð¾Ð±Ñĭ":583,"Ð½ÑĥÐ»":584,"ÑģÐ»Ð¸":585,"ĠÐķ":586,"ĠÐŃ":587,"ĠâĢĵ":588,"Ð¸Ð»ÑģÑı":589,"ĠÐ¿Ð¾ÑĤ":590,"ĠÐ¿Ð¾Ðº":591,"ĠÐ¼Ñĭ":592,"Ð»ÑĮ":593,"ÑĤÐ¸":594,"ĠÐµÐµ":595,"ÐĴ":596,"Ð¾ÑĪ":597,"Ð»Ñİ":598,"ĠÑĤÑĭ":599,"ÑĥÐ±":600,"ÐµÐ»Ð¸":601,"Ð¾Ð²Ð°Ð½":602,"ĠÐ±ÑĭÐ»":603,"ĠÑĤÑĢ":604,"ĠÐ³Ð¾Ð´":605,"ĠÐ¼ÐµÐ½Ñı":606,"Ð°ÑĪ":607,"Ðŀ":608,"ĠÐ²Ð·":609,"ÑĮÑİ":610,"ĠÐ¾Ðº":611,"ÑĢÐ°Ð·":612,"ÐŁ":613,"ĠÐ¼Ð¾Ð¶":614,"ĠÐ£":615,"Ð¼Ñĥ":616,"ĠÐĹ":617,"Ð²ÐµÑĢ":618,"ÐµÑħ":619,"ĠÑģÐºÐ°Ð·":620,"Ð°ÑİÑĤ":621,"Ð¸Ð½Ð°":622,"ÐµÑĤÑģÑı":623,"ĠÐ´Ð¾":624,"ĠÐºÐ¾Ð¼":625,"Ġ2":626,"ĠÐ´ÐµÐ»":627,"Ð½Ð¾Ð¼":628,"ÐµÐ¼Ñĥ":629,"ÑĢÑı":630,"ÐĿ":631,"ĠÐ´ÑĢÑĥÐ³":632,"Ð½Ð¸Ð¼":633,"ĠÐ»Ð¸":634,"..":635,"Ð¾Ñı":636,"ÐµÐµ":637,"Ð°ÑĤÑĮÑģÑı":638,"ÐĲ":639,"ÐµÐ±Ñı":640,"ĠÑĤÐ¾Ð»ÑĮÐºÐ¾":641,"ĠÐ²ÑĢÐµÐ¼":642,"ĠÐ¾Ñģ":643,"ĠÐ±Ð¾Ð»ÑĮ":644,"Ð´Ñĥ":645,"Ð½Ð¾ÑģÑĤÐ¸":646,"ĠÐ¿Ð»":647,"ÑĭÑĤ":648,"Ð½ÑĥÑİ":649,"ĠÐ¿Ð¾ÑģÐ»":650,"ĠÐ¸Ñħ":651,"ÑıÑĤÑĮ":652,"ÑĢÐ¾Ð´":653,"ĠÐ¸Ð½":654,"ÐºÐµ":655,"ĠÑĩÑĤ":656,"ĠÐ³Ð¾Ð»":657,"Ð²ÐµÑĤ":658,"ÑĨÐ¸Ð¸":659,"ÐºÐ¾Ð²":660,"Ð´ÐµÐ»":661,"Ðļ":662,"ĠÐ´Ð¾Ð»":663,"ĠÐ¼Ð½Ðµ":664,"ĠÐ¾Ð¿":665,"ĠÐ¾Ð½Ð¸":666,"ĠÑĥÐ¶Ðµ":667,"ĠÐ½Ð°Ð´":668,"ĠÐµÑīÐµ":669,"ÑģÑĤÐ²ÐµÐ½":670,"ÑĢÐ°Ð²":671,"ĠÑģÐ¾Ð±":672,"Ð»ÐµÐ½":673,"ÐµÐ»Ð¾Ð²":674,"ĠÐ½Ð°Ð¿":675,"ÑĢÐ¾Ñģ":676,"ÑģÑĤÐ²Ð¾":677,"ĠÐ¼Ð¾Ð³":678,"ĠÐ²Ð¸Ð´":679,"ĠÑĩÑĤÐ¾Ð±Ñĭ":680,"ĠÐĿÐ¾":681,"ĠÐ§":682,"ÐµÑĨ":683,"ÑĬ":684,"ÑĥÑģÑĤ":685,"Ð¸Ð»ÑĮ":686,"Ð°Ð±Ð¾ÑĤ":687,"Ð°ÑĤÐµÐ»ÑĮ":688,"ÑģÑĤÐ²Ð°":689,"ĠÐºÐ¾Ð³Ð´Ð°":690,"Ð¸Ð»Ð¾":691,"ĠĊ":692,"ĠÐŀÐ½":693,"ĠÐ¸Ð»Ð¸":694,"Ð¸Ð¼Ð¸":695,"ĠÐ¾Ñĩ":696,"Ð¸Ð³":697,"Ð°Ð½Ð¸Ñı":698,"ĠÑģÐ¾Ð²":699,"ÑĢÐ¾Ð²":700,"ĠÐ¿Ð¾Ð²":701,"ĠÐ¿Ð¾Ð¼":702,"ĠÐ²ÐµÑĢ":703,"Ð°ÐµÑĤÑģÑı":704,"Ġ\"":705,"ÐµÐ±Ðµ":706,"ĠÐ·Ð°Ðº":707,"Ð°Ñĩ":708,"Ð½Ð°Ñĩ":709,"ÐµÑĢÑĮ":710,"ÑĭÑĪ":711,"ÑĢÐ¾":712,"Ð¼Ð¸":713,"Â».":714,"ĠÐ±ÐµÐ·":715,"ĠÐ½Ð°Ñĩ":716,"ÐµÑĪÑĮ":717,"ÑĢÐ°ÑĤ":718,"ÑĤÐµÑĢ":719,"ĠÐ¿ÑĢÐ°Ð²":720,"ĠÑĥÐ´":721,"ÐµÑĢÐ¶":722,"ĠÐºÐ¾ÑĢ":723,"ÑĥÑģ":724,"ĠÐ¥":725,"ÑĤÐ°":726,"Ðĺ":727,"ÑĢÐµÐ´":728,"ÑģÐºÐ¾Ð¹":729,"Ð°Ð½Ð¾Ð²":730,"ÐµÐ»Ð°":731,"Ð½Ð¾ÑģÑĤÑĮ":732,"ÑĤÐ¾Ð²":733,"Ð°Ð»Ð¸ÑģÑĮ":734,"ĠÐ¿Ð¾ÑĢ":735,"ĠÐ¤":736,"ĠÑĩÐµÐ»Ð¾Ð²":737,"ÑĥÑħ":738,"Ð°Ð»Ð¾ÑģÑĮ":739,"Ð°Ð¶Ðµ":740,"Ðł":741,"ĠÑħÐ¾ÑĤ":742,"ÑģÑĤÑĮ":743,"ĠÐ³Ð¾Ð²Ð¾ÑĢ":744,"ĠÐ½Ð¸":745,"Ðľ":746,"Ð°Ð½Ð¸Ðµ":747,"ÐºÐ¾Ð¹":748,"ĠÐ¾ÑģÑĤ":749,"ĠÐ·Ð°Ð¼":750,"Ð°Ð½Ð´":751,"Ð¸Ð½Ñĥ":752,"ĠÐ½Ð¸Ðº":753,"ÐµÑĤÑĮ":754,"ÑģÐºÐ¾Ð³Ð¾":755,"Ð½ÑĭÐ¼Ð¸":756,"ÑĤÐµ":757,"Ð»Ð°Ð´":758,"Ð¸ÑĤÑĮÑģÑı":759,"ĠÑĩÐµÐ¼":760,"ĠÑģÐ»Ð¾Ð²":761,"Ð¸ÑĤÑģÑı":762,"ĠÑĩÐµÑĢ":763,"ÐµÑĢÐ°":764,"Ð°Ð»Ð°ÑģÑĮ":765,"Â»,":766,"ÑĪÐ¸":767,"ĠÐ½Ð°Ñģ":768,"Ð³ÑĢ":769,"Ð¾ÑĤÑĢ":770,"ĠÐ¼Ð¾":771,"ÑİÑĤ":772,"ÑĤÑĢ":773,"Ð¢":774,"ĠÐ·Ð°Ð¿":775,"ĠÐµÑģÐ»Ð¸":776,"ĠÐµÐ¼Ñĥ":777,"ÑĪÑĮ":778,"ĠÐ¿Ð¾Ñģ":779,"ĠÐ¿Ð¾Ñĩ":780,"ÐĶ":781,"ĠÐ²ÑĢÐµÐ¼Ñı":782,"ĠÐ¿ÑĢÐ¾ÑģÑĤ":783,"ĠÐ±ÑĭÐ»Ð°":784,"ĠÐ»ÑİÐ±":785,"Ð¸Ð·Ð½":786,"ĠÐ¿Ð¾Ð¿":787,"Ð¾ÑģÑģ":788,"ĠÐ¼ÐµÑģÑĤ":789,"Ð°ÑİÑī":790,"Ġ19":791,"ĠÐ¿ÑĢÐ¸Ð½":792,"ĠÑĥÑĩ":793,"Ð¸Ð»Ð°ÑģÑĮ":794,"Ð¼Ð°":795,"ĠÑĩÐµÐ»Ð¾Ð²ÐµÐº":796,"ÑģÐºÐ¸Ð¹":797,"ÑĨÐ°":798,"Ð°Ð¶Ð´":799,"Ð»Ðµ":800,"ĠÐ±ÑĭÐ»Ð¸":801,"ĠÐ·Ð½":802,"ÑıÐ·":803,"Ð¾Ð¶Ðµ":804,"ĠÐ¿Ð°ÑĢ":805,"Ð¿ÑĢÐ°Ð²":806,"ÐµÐ½Ð¸Ð¸":807,"Ð¸ÑĤÐµ":808,"ÑĢÑĭ":809,"ĠÐ¿Ð¾Ð·":810,"Ð¸ÑĢÐ¾Ð²":811,"ÐµÑī":812,"Ð³Ð»Ñı":813,"Ð½ÑĥÐ»Ð°":814,"ĠÐ´Ð°Ð¶Ðµ":815,"ĠÐ½Ð°Ð·":816,"Ð¸Ñİ":817,"ÐºÐ¾Ð¼":818,"Ð¿Ð¾Ð»":819,"Ð»ÐµÐº":820,"ĠÐ±ÑĥÐ´ÐµÑĤ":821,"ÑıÐ²":822,"ĠÑĤÐµÐ¼":823,"ĠÐ±Ð¾Ð»":824,"ÑģÐµ":825,"ÐµÐ»Ñı":826,"ĠÑĢÐ°Ð±Ð¾ÑĤ":827,"ĠÐ¾ÑĤÐº":828,"ĠÐ½Ð°ÑĪ":829,"ĠÑģÐµÐ±Ñı":830,"Ð»Ð¸Ð²":831,"Ð¸Ð»Ð¸ÑģÑĮ":832,"Ð½ÐµÐ¹":833,"ĠÐ¿ÑĢÐ¾ÑĤ":834,"ĠÐ¼Ð¾Ð¶ÐµÑĤ":835,"ĠÐ¿ÑĢÐ¾Ð´":836,"ÑĮÑı":837,"ĠÐ´Ð¾Ð»Ð¶":838,"ÂłÐĿ":839,"ĠÐ³Ð»Ð°Ð·":840,"ÐµÐ½Ð°":841,"ÑĥÐ²":842,"ĠÑģÐºÐ°Ð·Ð°Ð»":843,"Ð´Ð¸":844,"ĠÐ½ÐµÐ³Ð¾":845,"ĠÑĤÐ¾Ð³Ð¾":846,"ĠÑįÑĤÐ¾Ð¼":847,"ÐµÑģÑģ":848,"ÑĥÐ½":849,"ĠÐŃÑĤÐ¾":850,"ĠÑģÑĤÐ°ÑĢ":851,"ĠÐ¿ÐµÑĢÐ²":852,"ĠÐ´Ð¾Ð¼":853,"ĠÐ¿ÐµÑĢÐµÐ´":854,"ÑıÐ´":855,"Ð¸Ð½Ñĭ":856,"ĠÑģÑĤÐ¾":857,"ĠÐºÐ¾Ð»":858,"ĠÐ¸ÑģÐ¿":859,"ĠÐ·Ð°Ð²":860,"ĠÑĥÐ²":861,"ĠÑĢÐµÑĪ":862,"ÐµÐ»Ð¾":863,"ĠÐ³Ð´Ðµ":864,"ĠÐ½ÐµÐ¼":865,"ĠÐ½Ð¾Ð²":866,"ĠÐ³Ð¾Ð»Ð¾Ð²":867,"ĠÐ¼Ð¾Ð»":868,"ĠÐŁÑĢ":869,"ĠÐµÑģÑĤÑĮ":870,"ĠÑĥÐ±":871,"ĠÐ¾ÑĩÐµÐ½ÑĮ":872,"ĠÐ³ÑĢ":873,"ĠÐ¿ÑĢÐ¾Ð²":874,"ĠÐ±ÑĭÑĤÑĮ":875,"ĠÐ¿Ð¾ÑģÑĤ":876,"ĠÑįÑĤÐ¾Ð³Ð¾":877,"ĠÐ½ÐµÐ¿":878,"ĠÐ½ÐµÑĤ":879,"Ð¾ÑģÑĤÐ¸":880,"ĠÐĿÐµ":881,"Ð¾Ð±ÑĢ":882,"ĠÑĩÐ°ÑģÑĤ":883,"ĠÐ³Ð¾Ð´Ð°":884,"ĠÑģÑĩ":885,"Ð¾Ñħ":886,"ÐµÐ¹ÑģÑĤÐ²":887,").":888,"Ġ20":889,"ĠÑģÐ¾ÑģÑĤ":890,"Ð¸Ð±":891,"Ð°Ð½ÑĤ":892,"Ð¼ÐµÑĢ":893,"ÑĩÐ°Ñģ":894,"ĠÐ·Ð½Ð°":895,"ĠÐĿÐ°":896,"Ð°Ð½Ð°":897,"ĠÑģÐ»ÑĥÑĩ":898,"ÑĥÑī":899,"ĠÑģÐ»ÐµÐ´":900,"ĠÐ·Ð°Ð´":901,"ÑĥÐ´Ð°":902,"ĠÐ¿ÑĢÐ¸Ð²":903,"ĠÐ°Ð²":904,"ĠÑĤÐ¾Ð¼":905,"Ð°Ð²ÑĪ":906,"ÑĥÐ»ÑĮ":907,"ĠÐ¿Ð¾Ð»ÑĥÑĩ":908,"ĠÑģÑĤÐ¾ÑĢ":909,"Ð¼Ð¾Ð¶":910,"ĠÑģÐ´ÐµÐ»":911,"ÑĥÐº":912,"Ð»ÑİÑĩ":913,"ĠÐ±Ð»":914,"ĠÐ°ÑĢ":915,"Ð¾ÑĢÐ¾ÑĪ":916,"ÑıÐ»":917,"ÐµÐ¿ÐµÑĢÑĮ":918,"ÑĨÐµ":919,"Ð¿ÐµÑĢ":920,"ĠÐ¾ÑĤÐ²ÐµÑĤ":921,"Ð¸Ð»Ð¾ÑģÑĮ":922,"ĠÐ»ÐµÑĤ":923,"ÑĢÑĥÐ´":924,"ÑģÐºÐ¸Ñħ":925,"ÑĥÐ»":926,"ÑĢÑĥÐ¶":927,"Ð¸ÑĤÐµÐ»ÑĮÐ½Ð¾":928,"ÐµÐ½Ñĭ":929,"ĠÐºÑĤÐ¾":930,"ĠÐ´Ð¾ÑģÑĤ":931,"ÐµÑĤÐµ":932,"ĠÐ½ÐµÐ´":933,"Ðĵ":934,"Ðĳ":935,"ĠÐ±Ð¾Ð»ÑĮÑĪ":936,"ÐµÐ½Ð¸ÐµÐ¼":937,"ÑĨÑĭ":938,"ĠÐ½Ð¸Ñĩ":939,"ÐµÐ´ÑĮ":940,"Ð²Ð°ÑĤ":941,"ÐµÐ½Ð¸Ð¹":942,"ĠÑĤÐ°Ð¼":943,"ĠÐ¨":944,"ĠÐŁÐ¾":945,"ĠÐ½Ð°Ð¼":946,"ÑĢÐµ":947,"ÐµÐ¹ÑĩÐ°Ñģ":948,"ÑĩÐ½Ð¾":949,"ÑĥÐ·":950,"ĠÐºÐ¾ÑĤÐ¾ÑĢÑĭÐµ":951,"Ð½Ð¸ÐºÐ°":952,"ĠÑģÑĤÑĢÐ°Ð½":953,"ÑĥÐ³":954,"Ð´ÐµÑģÑĮ":955,"ĠÐļÐ°Ðº":956,"ÑĥÑīÐµ":957,"ĠÐ»Ð¸ÑĨ":958,"Ð¸Ð¶":959,"Ð¾ÑĢÐ¼":960,"ĠÐºÐ¾ÑĤÐ¾ÑĢÑĭÐ¹":961,"ÑıÑī":962,"ÑģÑĤÑĢÐ¾":963,"Ð»Ð°Ñģ":964,"Ð½ÐµÐµ":965,"ÑĨÐ¸Ñı":966,"ĠÐ¿Ð¾ÑģÐ»Ðµ":967,"ĠÐ½Ð¸Ñħ":968,"Ð¾Ð»ÑĮÐ·":969,"ĠÐ¾Ð±ÑĬ":970,"ĠÐ¶ÐµÐ½":971,"ÑĢÑĭÐ²":972,"ĠÐ¸ÑģÑĤ":973,"ÐµÐ½Ð¸Ñİ":974,"Ð½ÑĥÐ»ÑģÑı":975,"ÑıÐ¼":976,"ĠÐ¾Ð´Ð¸Ð½":977,"ĠÐ¼Ð¾Ð¶Ð½Ð¾":978,"Ð°ÐµÐ¼":979,"ÐµÑĤÐ°":980,"Ð¸ÐºÐ°":981,"ĠÑģÐµÐ±Ðµ":982,"ÐµÑģÑı":983,"ĠÐ·Ð°Ð±":984,"ĠÐŀÐ½Ð°":985,"Ð°ÑĢÑĤ":986,"ĠÐ¢Ð°Ðº":987,"Ð½Ð°Ðº":988,"ÑıÑģ":989,"Ð¾Ð½Ð°":990,"ĠÐ²Ð¾Ð»":991,"Ð¸Ð½Ðµ":992,"ĠÐ½ÑĥÐ¶":993,"ĠÐ½ÐµÑģÐº":994,"ÑĢÑĥÐ¿":995,"ÐµÑĢÑĤ":996,"Ð¸ÐºÐ¸":997,"ĠÑĤÐµÐ±Ñı":998,"ÐµÑĢÐ¸":999,"ĠÑģÐ¿ÑĢ":1000,"ÑģÑĤÐ²Ð¾Ð²":1001,"Ðķ":1002,"ĠÐ¼Ð¸Ð½":1003,"Ð»ÐµÐ½Ð¸Ñı":1004,"ĠÐ´ÐµÐ²":1005,"ÑĭÐ±":1006,"ÑĢÐ°Ñģ":1007,"ĠÑĥÐº":1008,"ĠÐĶÐ¶":1009,"ĠÐ¿Ð¾ÑģÐ»ÐµÐ´":1010,"...":1011,"ĠÐ±Ð¾Ð»ÑĮÑĪÐµ":1012,"ĠÐ½Ð°ÑģÑĤ":1013,"ĠÑĢÐ°Ð·Ð²":1014,"ÂłÂł":1015,"ĠÑģÐµÑĢ":1016,"ĠÐłÐ¾ÑģÑģ":1017,"ĠÑįÑĤÐ¾ÑĤ":1018,"ĠÐ³Ð¾ÑĢÐ¾Ð´":1019,"ÑĥÑİÑī":1020,"ÑĭÐ¼Ð¸":1021,"Ð°Ð·ÑĭÐ²":1022,"ĠÑģÑĤÐ¾Ð»":1023,"ÐµÐ¶Ð´Ñĥ":1024,"ÑĢÐ°Ñī":1025,"ĠÐ²Ð¾ÑĤ":1026,"ĠÐ±Ð¾Ð»ÐµÐµ":1027,"ĠÐ¿ÑĢÐ¾ÑĤÐ¸Ð²":1028,"Ð½Ð¸ÐºÐ¾Ð²":1029,"ĠÐ¡ÑĤ":1030,"ĠÑıÐ²":1031,"ĠÑįÐº":1032,"ÐµÑĢÑĪ":1033,"Ð²ÐµÑģÑĤ":1034,"ÐĽ":1035,"Ð¾Ð±Ñī":1036,"ÑĥÐ´ÑĮ":1037,"ĠÐ¿ÑĢÐ¾ÑģÑĤÐ¾":1038,"ĠÐ´ÐµÐ¹ÑģÑĤÐ²":1039,"ĠÐ½ÐµÐ²":1040,"ĠÐ´ÑĥÐ¼":1041,"),":1042,"ĠÐ²Ð¾Ð´":1043,"ĠÐ¼Ð¸ÑĢ":1044,"ĠÐ¾ÑĢ":1045,"Ð½ÑĥÑĤÑĮ":1046,"ĠÐ½Ð¸ÑĩÐµÐ³Ð¾":1047,"Ð³Ð»ÑıÐ´":1048,"Ð¼ÐµÑģÑĤ":1049,"Ð·Ð°":1050,"Ð»Ð°Ð²":1051,"ĠÐ²ÑĭÑģ":1052,"Ð¼Ð¾ÑĤÑĢ":1053,"Ð¾ÑģÑĤÑĮ":1054,"ĠÐ¿Ð¾Ð³":1055,"ĠÐ²Ð¾Ñģ":1056,"ÑİÑī":1057,"Ð²Ð¾":1058,"Ð»Ð¸Ñĩ":1059,"Ð°ÑıÑģÑĮ":1060,"ĠÐ¿ÑĢÐµÐ´ÑģÑĤÐ°Ð²":1061,"ĠÐ¸ÑģÐº":1062,"Ġ3":1063,"Ð¯":1064,"ĠÐ²Ð¾Ð¿":1065,"ĠÐ¶Ð¸Ð²":1066,"ĠÐ´ÐµÐ½ÑĮ":1067,"ĠÑĢÐ¾Ð´":1068,"Ð°ÐºÑĤ":1069,"Ð¾Ð¶Ð´":1070,"Ð¸ÑģÐº":1071,"ĠÐ¼Ð½":1072,"ĠÐ¼ÑĥÐ¶":1073,"ÑĪÐ¸ÑģÑĮ":1074,"Ð¸Ð¿":1075,"ÐµÑĤÑĭ":1076,"Ð½Ð¾Ð¼Ñĥ":1077,"ÑĪÐµÐ»":1078,"ÑĥÐµÑĤ":1079,"ĠÐ·Ð²":1080,"ĠÐ¿Ð¾Ð±":1081,"Ð´Ð¸Ð½":1082,"ĠÑģÑĤÑĢ":1083,"ÂłÐĴ":1084,"ĠÐµÐ¹":1085,"ÐºÐ°Ð¼Ð¸":1086,"Ð¸Ð¾Ð½":1087,"ĠÐĲÐ½":1088,"Ð°Ð½Ð¸Ð¸":1089,"ĠÑĥÐ¼":1090,"ÐµÑģÐ¿":1091,"ĠÐ·Ð°Ð½":1092,"ĠÑĤÑĥÑĤ":1093,"ĠÐ»ÑİÐ´":1094,"ÑĨÐ¸Ð¾Ð½":1095,"ĠÐ·Ð´ÐµÑģÑĮ":1096,"ĠÑģÐ¾Ð·":1097,"Ð»Ð°ÑģÑĤ":1098,"ĠÑĥÐ»":1099,"ĠÑĤÐ¾Ð¶Ðµ":1100,"ÑĥÑĤÑĮ":1101,"ĠÑģÐ¸Ð»":1102,"ÑģÐºÐ¸Ðµ":1103,"ÐµÐºÑĤ":1104,"Ð¾Ð»Ð½":1105,"ĠĠ":1106,"Ð»Ð¸Ð½":1107,"ĠÐ¿ÑĢÐ¾Ð¸Ð·":1108,"ĠÑģÐµÐ¹ÑĩÐ°Ñģ":1109,"Ð»ÐµÐ½Ð¸Ðµ":1110,"ĠÐ½Ð°Ð²":1111,"ĠÐ²Ð¾Ð¹":1112,"ĠÑģÐ¿ÑĢÐ¾Ñģ":1113,"Ð¾Ð»Ð¶":1114,"ÂłÐŁ":1115,"Ð¾Ð¼Ð½":1116,"Ð¸Ð²ÑĪ":1117,"ĠÐ²Ð°Ñģ":1118,"Ð²Ð¾ÑĢ":1119,"ĠÑĩÐµÑĢÐµÐ·":1120,"ĠÑħÐ¾ÑĢÐ¾ÑĪ":1121,"ĠÑĤÐµÐ±Ðµ":1122,"ĠÑĥÐ¶":1123,"ĠÐ²ÑģÐµÑħ":1124,"ĠÐ¼Ð°ÑĤ":1125,"ĠÐ¾Ð±ÑĢÐ°Ð·":1126,"ĠÐ¿Ð¾ÑĤÐ¾Ð¼":1127,"ĠÑĢÐµÐ·":1128,"ĠÐ²ÑģÐµÐ³Ð¾":1129,"Ð¸Ñī":1130,"Ð¸ÐµÐ¼":1131,"ĠÐ¶ÐµÐ»":1132,"Ð£":1133,"ÑįÑĤ":1134,"ĠÑģÑĢÐµÐ´":1135,"ĠÑĤÐµÑĢ":1136,"ĠÑģÐ¾Ð¾Ð±Ñī":1137,"ÑģÐ°":1138,"ĠÐ»ÑĥÑĩ":1139,"ÐµÐºÐ¾":1140,"00":1141,"ĠÐ·Ð°ÑĤ":1142,"ÐµÐ»ÐµÐ¹":1143,"ĠÐ³Ð¾ÑĢ":1144,"ĉĉ":1145,"ĠÐ²ÑģÑĤÑĢ":1146,"ÐµÐ½Ð½ÑĭÐ¹":1147,"ĠÐ½ÐµÑģÐºÐ¾Ð»ÑĮÐºÐ¾":1148,"ĠÐ½Ð°Ðº":1149,"Ð½Ð¸Ñĩ":1150,"ÑıÐ¶":1151,"ĠÑĤÐµÐ¿ÐµÑĢÑĮ":1152,"ÑĤÐµÑĢÐµÑģ":1153,"ÐºÑĤ":1154,"Ð¸ÑĪ":1155,"ÑĨÐµÐ²":1156,"ĠÑĥÑģÑĤ":1157,"ĠÐ½ÐµÐ¹":1158,"Ð¾Ð½Ñĭ":1159,"ÑıÐ½":1160,"ĠÑĢÐ°Ð´":1161,"ĠÐ·ÐµÐ¼":1162,"ÑĢÐ°Ð¶":1163,"ÂłÐĶ":1164,"ĠÐ²Ð´":1165,"Ð³Ð°Ð½":1166,"Ð¾Ð²Ð°":1167,"ĠÐ¿Ð¾Ð½":1168,"ĠÐ³Ð¾Ð´Ñĥ":1169,"ĠÐ½Ð¸Ð¼":1170,"ĠÐ¿ÑĢÐ¾Ð±":1171,"ĠÐ¾ÑģÑĤÐ°Ð²":1172,"Ð¸ÑĢÐ¾Ð²Ð°Ð½":1173,"Ð»Ð¸ÑģÑĮ":1174,"ĠÐ´Ð°":1175,"ĠÐ¾ÑĤÐ½Ð¾":1176,"Ð¾ÑĢÑĤ":1177,"Ð²Ð°":1178,"ÑĭÐ»":1179,"ÐºÐ°Ñħ":1180,"Ð³Ð¸":1181,"ĠÐ´Ð¾ÑĢ":1182,"ÑĢÐ¾Ð¼":1183,"ĠÐ²Ð¾Ð¿ÑĢÐ¾Ñģ":1184,"ÐµÑĩÐ½Ð¾":1185,"ĠÐĴÑĭ":1186,"Ð¾Ñī":1187,"er":1188,"ÑĥÑģÐº":1189,"Ð¼ÐµÐ½":1190,"ĠÐ³Ð»Ð°Ð²":1191,"ĠÑĥÑģÐ¿":1192,"ĠÐºÐ¾Ð¼Ð¿":1193,"Ð½Ð¸ÐºÐ¸":1194,"ĠÐķÑģÐ»Ð¸":1195,"ĠÑĤÐ°ÐºÐ¶Ðµ":1196,"ĠÐ´ÐµÑĤ":1197,"ĠÐ±ÑĢ":1198,"ĠÑĩÑĥÐ²":1199,"ĠÐŀÑĤ":1200,"ÐµÑģÑĤÐ¸":1201,"ĠÐĸ":1202,"Ð»ÐµÑĤ":1203,"ĠÐ½Ð°Ð´Ð¾":1204,"ÐµÐ½Ð½ÑĭÑħ":1205,"ĠÑģÐ²Ð¾ÐµÐ¹":1206,"Ð²Ð¾Ð»":1207,"ĠÑĢÐ°Ð½":1208,"ÐµÐ½Ð½ÑĭÐµ":1209,"ÑĢÐ°ÑĪ":1210,"Ð½Ð¾Ð²Ð°":1211,"ĠÐºÐ°Ð¶Ð´":1212,"ĠÐ´ÑĢ":1213,"ÐºÐ¸Ð¹":1214,"ÂłÐ¢":1215,"ĠÑĤÐµÑħ":1216,"Ð°Ð²Ð½Ð¾":1217,"ĠÐ¼ÐµÐ¶Ð´Ñĥ":1218,"ĠÐ¼Ð½Ð¾Ð³Ð¾":1219,"ĠÐ²Ð¾Ð·Ð¼Ð¾Ð¶":1220,"ĠÑĤÐ¾ÑĤ":1221,"ĠÐºÐ°ÑĢ":1222,"ÑģÑĤÐ²Ðµ":1223,"ĠÐ²Ð°Ð¼":1224,"ĠÐ½Ð°ÑħÐ¾Ð´":1225,"ĠÐ°Ð½":1226,"Ð¸Ð¼Ð¾":1227,"Ð°ÑİÑĤÑģÑı":1228,"ÐĹ":1229,"Ð°ÑģÐº":1230,"Ð½ÑıÐ»":1231,"ÑĥÐ»ÑĮÑĤ":1232,"Ð¾ÑģÐº":1233,"ÐµÑĢÐ³":1234,"ÐµÐ³Ð´Ð°":1235,"ĠÐ¿Ð¾Ð½Ð¸Ð¼":1236,"Ð±Ð¾ÑĢ":1237,"ĠÐ¸Ñģ":1238,"Ð°Ð»ÑĮÐ½Ð¾":1239,"Ð½Ð°ÐºÐ¾":1240,"Ð²Ð¾Ð´":1241,"ĠÑĥÑģ":1242,"ĠÐ»Ð¸ÑĪÑĮ":1243,"Ð½Ð¸Ðµ":1244,"ĠÐ¿ÑĢÐ¾ÑĪ":1245,"ĠÑĥÑĤ":1246,"ĠÐĶÐ°":1247,"ĠÐ¿ÑĢÐ¸Ðº":1248,"ĠÐ¢Ñĭ":1249,"ĠÐ²ÐµÐ»":1250,"ĠÑįÑĤÐ¾Ð¹":1251,"ĠÐ¿Ð¾ÐºÐ°":1252,"ÑĨÐ¸Ñİ":1253,"ĠÑĢÐ°ÑģÑģ":1254,"ĠÐ¼Ð°Ð»":1255,"ĠÐ³Ð»Ð°Ð·Ð°":1256,"ÑĭÑĩ":1257,"ĠÑĥÐ¿":1258,"ĠÐ³Ð¾Ð»Ð¾Ñģ":1259,"ĠÑĥÐ·":1260,"ĠÑħÐ¾Ñĩ":1261,"ĠÐ¿ÑĢÐ¸Ð¼":1262,"ĠÑĢÐ°ÑģÑģÐº":1263,"ĠÐ¾ÐºÐ°Ð·":1264,"ĠÑģÐµÐ¼":1265,"ĠÑģÐ²Ð¾Ñİ":1266,"Ð¸Ð·Ð½Ð¸":1267,"ĠÐ·Ð½Ð°Ñĩ":1268,"Ð¾Ð²Ð°ÑĤÑĮ":1269,"ĠÐ´Ð¾Ð±":1270,"ĠÐºÑĢÐ°Ñģ":1271,"ĠÐ¿ÑĢÐ¸Ñģ":1272,"ĠÐ¼Ð¾ÑĢ":1273,"ĠÐ¿ÑĢÐ¾Ð´Ð¾Ð»Ð¶":1274,"ĠÑģÑĤÐ¾ÑĢÐ¾Ð½":1275,"Ð¾Ð½Ñĩ":1276,"ĠÑģÐ²ÑıÐ·":1277,"Ð»Ð¾Ð¶":1278,"ÂłÐĲ":1279,"ĠÑĤÐµÐ»":1280,"ĠÑĥÐ³":1281,"ĠÐ§ÑĤÐ¾":1282,"Ð²Ð°ÑĢ":1283,"Ð¼Ñĭ":1284,"ÐµÑĢÐµÐ²":1285,"ÑĢÐ°ÑĦ":1286,"ĠÐ¶Ð¸Ð·Ð½Ð¸":1287,"ĠÐ¶ÐµÐ½Ñī":1288,"ĠÐ½ÐµÐµ":1289,"ĠÑĥÑģÐ»":1290,"Ð¾Ð»Ð¾Ð³":1291,"ÐµÐ½Ð¾":1292,"Ð½Ñİ":1293,"Ð»ÐµÐ´":1294,"Ð»ÐµÐ¼":1295,"ĠÑĥÐ²Ð¸Ð´":1296,"ĠÐ¿Ð¾Ð¶":1297,"ÑģÐºÐ°Ñı":1298,"ĠÐ½ÐµÐ±":1299,"ÑĢÐ°Ð¼":1300,"Ð¸ÑĢÑĥ":1301,"Ð½Ð¸Ð¹":1302,"ĠÐ¶Ð¸Ð·Ð½":1303,"ÑģÑĤÐ²ÐµÐ½Ð½Ð¾":1304,"ĠÐ¿Ð¾ÑĤÐ¾Ð¼Ñĥ":1305,"ĠÐ´Ð¾Ðº":1306,"ĠÐ½Ð¾Ð³":1307,"ÐµÐ½Ð½Ð¾Ð¹":1308,"Ð¾ÑģÐ¾Ð±":1309,"Ð¸ÑıÑĤ":1310,"ĠÐ¾ÑģÐ¾Ð±":1311,"ÑĪÐ¸Ð¹":1312,"ĠÐ¸Ð¼Ðµ":1313,"Ð¼Ð°Ð½":1314,"ĠÐľÐ°ÑĢ":1315,"ÑģÑĤÑĥÐ¿":1316,"Ð°Ð³Ð¾":1317,"ĠÐŀÐ´":1318,"ÑĤÐ°Ðº":1319,"Ð³Ð°":1320,"ĠÐľÑĭ":1321,"ÑģÐµÐ¼":1322,"ÑĢÑĭÑĤ":1323,"ĠÑĩÐ°Ñģ":1324,"Ð½ÑĥÐ²":1325,"Ð±Ñĭ":1326,"ĠÐ¾ÑģÐ½Ð¾Ð²":1327,"ĠÐ½Ð¾Ñĩ":1328,"Ð¿ÑĢÐµÐ´":1329,"ĠÑĢÐµ":1330,"ĠÑģÑĩÐ¸ÑĤ":1331,"Ð½Ð¸Ð±":1332,"ÑĥÐ´Ð°ÑĢ":1333,"ĠÐ²Ð°ÑĪ":1334,"ÐµÑĢÐ²":1335,"Ð½Ð°ÑĢ":1336,"ÐµÑģÑĮ":1337,"Ð¤":1338,"ĠÑģÐ¾Ð²ÐµÑĢÑĪ":1339,"ĠÐ»ÐµÐ³":1340,"ĠÐ¿ÑĢÐ¸Ð´":1341,"Ð½Ð¾ÑģÑĤÑĮÑİ":1342,"ĠÑģÐºÐ¾ÑĢ":1343,"Ð½ÑĥÑĤ":1344,"ÐµÐ³Ð¾Ð´":1345,"ĠÐ²Ð¼ÐµÑģÑĤ":1346,"Ð±Ð¾":1347,"ĠÐ½Ð°Ð±":1348,"Ð´ÐµÑĢÐ¶":1349,"Ð½Ð¸Ð±ÑĥÐ´ÑĮ":1350,"Ð°ÑĤÐµÐ»ÑĮÐ½Ð¾":1351,"Ð»Ð°ÑģÑĮ":1352,"ĠÐ½ÐµÑģ":1353,"ĠÑįÑĤÐ¸":1354,"ĠÑģÑĤÐ°Ð»":1355,"ÑĦÐ¾ÑĢ":1356,"Ð¸ÑĪÑĮ":1357,"ĠÑİ":1358,"ĠÑģÑĭ":1359,"ĠÑĥÐ»ÑĭÐ±":1360,"Ð¾Ð²Ð¾Ð»ÑĮ":1361,"ĠÐŀÐ½Ð¸":1362,"ĠÑģÐ½Ð¾Ð²Ð°":1363,"ĠÐ²ÑģÐµÐ³Ð´Ð°":1364,"ĠÑģÐ¾Ð³":1365,"Ð¼Ðµ":1366,"ĠÐ¼ÐµÐ´":1367,"Ð°ÑģÑģ":1368,"ĠÐ²ÐµÐ´ÑĮ":1369,"ĠÐ¿ÑĢÐ¾Ñģ":1370,"ĠÐłÐ¾ÑģÑģÐ¸Ð¸":1371,"ÑģÐºÐ¾Ð¼":1372,"ĠÑĤÐ°ÐºÐ¾Ð¹":1373,"ÂłÐ¯":1374,"Ð°ÑĤÑĭ":1375,"Ð¾ÑĢÐ°":1376,"ĠÐºÐ°Ð¼":1377,"ĠÑģÐ¾ÑģÑĤÐ°Ð²":1378,"ĠÐ´Ð²Ð°":1379,"Ð¾Ð²Ð°ÑĢ":1380,"Ð¸Ð²Ð°ÑĤÑĮ":1381,"ĠÐ¿Ð¾Ñħ":1382,"Ġ4":1383,"Ð´ÐµÑĤ":1384,"ĠÑĤÐ¾Ð³Ð´Ð°":1385,"ĠÐ¼ÐµÑĤ":1386,"ĠÑĤÐµ":1387,"ĠÐ¾ÑĤÐ´":1388,"ĠÐ²ÑģÐµÐ¼":1389,"ĠÐ´Ð¾ÑĢÐ¾Ð³":1390,"Ð°ÑĤÐ°":1391,"ĠÑģÐ¼Ð¾ÑĤÑĢ":1392,"Ġ201":1393,"ĠÑģÐ¸Ð´":1394,"ĠÐ¿Ð¾ÑıÐ²":1395,"Ð»Ð¾Ð½":1396,"ĠÐ¾Ð±Ñī":1397,"ĠÐ²ÑģÑı":1398,"ÐµÑĢÐµ":1399,"ĠÐĿÐ¸Ðº":1400,"ÂłÐļ":1401,"Ð°Ð¹ÑĤÐµ":1402,"Ð»Ð¸Ð·":1403,"ĠÐ¿ÑĢÐ¾Ð³":1404,"ÑĢÐ°Ð·Ñĥ":1405,"Ð¾ÐºÐ°":1406,"ÂłÐ¡":1407,"Ð»Ð¾Ð²":1408,"ÑĤÐ¾Ð¼":1409,"in":1410,"Ð¾ÑıÑĤ":1411,"ĠÑĩÐµÐ³Ð¾":1412,"ĠÐ¦":1413,"Ð¸ÑģÑĮ":1414,"ĠÐ²ÑĤÐ¾ÑĢ":1415,"ĠÐºÐ°Ð·":1416,"ĠÐ¿Ð¾ÑĩÑĤÐ¸":1417,"ĠÐ´ÐµÐ»Ð¾":1418,"ĠÐ»ÑİÐ´ÐµÐ¹":1419,"ĠÐ·Ð°Ð¼ÐµÑĤ":1420,"ĠÑĤÐ¾ÑĢ":1421,"Ð°Ð´ÑĨ":1422,"ĠÐ²ÑĭÐ¿":1423,"Ð§":1424,"ÐŃ":1425,"ÑĢÑĥÐ·":1426,"ĠÐŀÐ±":1427,"ÑħÐ²Ð°ÑĤ":1428,"an":1429,"ÑĤÐ¾Ñĩ":1430,"Ð¸ÑģÑģ":1431,"ĠÐ¿ÑĢÐ¸Ñĩ":1432,"Ð¾Ð¼Ð¸Ð½":1433,"Ð¾ÐºÐ¾Ð¹":1434,"Ð²Ð°Ð½":1435,"ĠÑģÑĥÑīÐµ":1436,"ĠÐ½Ð¸ÐºÐ°Ðº":1437,"ĠÐ³Ð¾Ñģ":1438,"ĠÐ³Ð¾ÑĤÐ¾Ð²":1439,"Ð¾ÐºÐ¾":1440,"ĠÑģÐ²Ð¾Ð¸Ñħ":1441,"Ð¾Ð½Ð¸":1442,"Ð¾Ð´Ð°":1443,"ĠÐ¿Ð¾ÐºÐ°Ð·":1444,"ÑĩÐ¸Ðº":1445,"Ð°Ð»Ðµ":1446,"ĠÐ¾ÑĢÐ³Ð°Ð½":1447,"ĠÐĴÑģÐµ":1448,"Ð»ÐµÐºÑģ":1449,"ĠÐ¸ÑģÑĤÐ¾ÑĢ":1450,"ÑıÐ±":1451,"ĠÐ¿ÑĢÐ¸ÑĪ":1452,"Ð°ÐµÑĪÑĮ":1453,"Ð¸Ð½Ð¾Ð¹":1454,"ĠÐ¿ÑĥÑģÑĤ":1455,"Ġ5":1456,"Ð¾ÑĢÐ¾Ð²":1457,"Ð°ÑıÐ²":1458,"ÑĨÑĥ":1459,"ĠÑģÐµÐº":1460,"ÑıÑģÐ½":1461,"ĠÑĢÑıÐ´":1462,"ĠÐ¾ÑĤÐ²":1463,"ĠÐ·Ð°Ñģ":1464,"ÑĢÑĥÐ¿Ð¿":1465,"Ð½ÑĥÐ»Ð°ÑģÑĮ":1466,"ĠÑģÐ¸Ð»ÑĮ":1467,"ĠÑģÐ²Ð¾Ð¸":1468,"Ð½ÐµÐ¼":1469,"ĠÐ²Ð·Ð³Ð»ÑıÐ´":1470,"ĠÑģÐ²Ð¾ÐµÐ³Ð¾":1471,"Ð¸Ð·Ð°":1472,"ÑĢÐµÑĤ":1473,"Ð´Ñĭ":1474,"ĠÐ²ÑģÐ¿":1475,"ĠÐ´ÐµÑĢÐµÐ²":1476,"ĠÐ½Ð°Ð¿ÑĢÐ°Ð²":1477,"ĠÐ´Ð°Ð½":1478,"ĠÑģÐ²ÐµÑĤ":1479,"Ð¼ÐµÑĤ":1480,"Ð°ÑĢÐ°":1481,"ĠÐ¼Ð°ÑĪ":1482,"ĠÐ¼Ð¸Ð½ÑĥÑĤ":1483,"ÑĮÐµ":1484,"ÐµÐ³Ð¾Ð´Ð½Ñı":1485,"ÑĢÑĥÑĪ":1486,"ĠÐ·Ð°Ð³":1487,"ÂłÐŀ":1488,"ĠÑħÐ¾ÑĤÑı":1489,"ÑĪÐ¸Ñħ":1490,"ĠÐŁÐ¾Ñģ":1491,"ĠÐ²ÑĢÐµÐ¼ÐµÐ½Ð¸":1492,"\",":1493,"ĠÐ¿Ð¾Ð»Ð¾Ð¶":1494,"ĠÐ·Ð°ÑĢ":1495,"ĠÐ¿Ð¾Ð²ÐµÑĢ":1496,"ÑĢÐ¾Ð¿":1497,"Ð¸ÑĤÑĥ":1498,"ÐµÑĢÐº":1499,"ĠÐ·Ð°ÑıÐ²":1500,"ĠÐ¸Ð½ÑĤÐµÑĢÐµÑģ":1501,"ÑģÐ»ÐµÐ´":1502,"ĠÐ¿Ð»Ð°Ð½":1503,"Ð¾Ð½Ð¾Ð¼":1504,"ĠÑģÐ²Ð¾Ð¹":1505,"ĠÐĿÑĥ":1506,"ÐµÐ½ÑĤÐ°":1507,"ĠÑģÑĥÐ´":1508,"ÑĭÐº":1509,"Ð¾Ð²Ð¾Ð¹":1510,"ĠÑĢÑĥÐºÐ¸":1511,"ĠÐ¿Ð»Ð¾":1512,"ĠÑıÐ²Ð»Ñı":1513,"ÑģÑĤÐ²Ð¾Ð¼":1514,"ÐµÐºÐ¾ÑĤÐ¾ÑĢ":1515,"Ð½ÐµÐ²":1516,"ĠÐ·Ð´":1517,"ĠÐ²Ð½Ð¸Ð¼":1518,"ĠÐ¿ÑĥÑĤ":1519,"Ð°ÑĤÐ¸":1520,"ÑĢÐ°Ñħ":1521,"ĠÐºÑĢÐ¾Ð²":1522,"Ð¾Ð²Ð°Ð½Ð¸Ñı":1523,"ĠÐºÐ°ÐºÐ¾Ð¹":1524,"ĠÐ³Ð¾ÑģÑĥÐ´Ð°ÑĢ":1525,"ĠÐĴÐ¾ÑĤ":1526,"on":1527,"ĠÐ½Ð¸ÐºÐ¾Ð³Ð´Ð°":1528,"ĠÑĤÑĢÐ¸":1529,"Ð²Ð¸Ð½":1530,"ĠÑģÐ¿Ð¾ÑģÐ¾Ð±":1531,"ĠÑģÐ¾Ð±Ð¾Ð¹":1532,"Ð¾Ð±ÑīÐµ":1533,"ĠÐºÐ¾ÑĤÐ¾ÑĢÐ°Ñı":1534,"Ð¨":1535,"ĠÐ¿Ð¾Ð¼Ð¾Ñī":1536,"ĠÐ½ÑĥÐ¶Ð½Ð¾":1537,"ĠÑģÑĢÐ°Ð·Ñĥ":1538,"Ð°ÑĤÑĢ":1539,"Ð»Ð¾ÑģÑĮ":1540,"ĠÐĺÐ·":1541,"ĠÐĲÑĢ":1542,"ÐµÐ½Ð½Ð¾Ð³Ð¾":1543,"ÑģÑĤÐ²Ñĥ":1544,"ÑĳÐ½":1545,"Ð¾Ð»Ð¾Ð´":1546,"ÑĩÐ¸Ð²":1547,"Ð°Ñī":1548,"ÑĦÐ¸ÑĨ":1549,"ĠÑħÐ¾Ð´":1550,"ĠÐ¶Ð¸Ð·Ð½ÑĮ":1551,"ĠÐ¼Ð¾Ð¼":1552,"ĠÑģÐ»ÑĥÐ¶":1553,"ĠÑģÐ¾Ð²ÑģÐµÐ¼":1554,"ĠÐ¸Ð·Ð²ÐµÑģÑĤ":1555,"Ð¾Ð½ÐµÑĨ":1556,"ĠÐ¾Ð³":1557,"ÑįÑĤÐ¾Ð¼Ñĥ":1558,"ĠÐ¿ÑĭÑĤ":1559,"ĠÑĪÑĤ":1560,"ĠÑĢÐ°Ð·Ð³":1561,"ĠÑĩÐµÐ»Ð¾Ð²ÐµÐºÐ°":1562,"ĠÐ¼Ð¾Ð»Ð¾Ð´":1563,"ÂłÐľ":1564,"ĠÐ»ÑİÐ´Ð¸":1565,"ĠÑĤÑĢÑĥÐ´":1566,"ĠÑĥÐ´Ð¸Ð²":1567,"Ð°ÑĤÑĥ":1568,"ĠÐ²ÐµÑĩ":1569,"ÑħÑĢÐ°Ð½":1570,"ĠÐºÐ°Ð¿":1571,"Ð»Ð¸ÑĪ":1572,"ĠÐºÐ¾ÑĤÐ¾ÑĢÐ¾Ð¹":1573,"ĠÑģÐ¿ÑĢÐ¾ÑģÐ¸Ð»":1574,"ÐºÐ¸Ñħ":1575,"ĠÐ±Ð¾":1576,"Ð¾Ð»ÑĮÑĪ":1577,"ĠÐ·Ð½Ð°Ñİ":1578,"Ð²ÐµÐ´":1579,"ĠÑĥÑĩÐ°ÑģÑĤ":1580,"ĠÑĤÐ¾Ð»":1581,"ĠÐ¾ÑĤÐ½Ð¾ÑĪ":1582,"ĠÑģÐ¾Ð·Ð´":1583,"Ð°Ðµ":1584,"Ð¸Ð½Ð¾Ð²":1585,"Ð¾Ð¶ÐµÑĤ":1586,"Ð»Ð°ÑģÑĤÐ¸":1587,"ĠÐ¿ÑĢÐ¸Ñħ":1588,"ĠÑģÐºÐ°Ð·Ð°Ð»Ð°":1589,"ĠÑĢÑĥÑģ":1590,"ĠÐ´Ð°Ð»ÑĮ":1591,"Ð¾ÑĢÐ¾ÑĤ":1592,"ĠÐ¼Ð½Ð¾Ð³":1593,"ĠÑī":1594,"ĠÐ±ÐµÑĢ":1595,"Ð°Ð»ÑĮÐ½Ð¾Ð¹":1596,"ĠÐ¿ÑĢÑıÐ¼":1597,"ĠÐ¸Ð¼ÐµÐ½Ð½Ð¾":1598,"ÑħÐ¾Ð´Ð¸ÑĤ":1599,"ĠÐ¼Ð¸Ð»":1600,"ĠÐ¿Ð¾ÑģÐ¼Ð¾ÑĤÑĢ":1601,"ĠÐ½ÐµÐ·":1602,"Ð½Ð¾Ñģ":1603,"ĠÐ²ÑģÑĤÑĢÐµÑĩ":1604,"ÐµÑģÑĤÑĮ":1605,"ĠÐ½ÐµÐ¾Ð±":1606,"ÑĤÐ¾ÑĢÐ°":1607,"ĠÐ¼Ð°Ð³":1608,"ĠÑĨÐµÐ»":1609,"\".":1610,"Ð¸ÑĤÐµÐ»Ñı":1611,"Ð»ÐµÐ½Ð½Ð¾":1612,"Ð¾Ð²Ð°Ð»":1613,"ÐµÐ´Ð¸Ð½":1614,"ĠÑĢÐ°ÑģÐ¿":1615,"Ð»ÐµÐ¹":1616,"ĠÐ¿Ð¾ÑĩÐµÐ¼Ñĥ":1617,"ĠÐ³ÑĢÑĥÐ¿Ð¿":1618,"ĠÐºÐ¾ÑĤÐ¾ÑĢÑĭÑħ":1619,"ĠÐ¿ÑıÑĤ":1620,"ĠÑģÐºÐ°Ð·Ð°ÑĤÑĮ":1621,"ĠÐºÐ¾Ð¼Ð½":1622,"ĠÐ½Ð°ÑĢÐ¾Ð´":1623,"ÑıÑħ":1624,"ĠÐ²Ð¿ÐµÑĢ":1625,"Ð°ÑĤÐµ":1626,"Ð¾Ð±Ð¾Ð´":1627,"ĠÐ´Ð°Ð»":1628,"ĠÐ°Ðº":1629,"ĠÑħÐ¾ÑĢÐ¾ÑĪÐ¾":1630,"ĠÐ¿ÑĢÐ¸Ð±":1631,"Ð²Ñĭ":1632,"ĠÐ¸Ð³ÑĢ":1633,"ÑģÐºÐ¸Ð¼":1634,"Ð¿Ð¾Ð´":1635,"Ð°Ð½Ñĭ":1636,"ĠÐºÐ¾Ð¼Ð°Ð½Ð´":1637,"Ð°ÑĤÐ¾":1638,"ĠÐ¸ÑģÐ¿Ð¾Ð»ÑĮÐ·":1639,"Ð½Ð¸Ñħ":1640,"ĠÐºÐ½Ð¸":1641,"ÑĤÐ¾ÑĢÑĥ":1642,"Ñĸ":1643,"ĠÐļÐ¾Ð½":1644,"ÑĢÐ°ÑģÑĤ":1645,"ÑıÐ³":1646,"Ð½ÐµÐ³Ð¾":1647,"en":1648,"ÑĢÐ¸ÑģÑĤ":1649,"ĠÐ²Ð¼ÐµÑģÑĤÐµ":1650,"ĠÑģÐ»Ð¾Ð²Ð½Ð¾":1651,"ĠÐ²ÐµÑģÑĮ":1652,"ĠÐ®":1653,"ÑĳÑĤ":1654,"ĠÑĢÐµÐº":1655,"ĠÐ²ÑģÑĳ":1656,"ĠÑģÐ¾ÑģÑĤÐ¾Ñı":1657,"ÑĢÐ°Ñĩ":1658,"ÐµÐ·Ð´":1659,"ÑĪÐµÐ³Ð¾":1660,"ĠÑģÐ¾ÑĤ":1661,"ÐµÑĢÐµÐ´":1662,"ĠÐ±ÐµÐ»":1663,"Ð°ÐºÐ¾Ð¼":1664,"Ð¾Ð·Ñı":1665,"ĠÐļÐ¾Ð³Ð´Ð°":1666,"ĠÐ´Ð°Ð²":1667,"ĠÑģÑĥÐ¼":1668,"ĠÐ±ÐµÑģ":1669,"Ð»Ð°Ð³":1670,"Ð°Ð½Ð¾":1671,"ĠÐ»ÑĥÑĩÑĪÐµ":1672,"ÑīÐµÐµ":1673,"ÑĥÐ¹":1674,"Ġ18":1675,"Ð»Ð¸ÑĪÐºÐ¾Ð¼":1676,"Ð´ÑĢ":1677,"ĠÐ±ÑĭÐ²":1678,"Ð¾Ð½Ðµ":1679,"ĠÐ¼ÐµÑģÑĤÐ¾":1680,"ÐºÐ¸Ðµ":1681,"ĠÑģÐ¾Ð±ÑģÑĤÐ²ÐµÐ½":1682,"ĠÐ¿Ð¾Ð´ÑĥÐ¼":1683,"Ð²Ðµ":1684,"ĠÐ¿ÐµÑĢÐµÐ²":1685,"ĠÐ£Ðº":1686,"ÑĥÐ¶Ð´":1687,"Ð°Ð½Ñģ":1688,"ĠÐ³Ð¾Ð»Ð¾Ð²Ñĥ":1689,"Ð°ÑĢÐ¸":1690,"ĠÑĢÑĥÐ±":1691,"ĠÐ¾Ð±ÑĢÐ°ÑĤ":1692,"Ð»Ð¾Ð¼":1693,"Ð½Ð¸Ð·":1694,"Ð¸Ð²Ð°ÐµÑĤ":1695,"ĠÐ´Ð¾Ð»Ð¶ÐµÐ½":1696,"ÑģÑıÑĩ":1697,"ĠÑĤÑıÐ¶":1698,"ĠÐ¿Ð»ÐµÑĩ":1699,"ĠÑıÐ·":1700,"ĠÐľÐ¾ÑģÐº":1701,"ĠÐ´Ðµ":1702,"ÐµÐ½ÐµÑĢ":1703,"ÑĪÐ¸Ðµ":1704,"ÐŀÐ½":1705,"ĠÐ¾Ð¶":1706,"ĠÐ²ÑĭÐ·":1707,"Ð¸ÑĩÐµÑģÐºÐ¾Ð¹":1708,"ĠÑģÐ»Ð¾Ð²Ð°":1709,"ÑĭÐ²Ð°ÑĤÑĮ":1710,"ĠÐ´ÐµÐ²ÑĥÑĪ":1711,"ĠÐ¿ÑĢÐ¾ÑĨ":1712,"ĠÑģÐ»ÑĭÑĪ":1713,"ÑĤÑĥ":1714,"ĠÐ¿ÑĢÐ¾Ñĩ":1715,"es":1716,"ĠÑģÐ¾Ð³Ð»Ð°Ñģ":1717,"ĠÐ±Ð¾Ð³":1718,"Ð¾ÑĤÐ¾Ð¼":1719,"ÑĩÐµ":1720,"ĠÐ¡Ðº":1721,"ÑĪÐµÐ¹":1722,"ĠÐ´ÐµÑģÑı":1723,"ĠÐ´ÑĥÑĪ":1724,"ĠÐ±ÑĢÐ¾Ñģ":1725,"ĠI":1726,"ĠÐ¾ÑĤÐ¿ÑĢÐ°Ð²":1727,"Ð¸ÑĩÐµÑģÐºÐ¸":1728,"ĠÐ¼Ð¾Ð¹":1729,"Ð¸ÐºÐ¾Ð²":1730,"ĠÑĢÐ°ÑģÑĤ":1731,"Ð¸ÑĤÐµÐ»ÐµÐ¹":1732,"ĠÐ¿ÑĢÐ¾Ð¸Ñģ":1733,"ĠÑģÑĤÐ°Ð½":1734,"ĠÐ¼Ð¾Ð¼ÐµÐ½ÑĤ":1735,"ĠÑĢÑĥÐºÑĥ":1736,"ÂłÐĶÐ°":1737,"ÑıÐ¼Ð¸":1738,"ĠÐµÐ´Ð¸Ð½":1739,"ĠÐ¾Ð·":1740,"ĠÐķÐ³Ð¾":1741,"ĠÐ²ÑĭÐ±":1742,"ĠÐ¾Ð¿ÑĢÐµÐ´":1743,"ĠÐ¿ÑĢÐµÐº":1744,"ĠÐĲÐ»ÐµÐºÑģ":1745,"ÑĢÐ¸Ð¼":1746,"ĠÐ½ÐµÐºÐ¾ÑĤÐ¾ÑĢ":1747,"ĠÐ¿ÑĢÐ¾Ð¿":1748,"ÑİÑĤÑģÑı":1749,"ĠÑģÐ¼ÐµÑĢ":1750,"Ð¾ÑĦ":1751,"ĠÐ¼ÑĥÐ¶Ñĩ":1752,"Ġ6":1753,"ĠÐŁÐ¾Ð´":1754,"ĠÑįÑĤÐ¸Ñħ":1755,"Ð¥":1756,"ĠÑģÑĤÐ¾ÑĢÐ¾Ð½Ñĭ":1757,"ÐµÐ²Ð°":1758,"Ð°Ð»ÑĮÐ½ÑĭÐµ":1759,"ÐµÐ½Ð½ÑĭÐ¼":1760,"ĠÐ´ÑĢÑĥÐ³Ð¾Ð¹":1761,"ĠÐºÑĥÑĢ":1762,"ĠÑģÐ»ÑĥÑĩÐ°Ðµ":1763,"ĠÐ²Ð´ÑĢÑĥÐ³":1764,"ĠÑģÐ¾Ñģ":1765,"ĠÑĢÐµÐ±":1766,"ĠÑĥÐ²ÐµÑĢ":1767,"ĠÐĺÐ½":1768,"ĠÑįÑĤÑĥ":1769,"ĠÐ´ÐµÑĢÐ¶":1770,"Ð°Ð»ÑĮÐ½ÑĭÑħ":1771,"ĠÐ¿Ð¾Ð´Ð¾Ð±":1772,"Ð¼Ð¾":1773,"Ð¾ÑĢÐ¾Ð¶":1774,"ĠÐ±Ð»Ð°Ð³":1775,"ĠÐ½ÐµÐ¾Ð±ÑħÐ¾Ð´":1776,"Ð²Ð°Ð»":1777,"Ð»Ð¸Ðº":1778,"ĠÐŁÑĢÐ¸":1779,"ĠÐºÐ¾ÑĤÐ¾ÑĢÐ¾Ð³Ð¾":1780,"ĠÐ¿Ð¾Ð»Ð¸ÑĤ":1781,"ĠÐ±ÑĥÐ´ÑĤÐ¾":1782,"ĠÐ¿Ð¾Ð¹":1783,"ĠÑģÐµÐ³Ð¾Ð´Ð½Ñı":1784,"ĠÑģÐ²Ð¾Ðµ":1785,"ÑĢÐ°Ð´":1786,"Ð¸Ð²Ð°Ð»":1787,"ĠÑģÐ»Ð¸ÑĪÐºÐ¾Ð¼":1788,"ÑĥÑİÑĤ":1789,"ĠÑģÐ¾Ð±Ð¸ÑĢ":1790,"ĠÐºÑĥÐ´Ð°":1791,"ĠÑģÐµÑĢÐ´":1792,"ĠÐºÐ¾Ð½ÐµÑĩÐ½Ð¾":1793,"ĠÐ½Ð°Ð¹":1794,"ĠÐ¼Ð°ÑĢ":1795,"ĠÐ£ÐºÑĢÐ°":1796,"or":1797,"ÐµÐ»ÐµÐ½":1798,"ĠÐ³Ð»ÑĥÐ±":1799,"19":1800,"ÑĤÑĭ":1801,"ĠÐ²ÐµÐ´":1802,"ÐµÑĢÑĭ":1803,"ĠÐ½Ð°Ð·Ð°Ð´":1804,"ÑĢÐµÐ·":1805,"Ð¾Ð»Ð¾":1806,"ĠÑģÐ¸ÑģÑĤ":1807,"Ð¸Ð½Ð³":1808,"ĠÑĤÑĭÑģÑıÑĩ":1809,"ĠÐ²Ð¿":1810,"ÑĥÐ»Ñı":1811,"Ð¾Ð»ÐµÑĤ":1812,"Ð¾ÑĢÐµ":1813,"ÑİÐ´Ð°":1814,"Ġt":1815,"ĠÐ¸Ð·Ð±":1816,"ÐµÑĦ":1817,"ÑĦÐ¾ÑĢÐ¼Ð°":1818,"ĠÑĩÐ¸Ñģ":1819,"ar":1820,"ĠÐ¿ÑĢÐ¸Ð·Ð½":1821,"ĠÑĤÐ°ÐºÐ¾Ðµ":1822,"Ð²Ð¸":1823,"Ð¸ÑĤÐ°Ð½":1824,"Ð°Ð¶ÐµÑĤÑģÑı":1825,"Ð¸Ð²Ð°Ñı":1826,"ĠÐµÑĳ":1827,"Ð¾ÑĤÐ°":1828,"ĠÐ¾Ð³ÑĢ":1829,"ĠÐ´Ð¾Ð¼Ð°":1830,"Ð°Ð»Ð¸ÑģÑĤ":1831,"ĠÑĤÐ¾Ð¼Ñĥ":1832,"ĠÐ¾ÑģÑĤÐ°Ð½Ð¾Ð²":1833,"ĠÐ½Ð¾Ñģ":1834,"ĠÐ¿ÑĢÐ¸ÑħÐ¾Ð´":1835,"ĠÐ»Ð¸Ñĩ":1836,"Ð°Ð»ÑĮÐ½Ð¾Ð³Ð¾":1837,"ĠÑĢÐ°ÑģÑģÐºÐ°Ð·":1838,"ĠÐ¿Ð¾Ð·Ð²Ð¾Ð»":1839,"ĠÐ²Ð½Ñĥ":1840,"ĠÑģÐ²Ð¾Ð¸Ð¼":1841,"ĠÐ²Ð¾Ð¾Ð±ÑīÐµ":1842,"ĠÐ±ÑĭÑģÑĤÑĢÐ¾":1843,"Ð¸ÑĩÐµÑģÐºÐ¸Ñħ":1844,"ĠÐ´Ð²ÑĥÑħ":1845,"ĠÐ¿ÑĢÐµÐ²":1846,"ÑĳÐ¼":1847,"Ð¸ÑĤÐ°":1848,"Ð·Ñı":1849,"ĠÑĢÑıÐ´Ð¾Ð¼":1850,"ÑģÐºÐ¾Ðµ":1851,"ĠÐ³ÑĥÐ±":1852,"ĠÑįÑĤÐ¸Ð¼":1853,"ÐµÑĨÐ¸":1854,"ÐµÑĢÑĥ":1855,"ĠÐ²ÑĭÑħÐ¾Ð´":1856,"ÐµÐ¶Ð´":1857,"Ð°Ð»ÑĮÐ½ÑĭÐ¹":1858,"ÑīÑĳ":1859,"ĠÐ´Ð¾Ð³":1860,"ÑĨÐ¾Ð²":1861,"ÑĨÐµÐ½":1862,"ĠÐ¾Ð´Ð½Ð¾Ð¹":1863,"ĠÐ²Ð°Ð¶":1864,"Ð»ÑİÐ´":1865,"ĠÐ·Ð°Ð½Ð¸Ð¼":1866,"Ð¸ÐºÐ°Ð½":1867,"ĠÐ¾ÑĤÐ²ÐµÑĤÐ¸Ð»":1868,"ĠÐ±ÑĥÐ´ÑĥÑĤ":1869,"ĠÐ½Ð°Ð·ÑĭÐ²":1870,"ĠÐŁÐ¾Ð»":1871,"Ð½ÐµÑĤ":1872,"ĠÐŁÐµÑĤ":1873,"ÑĢÑıÐ´":1874,"ĠÑĤÐ²Ð¾":1875,"Ð¸Ð·Ð½ÐµÑģ":1876,"ÐµÑı":1877,"Ð»ÑģÑı":1878,"Ð³Ð¾ÑĤÐ¾Ð²":1879,"ĠÑĤÑĢÐµÐ±":1880,"ĠÐ½ÐµÐ¿ÑĢ":1881,"ĠÑĢÐ°Ð¹":1882,"Ð¼Ð¸Ð½":1883,"Ð¾ÑıÑī":1884,"ĠÐ²ÐµÑģ":1885,"Ð¾Ð·Ð¼Ð¾Ð¶":1886,"ĠÐ»Ð¸ÑĨÐ¾":1887,"ĠÑĢÐ°Ð·Ð±":1888,"ĠÐ·Ð°Ñī":1889,"ÐµÑĩÑĮ":1890,"ÑĢÐµÐ±":1891,"he":1892,"ĠÑĢÐµÐ·ÑĥÐ»ÑĮÑĤ":1893,"ĠÑĢÐ°Ð·Ð´":1894,"Ð¾Ð²Ð°Ð½Ð¸Ðµ":1895,"ĠÑĤÐ¾Ñĩ":1896,"Ð±Ð°":1897,"ĠÑĥÐ´Ð°ÑĢ":1898,"ÐµÑĢÐ¾Ð¼":1899,"Ð°Ð½Ð¸Ð¹":1900,"ÑħÐ¾ÑĤ":1901,"ĠÐ·Ð°Ð»":1902,"ĠÑĪÐ°Ð³":1903,"Ð¸ÑĨÑĭ":1904,"ĠÑĥÐ»Ð¸":1905,"ÑĤÐ¾ÑĢÑĥÑİ":1906,"ĠÐ¿Ð°Ð»ÑĮ":1907,"ĠÑĨÐ²ÐµÑĤ":1908,"ĠÐ±Ð¾ÑĢ":1909,"ĠÐ»ÐµÐ¶":1910,"ĠÐ¼Ð¾Ð³Ñĥ":1911,"ĠÐ¿ÑĢÐµÐ´Ð»Ð¾Ð¶":1912,"Ð¾Ð±ÑĢÐ°Ð·":1913,"ĠÐ¸Ð´":1914,"ĠÑĨÐµÐ½ÑĤ":1915,"ĠÐ´ÑĢÑĥÐ³Ð¸Ñħ":1916,"ĠÐ½Ð°ÑĩÐ¸Ð½":1917,"ĠÐ´Ð¾Ð¿":1918,"ÑıÐ»Ð¸":1919,"ĠÑĪÐº":1920,"ÂłÐĺ":1921,"ĠÑģÐ½":1922,"ĠÐ²Ð¾Ð·Ð²":1923,"Ð»ÑıÑĤÑĮ":1924,"ÂłÐ§":1925,"ĠÐ¾Ð±ÑīÐµ":1926,"ÐµÐ½Ð´":1927,"Ð¸Ð½Ð¾":1928,"ĠÑģÐ´ÐµÐ»Ð°ÑĤÑĮ":1929,"ĠÑĢÐ°ÑģÐº":1930,"ÑıÐ±ÑĢÑı":1931,"ĠS":1932,"ĠÐ²ÐµÑĤ":1933,"ÑĢÐ°Ð»":1934,"ĠÐķÐ²":1935,"Ð¸ÑĤÐµÐ»Ð¸":1936,"ÑĢÑĮ":1937,"ĠÐ¿ÑĢÐµÐ¶":1938,"Ð¸ÐºÐµ":1939,"ĠÐ¾ÑĤÑĩ":1940,"ĠÐ¼Ð°ÑĤÐµÑĢÐ¸":1941,"ĠÑģÑĤÐ¾ÑĢÐ¾Ð½Ñĥ":1942,"ĠÑģÐ¼Ð¾Ð³":1943,"ĠÐŀÐ´Ð½Ð°ÐºÐ¾":1944,"ĠÐ¼Ð°Ð»ÐµÐ½ÑĮ":1945,"ĠÑħÐ¾Ð·Ñı":1946,"ĠÑģÐ¾Ð¿":1947,"ÐµÐ½Ð½Ð¾Ðµ":1948,"ÑıÐ»Ð°":1949,"ĠÐ½Ð¸ÐºÑĤÐ¾":1950,"ĠÐļÐ°ÑĢ":1951,"ÑıÑĤÑģÑı":1952,"Ð¼Ð¾ÑĤ":1953,"ĠÐ¸Ð·Ð¼ÐµÐ½":1954,"ÑģÑĤÐ²Ð¸Ðµ":1955,"ĠÐĴÐ¾":1956,"ĠÐ¼Ð¾Ð³ÑĥÑĤ":1957,"ĠÐľÐ½Ðµ":1958,"ĠÐ¾ÑĤÑģ":1959,"Ð¸ÑĢÐ¾Ð²Ð°ÑĤÑĮ":1960,"ĠÑģÐ¾Ð»":1961,"ĠÐ¾Ð´Ð½Ð¾Ð³Ð¾":1962,"ÐµÑĢÐ¾Ð²":1963,"ĠÑĥÐ·Ð½":1964,"ĠÐłÐ°Ð·":1965,"Ġ200":1966,"Ð»ÐµÐ³":1967,"ĠÐ¾Ð¿Ð°Ñģ":1968,"Ġ7":1969,"ĠÐ´Ð²Ð¸Ð¶":1970,"ÑĨÐ¸Ð¹":1971,"ĠÑĢÑĭ":1972,"ĠÑĢÐ¾ÑģÑģ":1973,"ĠÑģÐ»Ð¾Ð¶":1974,"Ð¾Ð½Ð¾Ð²":1975,"Ð¾Ð´Ð°ÑĢ":1976,"ĠâĢ":1977,"ĠÐºÐ°Ñĩ":1978,"ĠÐ¸Ð³":1979,"ĠÐ¼Ð¾Ð½":1980,"ĠÐĳÐ¾Ð³":1981,"ĠÐ´ÐµÐ»Ð°ÑĤÑĮ":1982,"ĠÐ¿ÑĢÐµÐ·":1983,"ĠÐ¿Ð¸Ñģ":1984,"ÐµÑĢÐ±":1985,"ĠÐ¾Ð±ÑıÐ·":1986,"ĠÐ½Ð°Ð²ÐµÑĢ":1987,"ĠÐ¾Ð±ÑĢÐ°Ð·Ð¾Ð¼":1988,"ĠÐ¾ÑĦÐ¸ÑĨ":1989,"ÑģÐºÑĥÑİ":1990,"ĠÐĿÐµÑĤ":1991,"ĠÐ¿Ð¾Ð¿ÑĭÑĤ":1992,"ĠÐ¼ÐµÐ½":1993,"ĠÐ½ÐµÐ¼Ð½Ð¾Ð³Ð¾":1994,"Ð°ÐºÐ¾Ð²":1995,"ĠÑįÑĤÐ°":1996,"ĠÐ³ÑĢÑĥ":1997,"Ð¾ÑĤÐ¸Ð²":1998,"ÑįÐ½":1999,"ĠÐ´Ð¾Ð»Ð¶Ð½Ñĭ":2000,"ÐµÐ½Ð½Ð°Ñı":2001,"ÑĢÐ¾Ð±":2002,"Ð±Ñĥ":2003,"at":2004,"ĠÐ¾ÑĤÐºÑĢÑĭ":2005,"Ð°Ð´ÑĨÐ°ÑĤÑĮ":2006,"ĠÐµÑīÑĳ":2007,"ÑĥÑĢÑĭ":2008,"ĠÑģÐ°Ð¼Ð¾Ð¼":2009,"ĠÑĤÑĢÑĥ":2010,"ĠÑģÐ¾Ð²ÐµÑĤ":2011,"ĠÐĽÑİ":2012,"ĠÑģÐ¸ÑģÑĤÐµÐ¼":2013,"Ð¾Ð²ÐµÑĢ":2014,"ĠÐ³Ð¾ÑģÑĤ":2015,"ĠÐ¶Ð´":2016,"ÐºÐ¾Ð³Ð¾":2017,"ÐµÐ»Ð¾ÑģÑĮ":2018,"Ð¿Ð¾Ð»Ð¾Ð¶":2019,"Ð´Ð¾":2020,"ĠÑģÐ¿ÐµÑĨÐ¸":2021,"Ġ/":2022,"ĠÐ±ÐµÑģÐ¿":2023,"Ð°Ð´Ð¸":2024,"ĠÐ²Ð¾Ðº":2025,"ĠÐ¿ÑĢÐ¸Ð³":2026,"Ð°Ð¼Ð°":2027,"ÑĢÐµÐ²":2028,"ĠÐ²ÑģÐº":2029,"ĠÐ²Ðº":2030,"Ð¾Ñİ":2031,"ÑĢÐ¾Ð½":2032,"ÑĢÐ°Ð³":2033,"ĠÐºÐ¾ÑĢÐ°Ð±":2034,"ĠÐ²ÑĭÑģÐ¾Ðº":2035,"ĠÑģÑĤÐ°Ð»Ð¾":2036,".,":2037,"ĠÐ·Ð½Ð°Ð»":2038,"Ð¸Ð´Ð°":2039,"ĠÐ´ÑĥÑħ":2040,"ĠÑģÐ±":2041,"Ð¸ÑĩÐµ":2042,"ĠÐ³Ð¾ÑģÐ¿":2043,"ÐºÐ¾Ð²Ð¾Ð´":2044,"ĠÐ¿ÐµÑĢÐµ":2045,"ĠÐ¿ÑĢÐ¸Ð·":2046,"Ð»ÑıÐµÑĤ":2047,"ĠÐ±Ð°ÑĢ":2048,"ĠÐ²ÐµÐ»Ð¸Ðº":2049,"ĠÑĢÐµÐ³":2050,"ĠÐ¼Ð¾Ð»Ñĩ":2051,"ÑıÑģÑĮ":2052,"ĠÐ°Ð´":2053,"ÐµÐ»Ñİ":2054,"Ð¸ÐµÐ¹":2055,"Ð»Ð¸Ð¶":2056,"Ð»ÑıÐ´":2057,"ĠÐ¿Ð¾ÑģÑĤÐ°Ð²":2058,"ĠÐ¿ÑĢÐ¾Ð±Ð»ÐµÐ¼":2059,"ĠÐºÐ¾Ð³Ð¾":2060,"ĠÐºÐ»":2061,"ÑģÑĤÐ²Ð¾Ð²Ð°Ð»":2062,"ĠÑĩÐµÑĤÑĭ":2063,"ĠÐ³ÐµÑĢ":2064,"Ð¸ÑĩÐµÑģÐºÐ¾Ð³Ð¾":2065,"ĠÐ´Ð²ÐµÑĢÑĮ":2066,"ĠÐºÐ²":2067,"ÐºÐ¸Ð¼":2068,"al":2069,"ĠÑģÑĤÐµÐ½":2070,"ĠÐ¿Ð¾Ð´Ð´ÐµÑĢÐ¶":2071,"ĠÐ¿ÑĢÑıÐ¼Ð¾":2072,"Ð¾ÑĢÐ¾Ð½":2073,"ÑıÑĤÑĮÑģÑı":2074,"ĠÑĨÐ°ÑĢ":2075,"Ð°ÐºÑģ":2076,"ĠÐ¾Ñī":2077,"ÂłÐĿÐµ":2078,"ĠÐ»ÐµÑģ":2079,"ĠÑıÑĢ":2080,"ĠÑĦÐ¾ÑĢÐ¼":2081,"Ð´Ð¶":2082,"ĠÐ¼Ð½Ð¾Ð¹":2083,"ĠÐ¸Ð½ÑĦÐ¾ÑĢÐ¼Ð°":2084,"ÑĭÐ²Ð°ÐµÑĤ":2085,"ĠÑĩÑĥÑĤÑĮ":2086,"ĠÑģÐ¾Ð²ÐµÑĢÑĪÐµÐ½Ð½Ð¾":2087,"ĠÐ³Ð°Ð·":2088,"ĠÐ·Ð°ÑĤÐµÐ¼":2089,"ĠÑĥÐ¿ÑĢÐ°Ð²":2090,"ĠÐĹÐ°":2091,"ÑĤÐ¾Ð½":2092,"Ð°Ð»Ð¸Ð·":2093,"ĠA":2094,"ĠÐļÑĢ":2095,"ĠÑĪÐ¸ÑĢ":2096,"ÐºÐ°Ñı":2097,"Ð°ÑĤÐ¸Ð²":2098,"ĠÐ³Ð¾Ð²Ð¾ÑĢÐ¸ÑĤ":2099,"ÑĪÐ»Ð°":2100,"ĠÐ½Ð°ÑĩÐ°Ð»":2101,"ĠÐ¿ÑĢÐ¾Ðº":2102,"Ð´Ð¾Ñħ":2103,"ĠÐ³Ð¾Ð»Ð¾Ð²Ð¾Ð¹":2104,"ÐµÑĩÐ°ÑĤ":2105,"Ġ8":2106,"Ð²Ð¾Ð·":2107,"ĠÐ¿Ð°ÑĢÑĤ":2108,"ÑĩÐ¸ÑĤ":2109,"Ð¾ÑĩÑĮ":2110,"ĠÐ¿Ð¾ÑĤÐµÑĢ":2111,"ÐĿÐ°":2112,"ĠÐ¼ÐµÑģÑı":2113,"ÐµÐ½ÑĤÐ¾Ð²":2114,"ĠÑĢÐ°Ð·ÑĢ":2115,"ĠÐ¿Ð°Ð»":2116,"ĠÐ¿Ð¾ÑĢÑıÐ´":2117,"Ð´ÑĥÑħ":2118,"ĠÐºÐ¾ÑĤÐ¾ÑĢÑĥÑİ":2119,"ĠÐ´Ð½Ñı":2120,"Ð¸ÑĩÐµÑģÐºÐ¸Ðµ":2121,"ĠÐ¾ÑģÑĤÑĢ":2122,"Ð¾Ð³ÑĢÐ°ÑĦ":2123,"ĠÑģÐ²Ð¾Ð±Ð¾Ð´":2124,"ÑĳÐ»":2125,"Ð»Ð¾ÑĤ":2126,"Ð½Ð¸ÐºÐ¾Ð¼":2127,"Ð½Ð°ÑĢÑĥÐ¶":2128,"Ð²ÐµÑĢÐ¶":2129,"ÐµÐ²ÐµÑĢ":2130,"ĠÐ¾Ð´Ð½Ð¾":2131,"ĠÐ¾Ð³ÑĢÐ¾Ð¼":2132,"ÑıÐ»ÑģÑı":2133,"ĠÐ¾Ð¿ÑĢÐµÐ´ÐµÐ»":2134,"ĠÑħÐ¾ÑĤÐµÐ»":2135,"ÑĭÐ²Ð°Ð»":2136,"Ð¸ÐºÑĥ":2137,"Ð»Ñĥ":2138,"ĠÐºÐ°ÑĤ":2139,"ĠÐ²ÐµÐº":2140,"ĠÐ¼ÐµÑĩ":2141,"ĠÐ²ÐµÑī":2142,"Ð³Ð¾Ð²":2143,"ĠÐ·Ð°ÑģÑĤÐ°Ð²":2144,"Ð°ÑĢÐ°Ðº":2145,"ĠÐ¡Ð¿":2146,"ĠÐ¸Ð´Ðµ":2147,"ÂłÐŃ":2148,"ĠÐ²ÑģÑİ":2149,"ÐĿÐ¾":2150,"Ð¾Ð»Ñİ":2151,"ĠÐµÐ´":2152,"ÐµÐ»ÑĮÐ·Ñı":2153,"Ð¾Ð»Ð¾Ð²":2154,"ÑĪÐ»Ð¸":2155,"ÑģÐ¾Ð½":2156,"ĠÐ¾Ð½Ð¾":2157,"ĠÐ²Ð¾ÑģÐ¿":2158,"ĠÐºÐ¾Ð½ÑĤÑĢ":2159,"ÑĤÐ°ÐºÐ¸":2160,"ÐµÑĢÑĤÐ²":2161,"Ð½ÑĮ":2162,"ĠÐ¾Ð´Ð½Ð°":2163,"Ð»Ð°Ð½":2164,"Ð°ÑĤÐ¾ÑĩÐ½Ð¾":2165,"ĠÐ¾ÑĤÐ»Ð¸Ñĩ":2166,"ÑĭÐ²Ð°Ñı":2167,"ĠÑģÐ»ÐµÐ´ÑĥÑİÑī":2168,"Ð»ÑĥÑĪ":2169,"ĠÐ±ÑĢÐ°ÑĤ":2170,"ĠÑģÑĩÐ°ÑģÑĤ":2171,"ĠÐ¢Ð¾Ð»ÑĮÐºÐ¾":2172,"Ð¾Ð±ÑĢÐ°Ð¶":2173,"Ð¸ÑĤÑĥÐ°":2174,"ĠÐ·Ð½Ð°ÐºÐ¾Ð¼":2175,"Ġ10":2176,"ĠÑıÐ²Ð»ÑıÐµÑĤÑģÑı":2177,"Ð»Ð¸Ð²Ð¾":2178,"ĠÐ´ÐµÐ»Ðµ":2179,"Ð°ÐºÐ°":2180,"ÑģÑĤÐ²Ð¸Ñı":2181,"ĠÑģÑĤÐ°ÑĤÑĮ":2182,"ĠÐ±Ð°Ð½":2183,"Ð½ÐµÑĪ":2184,"Ð¾ÑĤÐ²ÐµÑĤ":2185,"ĠÑħÐ²Ð°ÑĤ":2186,"ĠÑħÐ¾ÑĤÑĮ":2187,"ĠÐ¼ÑĭÑģÐ»":2188,"ĠÐ°Ð²ÑĤÐ¾Ð¼":2189,"ĠÑįÐºÑģÐ¿":2190,"ĠÐ³ÑĢÐ°Ð½":2191,"ÑĢÐ¸Ð¼ÐµÑĢ":2192,"Ð°ÐµÑĤÐµ":2193,"ÑįÑĢ":2194,"it":2195,"ĠÐ½Ð¸Ð¼Ð¸":2196,"ĠÑģÐ¿Ð°Ñģ":2197,"ĠÐºÑĥÐ¿":2198,"ĠÐºÐ¾ÑĤÐ¾ÑĢÐ¾Ðµ":2199,"ĠÐºÐ¾Ñģ":2200,"ĠÑĩÐµÑĤ":2201,"ĠÑĢÐ°Ð±":2202,"ÐµÐ´Ð¸":2203,"ĠÑĤÐ¾ÑĩÐ½Ð¾":2204,"ĠÑĩÐ°ÑģÑĤÑĮ":2205,"Ð½Ð¸Ð¸":2206,"ĠÑģÑĥÑīÐµÑģÑĤÐ²":2207,"ĠÐ´Ð¾Ð»Ð³Ð¾":2208,"ĠÐºÐ¸Ð²":2209,"Ð°ÑĢÐ¾Ð²":2210,"ĠÐ¼ÐµÑģÑĤÐµ":2211,"ĠÐ´Ð¾Ð±ÑĢ":2212,"ĠÑĤÐ°ÐºÐ¸Ðµ":2213,"is":2214,"ÑħÐ¾":2215,"ĠÐ°ÑĢÐ¼":2216,"Ð¾Ð»Ñı":2217,"ÑĭÑģÐ»":2218,"ÑĦÑĦ":2219,"ÑĢÐµÐ½":2220,"ĠÑģÑĤÐ°Ð»Ð¸":2221,"20":2222,"Ð¸ÑĨÐ¸Ð¸":2223,"ÐµÐ²Ð¸Ñĩ":2224,"Ð°ÑİÑģÑĮ":2225,"ĠÐ¿ÑĢÐ¾ÑĦ":2226,"ĠÑĢÐ¾ÑģÑģÐ¸Ð¹":2227,"ĠÑģÑĢÐµÐ´Ð¸":2228,"ĠÐ½Ð°Ð³":2229,"ĠÐļÐ¾ÑĢ":2230,"ĠÑģÐºÐ°Ð¶":2231,"ÑĢÐ¾Ðº":2232,"ĠÑĩÐ¸ÑĤ":2233,"ĠÑĢÐ°Ð·Ð³Ð¾Ð²Ð¾ÑĢ":2234,"ĠÐŁÐ¾ÑģÐ»Ðµ":2235,"ÐµÑĩÐµÑģÐº":2236,"ĠÐ¸Ñİ":2237,"ĠÐ°ÐºÑĤ":2238,"ĠÐ²Ð¾ÐºÑĢÑĥÐ³":2239,"ĠÑģÐ¿Ð¾ÐºÐ¾Ð¹":2240,"ĠÑģÐ¾Ð´":2241,"ĠÑĥÑģÐ»Ð¾Ð²":2242,"ĠÑįÐ½":2243,"ĠÐ¼Ð¾Ð³Ð»Ð°":2244,"ĠÐ¿Ð¾Ð¶Ð°Ð»":2245,"ĠÐ¿ÑıÑĤÑĮ":2246,"ĠÐºÐ¾Ð½ÑĨÐµ":2247,"ÂłÐ³":2248,"Ð¾Ð·Ð¼Ð¾Ð¶Ð½Ð¾":2249,"ĠÐ½Ð°Ð»":2250,"ĠÑĤÐ¸Ñħ":2251,"ĠÐºÑĢÐ°Ð¹":2252,"ĠÐ¿Ð¾Ð»ÑĮÐ·":2253,"Ð¨ÐĲ":2254,"ĠÑĤÐ¾Ð²Ð°ÑĢ":2255,"ĠÐ¿Ð¾Ð±ÐµÐ´":2256,"ĠÐ²Ð¸Ð´ÐµÐ»":2257,"ÐµÑĢÑĮÐµÐ·":2258,"ĠÐ²Ð¾Ð·Ð´ÑĥÑħ":2259,"Ð°ÑĤÐµÐ»Ñı":2260,"ĠÐ¿Ð¾Ð¼Ð¾Ð³":2261,"ÑĥÐ±Ð»Ð¸":2262,"ĠÐ´Ð¾Ð²Ð¾Ð»ÑĮ":2263,"ĠÑĢÑĥÐºÐ¾Ð²Ð¾Ð´":2264,"ĠÐ³Ð¾Ð²Ð¾ÑĢÐ¸Ð»":2265,"Ð¸Ð²ÑĪÐ¸ÑģÑĮ":2266,"Ð¾Ð»ÐµÐ²":2267,"ĠÐºÐ°Ð±":2268,"ĠÐĵÐµÑĢ":2269,"ĠÑģÑĤÐ°Ð½Ð¾Ð²":2270,"ĠÐĿÐ°Ð´":2271,"ĠÐĲÐ»ÐµÐºÑģÐ°Ð½Ð´":2272,"Ð¸ÑĩÐµÑģÐºÐ¸Ð¹":2273,"ÐµÐ½ÑĤÑĭ":2274,"ĠÐ´Ð²Ðµ":2275,"ĠÐ²ÑĭÑģÑĤÑĥÐ¿":2276,"ĠÐ»Ð°Ð´":2277,"ĠT":2278,"ĠÑħÐ¾Ð»Ð¾Ð´":2279,"ĠÐºÐ°ÑĩÐµ":2280,"ĠÑģÐ¸ÑĤÑĥÐ°":2281,"ĠÑģÑĤÐ¾Ð¸ÑĤ":2282,"ĠÐ¡Ð¾Ð²":2283,"ĠÑĤÐ°ÐºÐ¸Ð¼":2284,"ĠÐ¿ÑĢÐ¾Ð¼":2285,"ÂłÐĿÑĥ":2286,"ĠÐ´Ð¾Ð±Ð°Ð²":2287,"ĠÐ²ÑĭÐ¿Ð¾Ð»":2288,"ĠÑģÑĤÑĢÐ¾":2289,"ĠÑħÐ»":2290,"ĠÐ¾Ð±ÑĢÐ°Ñī":2291,"ÑĳÑĢ":2292,"Ð½Ð¸ÑĨÐ°":2293,"ĠÐ½Ð°ÐºÐ¾Ð½ÐµÑĨ":2294,"ĠÐºÐ°ÑĢÑĤ":2295,"ĠÐ¿ÑĢÐ¸ÑģÑĤ":2296,"Ð°ÑĢÐ´":2297,"ĠÐ½ÐµÐ¼Ñĥ":2298,"Ġ9":2299,"ĠÐĴÐ»Ð°Ð´":2300,"ĠÐĵÐ¾Ñģ":2301,"ĠÐ¿Ð¾Ð½ÑıÐ»":2302,"ÑĮÑĪÐµ":2303,"Ð¾Ð»Ð°":2304,"ĠÐ²Ð½ÑĥÑĤÑĢ":2305,"ĠÐºÑĢÐµÐ¿":2306,"ĠÑĢÐ°Ð´Ð¸":2307,"Ð¸Ð°Ð½":2308,"ĠÐ¿ÑĢÐµ":2309,"ĠÐ±Ð»Ð¸Ð·":2310,"Ð¾ÑĩÐµÐ¼Ñĥ":2311,"ĠÑĥÐ¶Ð°Ñģ":2312,"Ð¾ÑıÐ½":2313,"Ð¼ÐµÑĢÐ¸ÐºÐ°Ð½":2314,"ÐµÑİ":2315,"ĠÐ´ÑĢÑĥÐ³Ð¸Ðµ":2316,"ĠÐ¾ÑĢÑĥÐ¶":2317,"?!":2318,"ÐµÐºÑĤÐ¸Ð²":2319,"ÑĪÐµÐµ":2320,"Ð¸ÑıÑħ":2321,"Ð¾Ð»Ð¾ÑĤ":2322,"ĠÐ¼Ð¾Ð³Ð»Ð¸":2323,"Ð°ÑĢÐ°ÐºÑĤÐµÑĢ":2324,"ĠÐ¿ÑĢÐ¾Ð²Ð¾Ð´":2325,"ĠÐĴÐµÑĢ":2326,"ĠÐ½ÐµÑĩ":2327,"ĠÐ¿Ð¾ÑģÑĤÑĥÐ¿":2328,"ĠÑģÐ°Ð¼Ð¾Ð³Ð¾":2329,"ÑĢÐµÐ¿":2330,"ĠÑģÐ¾ÑĢ":2331,"Ð³Ð»Ð¸":2332,"ÑĥÐ»Ð¸":2333,"ĠÐ±ÐµÐ´":2334,"Ð½ÐµÑģ":2335,"ĠÐ¾Ð´Ð½Ð°ÐºÐ¾":2336,"ÑĭÑģ":2337,"ĠÐ´ÐµÐ¹ÑģÑĤÐ²Ð¸ÑĤÐµÐ»ÑĮÐ½Ð¾":2338,"Ð¾ÑģÑĤÑĮÑİ":2339,"ÑĢÐ¸ÑĤÐ¾ÑĢ":2340,"ÂłÐ¢Ñĭ":2341,"Ð»Ð°ÑĪ":2342,"Ð¸ÑĦ":2343,"ĠÐ½Ð°Ð¿Ð¸Ñģ":2344,"ĠÐ¿Ñģ":2345,"Ð°ÑİÑīÐ¸Ñħ":2346,"ÑĪÐ¸Ð±":2347,"Ð»ÐµÐ¶":2348,"ÑģÐºÐ¸":2349,"ĠÐ§ÐµÑĢ":2350,"ĠÑĤÐ¾Ð½":2351,"Ð¼Ð°ÑĤÑĢ":2352,"ĠÐ·Ð°ÐºÐ»ÑİÑĩ":2353,"ĠÐ¡Ð¨ÐĲ":2354,"ĠÐ´Ð°Ð»ÑĮÑĪÐµ":2355,"ĠÑĢÐµÐ´":2356,"ĠÐ¿Ð¾ÑįÑĤÐ¾Ð¼Ñĥ":2357,"Ð¸ÑĢÐ°":2358,"Ġ15":2359,"ĠÐ¾ÑģÐ²":2360,"Ð¾Ð¼Ðµ":2361,"Ð¸ÑĨÐ°":2362,"Ð°Ð¶Ð´Ð°Ð½":2363,"ĠÑģÑĤÐ°Ð»Ð°":2364,"ÑĭÐ¿":2365,"Ð°Ð½Ð¸ÐµÐ¼":2366,"ĠÐ½ÐµÐ¾Ð±ÑħÐ¾Ð´Ð¸Ð¼":2367,"ĠÐ´Ð²Ð¾ÑĢ":2368,"ĠÐ¿Ð¸ÑģÑĮ":2369,"ĠÐºÐ°ÐºÐ¸Ðµ":2370,"Ð°ÑİÑīÐ¸Ð¹":2371,"ĠÐ±ÐµÑĢÐµÐ³":2372,"ĠÐ¿ÑĢÐ¾Ð¸Ð·Ð²Ð¾Ð´":2373,"ĠÐ¾ÐºÐ¾Ð»Ð¾":2374,"ĠÐ¸Ð·Ð´":2375,"ĠÐ¿ÑĢÐµÐºÑĢÐ°Ñģ":2376,"Ð¿Ð¾Ð»Ð½Ðµ":2377,"ĠP":2378,"Ð³Ñĥ":2379,"ĠÐ²ÑĭÐ´":2380,"ÂłÐĹ":2381,"Ð°ÑĢÑĮ":2382,"Ð¾Ð½Ð´":2383,"ĠÐ³Ð¾ÑĢÐ¾Ð´Ð°":2384,"ĠÑĥÑģÑĤÐ°Ð½Ð¾Ð²":2385,"ÐµÐ»ÐµÐ¼":2386,"ĠÐ³ÑĢÐ¾Ð¼":2387,"ĠÐ¢ÐµÐ¿ÐµÑĢÑĮ":2388,"ĠC":2389,"ĠÐ¾Ð±ÑĬÑıÑģÐ½":2390,"Ð¾ÑĩÐºÐ°":2391,"ĠÐ¼Ð¸ÑĢÐ°":2392,"ĠÐ¾Ð±Ð½Ð°ÑĢÑĥÐ¶":2393,"ĠÑĤÐ²":2394,"ĠÐ¼ÑĥÐ·":2395,"ĠÑħÐ¾ÑĩÑĥ":2396,"ĠÐºÑĢÑĥÐ³":2397,"ÐµÐ½ÐºÐ¾":2398,"ĠÐ¡Ð°Ð¼":2399,"ĠÑģÐ¿ÑĢÐ°Ð²":2400,"Ð¾Ð´Ñĭ":2401,"ÐºÐ°Ð¼":2402,"ĠÐ¿ÑĢÐ¸ÐºÐ°Ð·":2403,"ĠÐ²Ð¾Ð»Ð¾Ñģ":2404,"Ð°Ð½Ð½Ð¾":2405,"ĠÐ·Ð½Ð°ÑĩÐ¸ÑĤ":2406,"ĠÐ¿ÐµÑĢÐ²ÑĭÐ¹":2407,"ĠÐºÐ°Ð¶ÐµÑĤÑģÑı":2408,"ĠÐ¿ÑĢÐ°ÐºÑĤ":2409,"ĠÑĤÑĥ":2410,"ĠÐºÐ°Ð¶Ð´ÑĭÐ¹":2411,"ĠÐĿÐ¾Ð²":2412,"ĠÐ»Ð¸ÑĪ":2413,"__":2414,"ĠÐ¼Ð¾ÐµÐ¹":2415,"ĠÑģÐ¾Ð»Ð½":2416,"ĠÑĢÐ°Ð·Ð¼":2417,"Ð¡Ð¡":2418,"ĠÐ·ÑĢ":2419,"ĠÐ¶ÐµÑģÑĤ":2420,"ĠÑģÑĤÑĢÐ°ÑĪ":2421,"ĠÐ¸Ð½ÑģÑĤ":2422,"ĠM":2423,"Ð½ÑĥÑĤÑĮÑģÑı":2424,"II":2425,"Ð³Ðµ":2426,"ĠÐ¿ÑĢÐ¾Ð¸Ð·Ð¾ÑĪ":2427,"ĠÐºÑĢÑĥÐ¿":2428,"ĠÐµÐ²":2429,"ÑģÑıÑĤ":2430,"ĠÐ¥Ð¾ÑĤ":2431,"ĠÑĤÐµÑĢÑĢÐ¸ÑĤÐ¾ÑĢ":2432,"ĠÑĩÐ¸ÑģÑĤ":2433,"Ð¸Ð²Ð°Ð»Ð¸":2434,"ÑģÑĤÐ²ÐµÐ½Ð½Ð¾Ð¹":2435,"ĠÑĥÑĢÐ¾Ð²":2436,"ĠÐ¾ÑĢÐ³Ð°Ð½Ð¸Ð·Ð°":2437,"ĠÐ¸ÑģÑĩ":2438,"ĠÐ¿ÑĢÐµÑģÑĤ":2439,"ĠÑĢÐ°Ð²Ð½Ð¾":2440,"ĠÐ´Ð°Ð²Ð½Ð¾":2441,"ĠÐ·Ð°ÐºÐ¾Ð½":2442,"ĠÑģÐ¾Ð¼Ð½":2443,"ĠÐ½ÐµÐ»ÑĮÐ·Ñı":2444,"ĠÐ½Ð°ÑĩÐ°Ð»Ð°":2445,"Ð²Ð¸Ð´":2446,"ÐµÑĩÐµÐ½Ð¸Ðµ":2447,"ĠÑıÐ·Ñĭ":2448,"ĠÐ¼ÐµÐ½ÑĮ":2449,"ĠÑģÐ»ÑĥÑĩÐ°Ð¹":2450,"Ð¾Ð¶Ð¸Ð´":2451,"ĠÑĢÐ°Ð±Ð¾ÑĤÑĭ":2452,"ĠÐ¼Ð°Ð»ÑĮ":2453,"ÑĨÐ¸Ð¿":2454,"Ð°Ð½Ð¸Ñİ":2455,"ÑĨÐ°Ð¼Ð¸":2456,"Ð¾Ð·Ð½":2457,"Ð¾Ð»ÑĮÐºÑĥ":2458,"ĠÐ¾ÑĤÐ¿":2459,"ÂłÂłÂłÂł":2460,"ÑĪÐ¸Ð¼":2461,"Ð¾Ð²Ð°Ð»Ð¸":2462,"ĠÑįÑĤÐ¾Ð¼Ñĥ":2463,"ĠÐ¾Ð¿ÑıÑĤÑĮ":2464,"ĠÐ¿ÑĢÐ¸Ð»":2465,"Ġs":2466,"ĠÐ½ÐµÐº":2467,"ĠĠĠĠ":2468,"ĠÐ½ÑĢÐ°Ð²":2469,"ĠÐ²ÑģÑĤ":2470,"Ð°ÑĦ":2471,"ĠÐºÐ½Ñı":2472,"ĠÐ·Ð°Ñĩ":2473,"Ð¸Ð·Ð¼":2474,"ĠÐĴÑģ":2475,"ĠÐĶÐ»Ñı":2476,"ĠÐ²ÑģÑĤÑĢÐµÑĤ":2477,"ĠÑģÐ¾Ð¾ÑĤÐ²ÐµÑĤ":2478,"ĠÑĤÐ°ÐºÐ¸Ñħ":2479,"ĠÐ¾Ð±Ð»Ð°ÑģÑĤÐ¸":2480,"ĠÐ¿Ð¾Ð´ÑĤ":2481,"ĠÐ¾ÑĤÐ´ÐµÐ»":2482,"Ð½ÑĥÐ»Ð¸":2483,"ĠÑħÐ°ÑĢÐ°ÐºÑĤÐµÑĢ":2484,"ĠÑĤÐ°ÐºÐ¾Ð³Ð¾":2485,"ĠÑĥÑģÐ»ÑĭÑĪ":2486,"ĠÐ¿ÑĢÐµÐ·Ð¸Ð´":2487,"Ġ*":2488,"ĠÐ¼ÐµÐ½ÐµÐµ":2489,"Ð¾ÑģÑĤÐ¾":2490,"ĠÐ¿Ð°Ð¼":2491,"ĠÐĺÐ¼":2492,"ĠÐ¿Ð¾Ð²ÑĤÐ¾ÑĢ":2493,"Ð¾ÑĢÑĥÐ¶":2494,"Ð½ÑıÑı":2495,"Ð¾Ð±ÑĭÑĤ":2496,"ÂłÐ§ÑĤÐ¾":2497,"Ġd":2498,"ĠÐ½Ð°ÑģÑĤÐ¾ÑıÑī":2499,"ĠÐ²Ð¾Ð·Ð²ÑĢÐ°Ñī":2500,"ĠÐ¿ÑĢÐ¸Ð½Ð¸Ð¼":2501,"ĠÑĢÐµÐ²":2502,"Ð°Ð²ÑĪÐ¸Ð¹":2503,"18":2504,"ĠÐ²Ð¾Ð²":2505,"ĠÐ³Ð¾Ð²Ð¾ÑĢÐ¸ÑĤÑĮ":2506,"ĠÐºÐ¾ÑĤÐ¾ÑĢÐ¾Ð¼":2507,"ĠÐ½ÐµÐ±Ð¾Ð»ÑĮÑĪ":2508,"re":2509,"ĠÐ´ÐµÐ»Ð°":2510,"ĠÑģÐ¾ÑħÑĢÐ°Ð½":2511,"ĠÐ¿Ð¾ÑģÐº":2512,"ĠÐ¾ÑĤÐºÑĢÑĭÑĤ":2513,"ĠÐľÐ¾Ð¶ÐµÑĤ":2514,"ĠÑĦÐ¸Ð½":2515,"ĠÐ¢Ð°Ð¼":2516,"ĠÐ²Ð·Ð³Ð»Ñı":2517,"Ð»ÐµÐ½Ð¸Ð¸":2518,"ĠÑģÑĤÑĢÐ°Ñħ":2519,"ĠÐ¿Ð¾ÑģÑĤÐ¾ÑıÐ½":2520,"ĠÐ´ÐµÐ¼":2521,"ÑıÑĤÐµÐ»ÑĮ":2522,"ĠÐ°Ð¿":2523,"Ð»Ð°ÑĤ":2524,"ĠÑĩÑĥÐ´":2525,"ĠÐ¶Ð°Ð»":2526,"ĠÑĤÐ°Ð½":2527,"ÑĥÑĢÐ½":2528,"ĠÑģÐ°Ð¼Ð°":2529,"ĠÐ¼ÐµÑģÑĤÐ°":2530,"ĠÐ½ÐµÐ½":2531,"ĠÐ½Ð°Ð·Ð²":2532,"ĠÐ²Ð¾Ð¹Ð½Ñĭ":2533,"ÑĥÑĪÐºÐ°":2534,"ĠÐ´Ð»Ð¸Ð½":2535,"ĠÑģÐ´ÐµÐ»Ð°Ð»":2536,"ĠÐ²Ð¸Ð´Ðµ":2537,"ĠÑįÐºÐ¾Ð½Ð¾Ð¼":2538,"Ð¾Ð½ÑĤ":2539,"Ð²ÐµÑĢÐ´":2540,"ĠÐ¿ÑĢÐ¾Ð¸Ð·Ð½ÐµÑģ":2541,"Ð°ÑİÑīÐ¸Ðµ":2542,"ĠÑĢÐ°Ð·Ð²Ð¸ÑĤ":2543,"Ð°ÐºÐ¸":2544,"ĠÐ°Ð¼ÐµÑĢÐ¸ÐºÐ°Ð½":2545,"ÐŀÐ½Ð°":2546,"Ð¾Ð²ÑĭÑħ":2547,"Ð½Ð°ÐºÐ¾Ð¼":2548,"Ġ17":2549,"ĠÐ±Ð¾Ñı":2550,"ĠÐ¿ÑĢÐµÐ¶Ð´Ðµ":2551,"ĠÐºÐ°Ð½":2552,"Ð»Ð°Ð¼":2553,"ĠÐ»ÑİÐ±Ð¾Ð²":2554,"ĠÑĢÐ°Ð·Ð»Ð¸Ñĩ":2555,"Ð½ÑıÐ»Ð°":2556,"ĠX":2557,"ĠÑĩÐ°ÑģÑĤÐ¸":2558,"Ġ199":2559,"ĠÑģÐ²ÐµÑĢ":2560,"Ð°Ð»ÑĮÐ½Ð¾Ðµ":2561,"ĠÑĥÐºÐ°Ð·":2562,"le":2563,"ÐºÐ¾Ðµ":2564,"Ð¸ÑģÑĤÐµÑĢ":2565,"ĠÐ²Ð¿Ð¾Ð»Ð½Ðµ":2566,"ĠÐ½Ð¾Ð³Ð¸":2567,"ÑĢÐ¸Ðº":2568,"Ð¾ÑıÑĤÐµÐ»ÑĮ":2569,"ĠÑĤÐ°":2570,"ĠÐĿÐ°Ð¿":2571,"ÑĢÐ¾Ð´Ðµ":2572,"ĠÑĨÐµÐ½":2573,"ÐµÐ»Ð¸Ðº":2574,"!Â»":2575,"Ð¸Ð»Ð»":2576,"ĠÐ¿ÐµÑĢÐµÐ¿":2577,"Ð¾Ð±Ð¾Ð¹":2578,"Ð¸ÑĤÐµÑĢ":2579,"ĠÐ¿Ð¾Ð´Ð¾ÑĪ":2580,"ĠÑĤÐ¾Ð¹":2581,"ĠÐ½Ð°ÑĥÑĩ":2582,"ĠÐ´ÐµÐ½ÑĮÐ³Ð¸":2583,"ÐºÑĥÐ´Ð°":2584,"ĠÑĤÑĥÑĢ":2585,"ĠÑĤÑĥÐ´Ð°":2586,"ĠÐ´Ð¾Ð»Ð¶Ð½Ð°":2587,"ĠÐ¿Ð¾Ð½ÑıÑĤ":2588,"ĠÐ¤ÑĢÐ°Ð½":2589,"ĠÐ·Ð½Ð°ÐµÑĤ":2590,"ÑĨÐ¸ÐµÐ¹":2591,"Ð°Ð½Ð½ÑĭÐµ":2592,"ÑģÐ¸":2593,"ÑĥÑĢÐ°":2594,"ic":2595,"ĠÐ´Ð¾ÑģÑĤÐ°ÑĤÐ¾ÑĩÐ½Ð¾":2596,"Ð°ÑĤÐ¾Ð²":2597,"ĠÐºÐ¾ÑģÑĤ":2598,"ĠÑħÑĥÐ´":2599,"Ð¾Ð´Ñĥ":2600,"Ð°Ð´Ð°":2601,"ĠÐ¸Ð¼ÐµÐµÑĤ":2602,"ĠÐ¿ÑĢÐ°Ð²Ð¸ÑĤÐµÐ»ÑĮ":2603,"ÑĨÐµÐ¼":2604,"ĠÐ¿Ð¾Ð´Ñĩ":2605,"ĠÐ·Ð»":2606,"ĠÐ¾ÐºÑĢÑĥÐ¶":2607,"Ð¾ÑĩÐµÐ¼":2608,"ĠÑģÑİÐ´Ð°":2609,"Ð¾Ð·Ð²":2610,"ÐµÐ·Ð¶":2611,"ĠÐ¼Ð¾Ñı":2612,"ÑģÑĥ":2613,"Ð½Ð¾Ðº":2614,"ÑĦÐ¾ÑĢÐ¼":2615,"ĠÐ¸ÑģÐ¿ÑĭÑĤ":2616,"ĠÐ²ÐºÐ»ÑİÑĩ":2617,"ĠÑĢÐ°Ð½ÑĮÑĪÐµ":2618,"Ð¾ÑĤÑĭ":2619,"ĠÐ±Ð¾ÐµÐ²":2620,"ĠÑģÐ¼ÐµÑĢÑĤÐ¸":2621,"ÑģÐ¾Ð²":2622,"Ð¾Ð¿Ð°Ñģ":2623,"ÐĿÐµ":2624,"ĠÑĪÐºÐ¾Ð»":2625,"ĠÐ³ÑĢÐ°Ð¶Ð´Ð°Ð½":2626,"ÑĩÐµÑģÐº":2627,"ĠÐ²ÑĭÑĢÐ°Ð¶":2628,"Ð½Ð¾Ð²ÑĮ":2629,"ĠÐ²Ð¾ÑģÐº":2630,"ĠÐ¼ÐµÐ»":2631,"ĠÐ¿ÐµÑĢÐµÑģÑĤ":2632,"ĠÐ¿Ð¾Ð·Ð´":2633,"ÑĤÐµÐ½":2634,"Ð¾Ð»Ñĩ":2635,"ĠÐŀÑģ":2636,"ĠÑģÐµÑĢÑĮÐµÐ·":2637,"âĢĿ":2638,"ĠÐ·Ð´Ð¾ÑĢÐ¾Ð²":2639,"ĠÐ²ÑħÐ¾Ð´":2640,"ĠÑģÐ»ÑĥÑĪ":2641,"ou":2642,"ĠÐ¼Ð¸Ð»Ð»Ð¸":2643,"ĠÐ¿ÐµÑģ":2644,"Ð¾ÑģÑĤÐ°Ð²":2645,"ĠÑģÐºÐ¾Ð»ÑĮÐºÐ¾":2646,"ĠÐµÐ´Ð²Ð°":2647,"ĠÐ¾Ð±ÑĭÑĩ":2648,"ĠÑĩÐ°ÑģÑĤÐ¾":2649,"Ð¾ÑĢÐ´":2650,"Ðĸ":2651,"ĠÐ·Ð°ÐºÐ¾Ð½Ñĩ":2652,"ÑĢÐ°ÑĤÑĮ":2653,"ĠÐ¸ÑģÑĩÐµÐ·":2654,"ÑĢÐ°Ð½Ð¸Ñĩ":2655,"ĠÑģÐ²Ð¾ÐµÐ¼":2656,"ĠÑĥÐ¼ÐµÑĢ":2657,"ÂłÐĿÐµÑĤ":2658,"Ð°Ð½Ðµ":2659,"ĠÑĤÐµÐ¿":2660,"ĠÑĢÐµÑĪÐ¸Ð»":2661,"ĠÐ·Ð°Ð´ÑĥÐ¼":2662,"ĠÑĦÐ¾ÑĢ":2663,"ĠÐŁÐ¾ÑĤÐ¾Ð¼":2664,"ÑĪÐ°Ñı":2665,"ĠÐºÐ»Ð°Ñģ":2666,"ĠÐ¼Ð³":2667,"ÑģÐºÐ°":2668,"Ð¸Ð¼ÑģÑı":2669,"Ð¿Ð¸Ñģ":2670,"ĠÑĤÐ°Ð¹":2671,"om":2672,"ÑĩÐ°ÑģÑĤ":2673,"Ð¸ÑĤÑĭ":2674,"ĠÐ¾ÑĤÐ²ÐµÑĩ":2675,"ĠÐ¾ÑĤÐºÐ°Ð·":2676,"ĠÑĩÐ»ÐµÐ½":2677,"ÑģÑĤÐ°Ð½Ð¾Ð²":2678,"ĠÑĢÐµÐ±ÐµÐ½":2679,"ĠÐºÑĢÐ¾Ð¼Ðµ":2680,"ĠÐ²Ð¾ÑģÑĤ":2681,"ĠÐ³ÐµÐ½ÐµÑĢ":2682,"ĠÐ¿Ð¾Ð´Ð½ÑıÐ»":2683,"ĠÐ½Ð°Ð±Ð»ÑİÐ´":2684,"ĠÑĥÐ´Ð°Ð»Ð¾ÑģÑĮ":2685,"ĠÐ¸ÑģÐºÐ»ÑİÑĩ":2686,"ĠÐĺÐ»Ð¸":2687,"Ð½Ð°ÑĩÐ°Ð»Ð°":2688,"ĠÑĢÑĥÐº":2689,"ÐºÐ¸Ð½":2690,"ĠÐ±Ð»Ð°Ð³Ð¾":2691,"ĠÐ²Ð·Ð´Ð¾Ñħ":2692,"ĠÐ´ÑĢÑĥÐ³Ð°":2693,"ÑģÑĤÐ²ÐµÐ½Ð½ÑĭÐ¹":2694,"ĠÐ¾ÑĤÐ¼":2695,"ĠÐ¼Ð¾Ð¸":2696,"ĠÐ¾ÐºÐ¾Ð½Ñĩ":2697,"ĠÑĢÐ°Ð²":2698,"ĠB":2699,"ĠÐ²ÑĭÐ±Ð¾ÑĢ":2700,"ÑĢÐ¸Ð¿":2701,"ĠÑģÐ¾ÑĤÑĢÑĥÐ´":2702,"ÑĮÐ¸":2703,"ĠÐ´Ð¸Ð²":2704,"ÐµÐ½Ð½ÑĥÑİ":2705,"ĠÑĤÐµÐº":2706,"Ð»Ñĭ":2707,"Ð°ÑĤÐµÐ»ÐµÐ¹":2708,"ÑģÐºÐ¾Ð¼Ñĥ":2709,"ĠÐ¾ÑĤÐ½Ð¾Ñģ":2710,"ĠÐ°Ð±":2711,"ĠÐ¿ÑĢÐ¾Ð²ÐµÑĢ":2712,"ĠÐ¾ÑĪÐ¸Ð±":2713,"ĠÐ¿ÑĢÐ¾ÑĦÐµÑģÑģ":2714,"ĠÐ²Ð½Ð¸Ð·":2715,"ĠÑıÑģ":2716,"Ð³Ð¾ÑĢ":2717,"Ð½Ð¸Ñı":2718,"ĠÐŁÑĢÐ°Ð²":2719,"Ġ//":2720,"ĠÐ²ÑĤÐ¾ÑĢÐ¾Ð¹":2721,"ĠÐ²ÑģÐµÐ¹":2722,"Ġ12":2723,"Ð±Ðµ":2724,"Ð¾Ð¹Ð´":2725,"ĠÐĵÑĢ":2726,"ĠÐ¿Ð¾ÑħÐ¾Ð¶":2727,"Ð°Ð½Ð½ÑĭÐ¹":2728,"ĠÐ·Ð°Ð¼ÐµÑĤÐ¸Ð»":2729,"Ð½Ð¾ÑģÑĤÐµÐ¹":2730,"ĠÑģÐ°Ð¼Ð¸":2731,"ĠÑĤÐµÐ»Ð¾":2732,"Ð»Ð°Ð²Ð°":2733,"ĠÐ¾Ð±Ñĭ":2734,"ĠÐºÐ°Ð·Ð°Ð»Ð¾ÑģÑĮ":2735,"ĠÑģÐ¾Ð´ÐµÑĢÐ¶":2736,"ĠÐĲÐ»":2737,"ĠÐ·Ð°ÑıÐ²Ð¸Ð»":2738,"ĠÐ¿ÐµÑĩ":2739,"Ð¸ÑĨÐµ":2740,"ĠÐ²Ð½Ð¾Ð²ÑĮ":2741,"Ð¿ÑĢÐ¾ÑĩÐµÐ¼":2742,"Ð¾Ð¿Ð¾Ð»":2743,"Ð¾Ð¶Ð°Ð»":2744,"ĠÑĥÐ²Ð¸Ð´ÐµÐ»":2745,"ĠÐ¼Ð°Ð»Ð¾":2746,"Ð°Ð»Ñĭ":2747,"ĠÑĤÑĢÐ°Ð½":2748,"ĠÐ°ÐºÑĤÐ¸Ð²":2749,"ĠÑģÐ²Ð¸Ð´":2750,"Ġ194":2751,"ĠÐ´Ð¾Ð²Ð¾Ð»ÑĮÐ½Ð¾":2752,"ĠÑĢÐ°Ð·ÑĥÐ¼":2753,"ĠÐ±ÑĥÐ´Ñĥ":2754,"ĠÐ½ÐµÐ¸Ð·":2755,"ĠÐ¿Ð¾ÑĤÑĢÐµÐ±":2756,"ĠÐ¿Ð¾Ð»Ð¾Ð²":2757,"ĠÑĥÐ±Ð¸Ð¹":2758,"ÂłÐŃÑĤÐ¾":2759,"Ð°Ð»ÑĮÐ½ÑĭÐ¼":2760,"ĠÐ¿ÑĢÐ¸ÑıÑĤ":2761,"Ð°ÑĪÐ°":2762,"ĠÐ¾ÑĤÐµÑĨ":2763,"ĠÐ¿Ð¾Ð³Ð¸Ð±":2764,"ĠÐ¿ÑĢÐµÐ´ÑģÑĤÐ°Ð²Ð»Ñı":2765,"ĠÑģÐ¾Ð±ÑĭÑĤ":2766,"ĠÑģÐ»Ð°Ð±":2767,"ĠÐ¡ÐµÑĢÐ³":2768,"ĠÑģÐ¾Ñĩ":2769,"ĠÑģÐ¾Ð·Ð½":2770,"ĠÐ·Ð°ÑģÑĤ":2771,"ĠÐ¿ÑģÐ¸Ñħ":2772,"Ð¾ÑĩÐºÐ¸":2773,"ĠÐ°Ð»":2774,"ĠÑĢÑĥÐºÐ¾Ð¹":2775,"ĠN":2776,"Ð¿Ð¸Ð¾Ð½":2777,"Ð¸ÐºÐ¾Ð¼":2778,"ÐµÐºÑĤÐ¾ÑĢ":2779,"ĠÐ¿ÑĢÐ¸ÑĪÐ»Ð¾ÑģÑĮ":2780,"ĠÐ¾Ð¿ÐµÑĢÐ°":2781,"Ð°ÑĤÑĥÑĢ":2782,"ĠÐ¼Ð³Ð½Ð¾Ð²":2783,"ĠÐ¶Ð¸Ð²Ð¾ÑĤ":2784,"ĠÑģÐ¸Ð»Ñĭ":2785,"ĠÐ¿ÐµÑĢÐµÑģ":2786,"ĠÑĦÐ°ÐºÑĤ":2787,"ĠÑĤÑıÐ¶ÐµÐ»":2788,"ĠÐĴÐ°Ñģ":2789,"ĠÐ¼ÐµÑĢ":2790,"ĠÑģÐ°Ð¼Ð¾Ðµ":2791,"ĠÐ³Ð»Ð°Ð·Ð°Ð¼Ð¸":2792,"ĠÑģÑĤÑĢÐ°Ð½Ñĭ":2793,"Ð½Ð¸ÑĨÑĭ":2794,"ÐŁÑĢ":2795,".]":2796,"ĠÑħÐ¾ÑĤÐµÐ»Ð¾ÑģÑĮ":2797,"ĠÐ¼ÑĭÑģÐ»Ð¸":2798,"ÑįÐ¹":2799,"ĠÐ½Ð¾ÑĢÐ¼":2800,"ĠÐ»Ð¸Ð½":2801,"ĠÐ´ÐµÐ½":2802,"Ð°Ð½Ñĥ":2803,"ÑĩÐµÑĤ":2804,"ĠÐ¿Ð»Ð¾Ñī":2805,"ÂłÐ£":2806,"ĠÐ±Ð»Ð°Ð³Ð¾Ð´Ð°ÑĢ":2807,"ĠÑĢÐ°ÑģÑģÐºÐ°Ð·ÑĭÐ²":2808,"ĠÐ±Ð¾Ð»ÑĮÑĪÐ¾Ð¹":2809,"ĠÐ½Ð°ÑĪÐµÐ¹":2810,"Ð¸ÑĤÑĢ":2811,"ÑĥÐ½Ðº":2812,"Ð¾Ð²ÑĭÐµ":2813,"Ð¼Ð¾ÑĤÑĢÑı":2814,"ÑĢÐµÐ¼ÐµÐ½Ð½Ð¾":2815,"ĠÑģÐ¾ÑĨÐ¸":2816,"ĠÐ¶ÑĥÑĢÐ½":2817,"ĠÐ¾Ð¶Ð¸Ð´":2818,"ĠÐºÐ¾Ð»Ð¸ÑĩÐµ":2819,"Ð¼ÐµÐ½ÑĤ":2820,"ĠÐºÐ¾Ð¿":2821,"ÑģÑĤÐ²ÑĥÑİÑī":2822,"Ð¿Ð¾Ð»Ð°Ð³":2823,"ÐµÐ²Ð¸Ð´":2824,"ÑĢÑĥÑĤ":2825,"Ð½ÑĥÐ»Ð¸ÑģÑĮ":2826,"ĠÐ¾ÑĤÐ¼ÐµÑĤ":2827,"ĠÐ±ÑĥÐ¼":2828,"ĠÐ¾Ð±Ð¾ÑĢ":2829,"ĠÐ¿ÑĢÐ¾ÑħÐ¾Ð´":2830,"ÑĢÐ¾Ð¼Ðµ":2831,"ĠÐ¿Ð¾ÑĩÑĥÐ²":2832,"ĠÐ²Ð»Ð°Ð´":2833,"ĠÐ¿Ð»Ð°ÑĤ":2834,"ĠÐ¾ÑīÑĥÑī":2835,"Ð³ÑĥÑģÑĤ":2836,"ÑģÑĤÐ°":2837,"ĠÑģÐ¼ÑĭÑģÐ»":2838,"ĠÐ¾ÑģÐ¾Ð±ÐµÐ½Ð½Ð¾":2839,"ĠÐŁÐµÑĢÐ²":2840,"ĠÐ¼Ð°ÑģÑģ":2841,"ĠÐ·Ð°Ð¼ÐµÑĩ":2842,"ĠÐ´ÐµÐº":2843,"ĠÐ´Ð½ÐµÐ¹":2844,"Ð¾Ð·Ð´":2845,"ÑģÑĤÐ²Ð¾Ð²Ð°ÑĤÑĮ":2846,"ĠÐ¿Ð¾Ð´Ð¾Ð·":2847,"ĠÐ¾Ð¿ÑĭÑĤ":2848,"Ð¸ÑĢÐ¾Ð²Ð°Ð»":2849,"ÑģÑĤÐµ":2850,"ĠÐ´ÑĢÑĥÐ·":2851,"ĠÑĢÐ°Ð±Ð¾ÑĤÑĥ":2852,"ĠÐ¡Ð²":2853,"ĠÐ¶ÐµÐ½ÑīÐ¸Ð½Ð°":2854,"Ð¿ÑĢÐ¸Ð½":2855,"ĠÐ²Ð»Ð°ÑģÑĤÐ¸":2856,"ĠÐºÐ¾ÑĤÐ¾ÑĢÑĭÐ¼":2857,"Ð°Ð»ÑĮÐ½Ð°Ñı":2858,"ĠÑĥÑģÐ¸Ð»":2859,"ĠÐ²Ð½ÑĥÑĤÑĢÐµÐ½":2860,"ĠÐ´ÐµÑıÑĤÐµÐ»ÑĮ":2861,"ĠÐºÑĢÐµÑģÑĤ":2862,"ĠÑģÑĤÑĢÐµÐ¼":2863,"ĠÑĩÐµÑĤÐ²ÐµÑĢ":2864,"ĠÑĤÐ¸Ð¿":2865,"ĠÐ¸Ð¼Ñı":2866,"ĠÑĥÐ³ÑĢ":2867,"Ð¸ÑħÑģÑı":2868,"ĠÑģÐ¾Ðº":2869,"ĠÐ¿Ð¾Ð»Ñĥ":2870,"ĠÐ½Ð¾ÑĩÑĮ":2871,"ĠÐ½ÐµÐ¾Ð¶Ð¸Ð´":2872,"ĠÐ¾Ð´Ð½Ñĥ":2873,"ĠÐ´ÐµÑģÑıÑĤ":2874,"ÐļÐ°Ðº":2875,"ĠÑģÐ¿ÑĢÐ¾ÑģÐ¸Ð»Ð°":2876,"Ð½ÐµÐ·":2877,"10":2878,"ĠÑĤÐ¾Ð±Ð¾Ð¹":2879,"ĠÐ´ÐµÑĤÐµÐ¹":2880,"ĠÑģÐ²ÑıÐ·Ð¸":2881,"ĠÐ³Ð¾ÑģÐ¿Ð¾Ð´":2882,"ĠÐ¿ÑĥÑĤÐ¸":2883,"Ġp":2884,"ĠÐ½Ð°ÑĩÐ°Ð»ÑĮ":2885,"ĠÐ²Ð¿ÐµÑĢÐµÐ´":2886,"Ð¾Ð¹ÑĤÐ¸":2887,"ÑıÐµÑĤ":2888,"ĠÐ¿Ð°Ð´":2889,"ÐµÐ»Ðµ":2890,"ĠÐ¸ÑĤ":2891,"ĠÐ´Ð¾ÐºÑĥÐ¼":2892,"Ð¾Ð»ÐµÐµ":2893,"Ð¸Ð²Ð°ÑİÑĤ":2894,"ÐµÑĢÐ½Ð¾":2895,"ĠÑĩÐ°ÑģÐ¾Ð²":2896,"ĠÑģÐ°Ð¼Ð¾Ð¹":2897,"ÐµÐ¼ÑĮ":2898,"ÂłÐĳ":2899,"ĠÐ²Ð¾Ð·Ð¼Ð¾Ð¶Ð½Ð¾":2900,"ĠÐĳÐµÐ»":2901,"Ð°Ð¶Ð´Ñĭ":2902,"ĠÐ¼Ð°Ñģ":2903,"ĠÑģÐ»Ð¾Ð²Ð¾":2904,"ĠÑįÐ»ÐµÐº":2905,"ĠÐ¿ÑĢÐ¾Ð³ÑĢÐ°Ð¼":2906,"ĠÐ¼ÐµÑĢÐµ":2907,"ĠÐ¿ÑĢÐ°Ð²Ð´Ð°":2908,"ÑĤÐ¾Ð¶":2909,"ĠÑģÐ¸Ð½":2910,"ĠÑģÐ¾Ð»Ð´":2911,"ĠÑģÐµÐºÑĥÐ½":2912,"Ð²Ð¸Ð³":2913,"ĠÐ»Ð¸ÑĨÐ°":2914,"ĠÐ¿ÐµÑĢÐ¸":2915,"ÑĢÐ°Ð½ÑĨ":2916,"ĠÐ´Ð²Ð¸Ð³":2917,"ĠÐķÐ²ÑĢÐ¾Ð¿":2918,"ĠÐ²ÑĢÐ°Ð³":2919,"ĠÐºÐ²Ð°ÑĢÑĤ":2920,"ÐºÐ½ÑĥÐ»":2921,"ÑģÐ»ÑĥÐ¶":2922,"ĠÐ¸ÑģÐºÑĥÑģ":2923,"ĠÑģÐ²Ð¾Ð¸Ð¼Ð¸":2924,"Ð°Ð¼ÐµÐ½":2925,"Ð²Ð¸Ð¶":2926,"ĠÐºÐ¾ÑĢÐ¾ÑĤ":2927,"ĠÑĤÐ°ÐºÐ°Ñı":2928,"ÑĥÐºÐ°":2929,"ÑħÐ°":2930,"ĠÐ¾Ð±ÐµÑģÐ¿":2931,"ĠÐ½Ð°Ð¹ÑĤÐ¸":2932,"ĠÑģÐ»ÐµÐ´ÑĥÐµÑĤ":2933,"ĠÑįÐ½ÐµÑĢÐ³":2934,"ĠÐ²ÑģÐ¿Ð¾Ð¼Ð½":2935,"ÑĥÑģÐ°":2936,"Ð½Ð¸ÑĨ":2937,"ÑĥÐºÐ¸":2938,"ÑģÑĤÐ²ÑĥÐµÑĤ":2939,"ĠÐľÐ¸Ð½":2940,"ÑħÑĥ":2941,"ĠÐ¿ÑĢÐ¸ÑĢ":2942,"!..":2943,"ÐµÐ¿ÑĤ":2944,"ĠÐ¾ÑħÑĢÐ°Ð½":2945,"ĠÐ²Ð½Ð¸Ð¼Ð°Ð½Ð¸Ðµ":2946,"ĠÐ¸ÑģÑģÐ»ÐµÐ´":2947,"ĠÐĴÐµÐ´ÑĮ":2948,"Ð¸Ð²Ð°ÐµÑĤÑģÑı":2949,"ĠÐ¼Ð¸ÑĢÐµ":2950,"ÐµÐ½Ð¸ÑıÑħ":2951,"ĠÐ·Ð½Ð°ÑĤÑĮ":2952,"ĠÐ¿Ð¾Ð´Ð½Ð¸Ð¼":2953,"ĠÐ¢Ð¾":2954,"ÂłÐļÐ°Ðº":2955,"ÂłÑģ":2956,"ĠÐļÑĤÐ¾":2957,"Ð½Ð°ÑĩÐµ":2958,"Ð¸ÑĨÐµÐ¹":2959,"ĠÐ¾Ð±ÑĬÑıÐ²":2960,"Ð½Ð¸ÑĩÐµÑģÐº":2961,"ÐµÐ½Ð½ÑĭÐ¼Ð¸":2962,"ĠÐŁÐ¾ÑįÑĤÐ¾Ð¼Ñĥ":2963,"ĠÐ±Ð¾Ðº":2964,"ĠÐ¼ÐµÐ´Ð»ÐµÐ½Ð½Ð¾":2965,"ĠÐ½Ð°ÑĪÐ¸":2966,"ÂłÐ²":2967,"ĠÑĦÐ¸Ð·":2968,"ĠÐ½Ð°ÑĢÑĥÑĪ":2969,"Ð°Ð»Ð¾Ð²":2970,"Ð°Ð·Ð´":2971,"ÑĢÐ°Ðº":2972,"ĠÐ´ÑĢÐµÐ²":2973,"as":2974,"15":2975,"Ð¸ÑģÐ°":2976,"ĠÐĶÐ°Ð¶Ðµ":2977,"ÑĭÑĢ":2978,"ĠÐ¤ÐµÐ´":2979,"ĠÐ¿Ð¾Ð½ÑıÑĤÑĮ":2980,"Ð°Ð´ÑĮ":2981,"ĠÐ¾Ð¿ÑĥÑģÑĤ":2982,"ĠÑĤÑĢÐ°Ð²":2983,"ÑģÑĤÐ²ÐµÐ½Ð½Ð¾Ð³Ð¾":2984,"ĠÐ¿Ð¾ÑģÐ¼Ð¾ÑĤÑĢÐµÐ»":2985,"ĠÐ´Ð¾Ð³Ð¾Ð²Ð¾ÑĢ":2986,"ĠÐ½Ð°ÑģÐµÐ»":2987,"ĠÐ¢Ð¾Ð³Ð´Ð°":2988,"ĠÑģÐ¸Ð¼":2989,"Ð¼ÐµÑĪ":2990,"Ð°Ð½Ð¸":2991,"Ġ16":2992,"ĠÐ¿ÐµÑĢÐµÐ¼":2993,"ĠÐ¿ÑĢÐ¾ÑĢ":2994,"ĠÐ´Ð²ÐµÑĢÐ¸":2995,"ĠÑģÑĤÐ°Ð²":2996,"ÑģÑĤÐ²Ð¸Ð¸":2997,"ĠÑģÐµÑģÑĤ":2998,"ĠÐ²Ð¾Ð·Ð½Ð¸Ðº":2999,"Ð¸Ð»ÑĮÐ½Ð¾":3000,"ĠÑģÐµÑĢÐ´ÑĨÐµ":3001,"ÑģÑĤÑĢÐ¾Ð¹":3002,"ĠÐ±ÐµÐ·Ð¾Ð¿Ð°Ñģ":3003,"ĠÐ½ÐµÐ¶":3004,"ĠÐ¼ÐµÑĪ":3005,"ĠÑģÐ¸Ð»ÑĮÐ½Ð¾":3006,"ĠÐ´Ð¾Ð»Ð¶Ð½Ð¾":3007,"Ð°Ð´Ð»ÐµÐ¶":3008,"ĠÐ¾Ð´Ð½Ð¸Ð¼":3009,"Ð°Ð½ÑĮ":3010,"ĠÐ¾ÑĩÐµÑĢÐµÐ´":3011,"ÑĢÐ¾ÑĤÐ¸Ð²":3012,"ĠÐ¼Ð¾Ð´":3013,"ĠÑĤÐµÐ»ÐµÑĦ":3014,"ĠÐ²Ð¾Ð´Ñĭ":3015,"ĠÑģÐ°Ð¼Ð¾":3016,"ĠÐĲÐ²":3017,"ĠÐ¿Ð°":3018,"ÐµÐ¹Ð½":3019,"ÑĮÑıÐ½":3020,"ĠÐ¸ÑģÐ¿Ð¾Ð»Ð½":3021,"ĠÐ½Ð°ÑĢ":3022,"ĠÐ´Ð¾Ð¼Ð¾Ð¹":3023,"Ð¼Ð¸Ð½Ð¸ÑģÑĤ":3024,"ĠÑģÑĤÐ¾ÑıÐ»":3025,"Ġ.":3026,"ĠÐ¼Ð¸ÑģÑģ":3027,"ĠÐ´ÑĥÐ¼Ð°Ñİ":3028,"Ð¸Ð¼Ð°":3029,"ĠÐŁÐ°ÑĢ":3030,"ĠÐ£ÐºÑĢÐ°Ð¸Ð½Ñĭ":3031,"ĠÐ½Ð°Ð¿ÑĢÑı":3032,"ĠÐ¿Ð¾ÑģÐºÐ¾Ð»ÑĮÐºÑĥ":3033,"Ð¾Ð½Ñĥ":3034,"ĠR":3035,"ĠÑģÑĥÐ´ÑĮ":3036,"ĠÐ¿ÑĢÐ¾ÑĨÐµÑģÑģ":3037,"ĠÐ²ÑĭÑģÐº":3038,"Ð½ÐµÐ¼Ñĥ":3039,"Ð½ÑĥÑĤÑĢÐ¸":3040,"ĠÐ½Ñĥ":3041,"ĠÐ²ÑĭÐ¿Ð¾Ð»Ð½":3042,"ĠÑģÐ°Ð´":3043,"ÑĭÐ»ÑĮ":3044,"ĠÐºÑĥÐ»ÑĮÑĤ":3045,"ĠÐ¿ÑĢÐµÑģÑĤÑĥÐ¿":3046,"ĠÐ¿Ð¾Ð´ÑĥÐ¼Ð°Ð»":3047,"ÑĤÑĢÐ°":3048,"ĠÐ¶Ð¸ÑĤÑĮ":3049,"ĠÐ±ÐµÐ³":3050,"ĠÐ·Ð°Ñħ":3051,"ĠÐ¶ÐµÐ»ÐµÐ·":3052,"ĠÐ¿ÐµÑĢÐµÐº":3053,"ÑģÑģ":3054,"Ð¾Ð²Ð°Ð»ÑģÑı":3055,"ĠÐºÐ¾Ð¶":3056,"ĠÐ±Ð°Ð±":3057,"ĠÐ¿Ð°Ð¿":3058,"Ð²Ð¾Ð·ÑĮ":3059,"ĠÑģÑĤÐ¾Ð»ÑĮ":3060,"ÐµÐ»Ð¸Ñĩ":3061,"ĠÐ¾ÑĤÑĤ":3062,"ÑĥÑĢÐ³":3063,"Ð»ÐµÐ½Ð¸ÐµÐ¼":3064,"Ð¾ÑĢÐ¾ÑĪÐ¾":3065,"Ð½ÑĥÐ²ÑĪÐ¸ÑģÑĮ":3066,"ĠÐŁÑĢÐ¾":3067,"ÑĢÐ°Ð¸Ð½":3068,"ĠÐ»Ð¸ÑģÑĤ":3069,"ĠÐĹÐ°Ð¿":3070,"Ð¸Ð±Ð¾":3071,"ĠÐ³Ð¾Ð´Ñĭ":3072,"ĠÐŁÐ¾ÑĤ":3073,"ĠÐĵÐ¾ÑĢ":3074,"ĠÑģÐ±Ð¾ÑĢ":3075,"Ð¡ÑĤ":3076,"ĠÐ·ÑĥÐ±":3077,"ĠÑģÐ°Ð¼ÑĭÐ¹":3078,"ĠF":3079,"ĠÐ½Ð°ÑģÑĤÑĥÐ¿":3080,"ĠÐ¿ÑĢÐ¸Ð½Ð°Ð´Ð»ÐµÐ¶":3081,"ĠÑĦÐ¸Ð³":3082,"ÐºÑĥÑİ":3083,"ĠÐĳÑĢ":3084,"ĠÐ½Ð¾Ð¼":3085,"ĠÐ¸Ð´ÐµÑĤ":3086,"Ð½Ð¾Ð³":3087,"ĠÐ´Ð²ÐµÑĢ":3088,"ĠÐºÐ°ÐºÐ¾Ðµ":3089,"ĠÐ¸ÑģÑĤÐ¾ÑĢÐ¸Ð¸":3090,"ĠÐºÐ»ÑĥÐ±":3091,"ĠÑĢÑĥÐºÐ°Ñħ":3092,"ĠÐ´ÑĢÑĥÐ¶":3093,"ĠÐ±Ð¾Ð¹":3094,"ĠÐ¼Ð¾ÐµÐ³Ð¾":3095,"Ð¾Ð¼ÐµÑĤ":3096,"Ð³Ð»ÑıÐ´ÐµÐ»":3097,"ÐŃÑĤÐ¾":3098,"Ð¾ÑĤÑĥ":3099,"Ð¾ÑĩÐ½Ð¾":3100,"ĠÑģÐµÐ½ÑĤ":3101,"ÑĢÐ¸Ð³":3102,"ĠÐ½Ð°Ð·Ð½Ð°Ñĩ":3103,"ĠÐ¿ÑĢÐ¸ÑģÑĥÑĤ":3104,"ĠÐ²Ð¾Ð·Ð¼Ð¾Ð¶Ð½Ð¾ÑģÑĤÑĮ":3105,"ĠÑĥÐ²ÐµÑĢÐµÐ½":3106,"ĠÐ¼Ð»":3107,"ÐµÑĤÑĥ":3108,"ĠÑĩÐµÐ»Ð¾Ð²ÐµÑĩÐµÑģÐº":3109,"ĠÑĢÐ°ÑģÐ¿Ð¾Ð»Ð¾Ð¶":3110,"ĠÐºÐ¾Ð½ÑĦ":3111,"ĠÐ°Ð²ÑĤÐ¾ÑĢ":3112,"ĠâĢľ":3113,"ĠÑĤÐ²Ð¾ÑĢ":3114,"ĠÐ±ÑĭÑģÑĤÑĢ":3115,"Ð¸ÐµÑģÑı":3116,"ÑĢÐ°Ð½ÑĨÑĥÐ·":3117,"Ð¿ÑĢÐ¾ÑģÑĤ":3118,"ÐµÐ½Ñģ":3119,"ĠÐ±ÑĥÐº":3120,"ĠÑĢÐµÐ¶":3121,"ĠÐ¼Ð°Ð½":3122,"ÐºÐ¸Ð¼Ð¸":3123,"ĠÑģÐ¿ÑĥÑģÑĤ":3124,"ĠÑħÐ¾Ð»":3125,"ĠÑģÐ´":3126,"ĠÐ¾ÑģÑĤÐ°Ð½":3127,"ĠÐľÐ¸Ñħ":3128,"Ð»Ð°Ð·":3129,"ĠÑģÑĬ":3130,"ÐŀÑĤ":3131,"ÑģÐºÐ¸Ð¼Ð¸":3132,"Ð±Ð¸":3133,"Ð¿Ð°ÑĢ":3134,"ĠÐ²Ð½ÐµÑĪ":3135,"ĠÑģÐºÐ¾ÑĢÐµÐµ":3136,"ĠÑģÑĤÐµÐ¿":3137,"ĠÐºÐ°Ñģ":3138,"ĠÐ³Ð°ÑĢ":3139,"ĠÐ¼ÐµÐ½ÑĮÑĪÐµ":3140,"ĠÑĢÑĥÐºÐ°Ð¼Ð¸":3141,"ĠÑĥÐ´Ð°":3142,"ĠÐ²ÑĢÐ¾Ð´Ðµ":3143,"ĠÑĥÑĤÑĢ":3144,"ĠÐ°Ð³":3145,"ĠÑĦÐ¸Ð»ÑĮ":3146,"ĠÐ±ÑĥÑĢ":3147,"ĠÑģÐ¾ÑģÐµÐ´":3148,"ĠÑĥÐ½Ð¸":3149,"et":3150,"ĠÐ¸Ð·Ð²ÐµÑģÑĤÐ½Ð¾":3151,"ĠÐ²ÐµÑĢÑħ":3152,"ĠÐ¢ÐµÐ¼":3153,"ÑĭÐ²Ð°Ð»Ð¸":3154,"ĠÑģÐ¶":3155,"Ġâ":3156,"Ġc":3157,"Ð»ÐµÑĩ":3158,"Ð¸Ð½ÑĤÐµÑĢÐµÑģ":3159,"ĠÐ³ÑĢÐ°ÑĦ":3160,"ÑģÐ»Ð¾Ð²":3161,"ĠÐ·Ð½Ð°ÐµÑĪÑĮ":3162,"Ð¸ÑĩÐµÑģÐºÐ°Ñı":3163,"ĠÐ²ÑĭÑĪÐµÐ»":3164,"ĠÑĢÐ°ÑģÑģÑĤ":3165,"Ð²ÑĭÐµ":3166,"ÑİÑĢ":3167,"ĠÐ³Ð¾ÑĢÑı":3168,"ĠÐ¡ÐµÐ¹ÑĩÐ°Ñģ":3169,"Ġ14":3170,"ĠÐ¿ÐµÑĢÐµÐ³":3171,"ĠÐŁÐµÑĢ":3172,"ÑĨÐµÐ¿":3173,"Ð°ÑĤÐµÐ»Ð¸":3174,"ĠÑĥÑħÐ¾Ð´":3175,"ĠÐļÐ¾Ð¼":3176,"ĠÐ¿ÑĢÐ¾ÑıÐ²":3177,"Ð½ÑİÑİ":3178,"ÑĢÑĥÐº":3179,"ĠÐ´Ð¾Ð»Ð³":3180,"ĠÐ½Ð°Ð¿ÑĢÐ¸Ð¼ÐµÑĢ":3181,"ĠÐ¿ÑĢÐ¾Ð²ÐµÐ´":3182,"Ð°ÑĤÐµÐ¼":3183,"ĠÐ²Ð·ÑıÐ»":3184,"Ð¾Ð¶Ð´ÐµÐ½Ð¸Ñı":3185,"ĠÐĳÑĭ":3186,"ĠÐ²ÑĢÐµÐ¼ÐµÐ½":3187,"Ð°Ð²Ð°ÑĤÑĮ":3188,"12":3189,"ĠÑĥÑĤÐ²ÐµÑĢÐ¶":3190,"ÑıÐ½ÑĥÐ»":3191,"17":3192,"ĠÐ¿ÑĥÑĤÑĮ":3193,"Ð½Ð¸ÑĩÑĤÐ¾Ð¶":3194,"ĠÐ²ÐµÑģÑĮÐ¼Ð°":3195,"Ð´ÐµÐ½":3196,"Ð½Ð¸ÐºÑĥ":3197,"ĠÐºÐ¸Ð²Ð½ÑĥÐ»":3198,"ĠÐ¿Ð¾Ð»Ð½Ð¾ÑģÑĤÑĮÑİ":3199,"ĠÐ¥Ð¾ÑĤÑı":3200,"ÑĢÑĥÐºÑĤ":3201,"ĠÑĤÐ¸ÑħÐ¾":3202,"ĠÐºÐ¾Ð½ÑĤ":3203,"ĠÐ´Ð¸":3204,"ĠÐĴÐ»Ð°Ð´Ð¸Ð¼":3205,"ĠÐ±Ð°Ð»":3206,"ĠÐ´Ð°Ð»ÐµÐºÐ¾":3207,"ĠÑĩÐµÑĤÑĭÑĢÐµ":3208,"ĠÐ¸Ð¼Ð¿":3209,"ÑģÑĤÐ²Ð¾Ð²Ð°Ð»Ð°":3210,"ĠÐ±Ð°Ð·":3211,"Ð½Ð¸ÑĨÑĥ":3212,"Ð¸Ð¶Ñĥ":3213,"ĠÐ²Ð¾ÑĢÐ¾ÑĤ":3214,"ĠÐ¼Ð°ÑĤÑĮ":3215,"ĠÐ·Ð°Ð´ÐµÑĢÐ¶":3216,"ĠÐ¿Ð¾Ð´ÑħÐ¾Ð´":3217,"ĠÐ²ÐµÑĩÐµÑĢ":3218,"ĠÐ½Ð¾Ð¶":3219,"ĠÑĢÐµÑĪÐµÐ½Ð¸Ðµ":3220,"ĠÐŁÑĢÐµÐ´":3221,"ĠÐºÐ¾Ð¼Ð¿Ð°Ð½Ð¸Ð¸":3222,"ĠÐ¾Ð±Ñģ":3223,"ĠÑĤÑĢÐµÑħ":3224,"Ð½Ð¸Ð²":3225,"ĠÐ¿Ð¾Ð´Ð³Ð¾ÑĤÐ¾Ð²":3226,"ĠÐ´ÑĥÐ¼Ð°Ð»":3227,"ÂłÐĴÑĭ":3228,"Ð»ÐµÐ½Ð°":3229,"ĠÐ²ÑĭÐº":3230,"ĠÐ¾ÐºÐ°Ð·Ð°Ð»ÑģÑı":3231,"ÑģÑĤÐ²ÐµÐ½Ð½Ð¾Ðµ":3232,"ĠÑĩÑĥÐ¶":3233,"Ð¸ÑĤÐµÐ»ÑĮÐ½ÑĭÐ¹":3234,"ĠÐ´ÐµÐ²ÑĥÑĪÐºÐ°":3235,"ru":3236,"ĠÐ¸Ð½ÑĤÐµÑĢ":3237,"ÑĥÐµÑĤÑģÑı":3238,"ĠÑģÐ»Ð¾Ð²Ð°Ð¼":3239,"ĠÐ½Ð°Ð¼Ð¸":3240,"ĠÐ¿ÐµÑĢÐµÐ±":3241,"ĠÐ·Ð°Ð´Ð°Ñĩ":3242,"ĠÐĳÐµÑĢ":3243,"Ð»ÐµÐ½Ñĭ":3244,"ĠÐºÐ°ÐºÐ¸Ð¼":3245,".)":3246,"Ð½Ð¸ÐºÐ°Ð¼Ð¸":3247,"ĠÐ»Ð¸Ð±Ð¾":3248,"Ð¸ÑĨÑĥ":3249,"ĠÐ±Ð¾ÑĢÑĮ":3250,"ÑĪÑĤ":3251,"ĠÐºÐ°ÐºÐ°Ñı":3252,"ĠÐ¾ÑĦÐ¸ÑĨÐ¸":3253,"ĠÐŁÐ¾ÑĩÐµÐ¼Ñĥ":3254,"ĠÐ½Ð¸Ð·":3255,"ĠÐ±ÑĥÐ´ÑĥÑī":3256,"ĠÑĦÑĥÑĤ":3257,"Ð°Ð½Ð½ÑĭÑħ":3258,"Ð¾Ð²Ð¾":3259,"ĠÐļÑĢÐ¾Ð¼Ðµ":3260,"Ð»Ð¸Ñı":3261,"ĠÑĢÐ°Ð±Ð¾Ñĩ":3262,"ÐµÐ²Ð¾Ð¹":3263,"Ð½Ð°ÑĢÐ¾Ð´":3264,"ĠÐ¾Ð¿Ð¸Ñģ":3265,"ĠÐ³Ð»ÑıÐ´":3266,"el":3267,"Ð¾Ð²Ð¾Ð³Ð¾":3268,"ĠÐĺÐ²":3269,"ĠÐ¿ÑĢÐµÐ¿":3270,"ĠD":3271,"ĠG":3272,"ÑıÑĩ":3273,"Ð¸ÑĩÐ½Ð¾":3274,"ĠÑģÑĢÐ°Ð²":3275,"ĠÐ±ÐµÐ¶":3276,"ĠÐ¿Ð¾Ð»ÑĥÑĩÐ¸Ð»":3277,"ĠÐ½Ð°ÑĪÐ¸Ñħ":3278,"ĠÐ¼Ð°ÑģÑĤ":3279,"ĠÑģÐ¸Ð³":3280,"ÂłÐĵ":3281,"Ð½ÐµÐ·Ð°Ð¿":3282,"ot":3283,"ÂłÐķ":3284,"ĠÑĤÐ¾ÑĢÐ³Ð¾Ð²":3285,"ĠÑģÐ²Ð¸Ð´ÐµÑĤ":3286,"ĠÐ¿ÑĢÐ¸Ð´ÐµÑĤÑģÑı":3287,"Ġ13":3288,"Ð½Ð¾ÑĪ":3289,"ÑĭÑģÐº":3290,"ĠÐ¿ÑĢÐ¸ÑĤ":3291,"?Â»":3292,"Ð¿Ð°":3293,"ĠÐ»ÐµÐ³ÐºÐ¾":3294,"Ð¸Ð²ÑĪÐ¸Ð¹":3295,"ĠÑıÐ½":3296,"ĠÑģÐ¾Ð²ÑĢÐµÐ¼":3297,"ĠÐ¼Ð¾Ñī":3298,"ĠÐ·Ð°Ð½ÑıÑĤ":3299,"ĠÐ½Ð°ÑĨÐ¸Ð¾Ð½":3300,"Ð¸ÑĤÐµÐ»ÑĮÐ½Ð¾Ð¹":3301,"ÑģÑĤÑĢÐµÐ»":3302,"ÐļÐ¾Ð³Ð´Ð°":3303,"ĠÑģÐ»ÐµÐ´Ð¾Ð²":3304,"ÐµÑĢÐ¿":3305,"Ð¸Ð²Ð¾":3306,"ĠÐ¾Ð±Ð¾":3307,"ĠÐ¿Ð»Ð¾ÑĤ":3308,"ĠÐ°ÑĢÑħ":3309,"Ð»Ð°ÑģÑĤÑĮ":3310,"ĠÐłÐ¤":3311,"ĠL":3312,"ĠÐ¿Ð°Ð¼ÑıÑĤ":3313,"ĠÐ³ÑĢÑı":3314,"ĠÐ»Ð¾Ð¶":3315,"ĠÐ¾ÑħÐ¾ÑĤ":3316,"ĠÑħÐ¾ÑĩÐµÑĤ":3317,"ĠÑģÐ¿ÑĢÐ°ÑĪ":3318,"ĠÐ½Ñĭ":3319,"ÑģÑĤÐ°ÑĤÐ¸":3320,"ĠÑĤÐ¾Ð¿":3321,"ĠÑĥÐ½Ð¸ÑĩÑĤÐ¾Ð¶":3322,"ĠÑģÑħÐ²Ð°ÑĤ":3323,"ĠÑĤÐµÐ¼Ð½Ð¾":3324,"Ð¹ÑĤÐ¸":3325,"ĠÐ²ÑĭÑĤ":3326,"Ð°Ð¶Ð¸":3327,"ÐľÑĭ":3328,"Ð°Ð²Ð»Ð¸Ð²":3329,"ĠÐ¸Ð·ÑĥÑĩ":3330,"ÑģÐ¾Ð»":3331,"ÐµÑĩÐµ":3332,"ÑĢÑĥÑĩ":3333,"ÑģÑĤÐ²ÐµÐ½Ð½ÑĭÑħ":3334,"ĠÐ°Ð²ÑĤÐ¾Ð¼Ð¾Ð±":3335,"ĠÑĩÐ¸ÑģÐ»Ðµ":3336,"ĠÑĥÑģÑĤÑĢÐ¾":3337,"ĠÐºÑĢÐ°":3338,"ĠÑĨÐµÐ»ÑĮ":3339,"ĠÐ½Ð°ÑħÐ¾Ð´Ð¸ÑĤÑģÑı":3340,"Ð°Ð½Ð½Ð¾Ð¹":3341,"ĠÐ¾Ð±Ð²Ð¸Ð½":3342,"Ð¸Ð²Ð°ÑĤÑĮÑģÑı":3343,"Ð¸ÑıÐ¼Ð¸":3344,"Ð¸Ð½ÑĥÐ»":3345,"ĠÐ¾Ð±ÐµÑī":3346,"Ð¸Ð½Ð°Ð¼":3347,"Ð°Ð´Ð½Ð¾":3348,"ĠÐ¾ÑĤÑĢ":3349,"Ð»Ð¸Ð±Ð¾":3350,"Ð°Ð²ÑĪÐ¸ÑģÑĮ":3351,"Ð¾Ð¿ÑĭÑĤ":3352,"ĠÐ¿ÑĢÐ°Ð²Ð¾":3353,"il":3354,"ĠÑģÐ»Ð°Ð²":3355,"ĠÐ¼Ð¾Ð·":3356,"ĠÑĦÑĢÐ°Ð½ÑĨÑĥÐ·":3357,"Ð¼ÑĥÑĢ":3358,"ĠÐ¾ÑĤÑĨÐ°":3359,"Ð¾Ð½ÑıÑĤ":3360,"ĠÐ²Ð¸Ð´Ñĥ":3361,"Ġ[":3362,"Ð¸ÑĤÐµÑĤ":3363,"ĠÐ²ÑĭÑĪÐµ":3364,"ĠÐĴÐµÐ»Ð¸Ðº":3365,"Ð¾Ð³Ð°":3366,"Ð¸Ð²Ð°Ð»Ð°":3367,"ĠÑĤÑĢÐµÑĤÑĮ":3368,"ÐµÐ½Ð¸ÑıÐ¼Ð¸":3369,"Ð»ÐµÐ½Ð½ÑĭÐµ":3370,"ĠÑģÐ¾Ð¾Ð±ÑīÐ°ÐµÑĤ":3371,"Ð°ÑİÑīÐµÐ¹":3372,"Ð²ÐµÑĢÑģ":3373,"Ð¾ÑĩÐºÑĥ":3374,"ĠÐ´Ð¾ÑģÑĤÐ¸Ð³":3375,"ÐµÐºÐ°":3376,"ĠÐŁÐ°Ð²":3377,"ĠÐºÐ¾Ð½ÑĨÐ°":3378,"us":3379,"ÑĥÑīÐµÑģÑĤÐ²":3380,"ĠÑįÐ¿":3381,"ĠÐ¾ÑģÑĤÐ¾ÑĢÐ¾Ð¶":3382,"ÑģÑĭ":3383,"ĠÐķÑīÐµ":3384,"ĠÐ¸ÑģÑĤÐ¾Ñĩ":3385,"ĠÑĢÑĭÐ±":3386,"ĠÐ¾ÑĤÐ´ÐµÐ»ÑĮ":3387,"Ð»Ð°Ñĩ":3388,"ĠÐ³Ð»Ð°Ð·Ð°Ñħ":3389,"ĠÐ¾Ð´Ð½Ð¾Ð¼":3390,"ol":3391,"Ð²Ñĥ":3392,"and":3393,"ĠÐ½Ð°Ð´ÐµÐ¶":3394,"ĠÐ·Ð²Ð¾Ð½":3395,"ĠÐºÐ°ÑĩÐµÑģÑĤÐ²Ðµ":3396,"Ð¸ÐµÑħ":3397,"ĠÐ¿Ð¾Ð¿ÑĢÐ¾Ñģ":3398,"Ġthe":3399,"ĠÐ¿ÑĥÑģÑĤÑĮ":3400,"ĠÐ¾Ð³Ð¾":3401,"ĠÐ±ÑĥÐ´ÐµÐ¼":3402,"Ð¾Ð»Ð³Ð¾":3403,"ĠÐ¾ÑĩÐµÑĢ":3404,"ĠÐ²Ð¾Ð·ÑĢÐ°ÑģÑĤ":3405,"Ð³Ð°ÑĢ":3406,"Ð¸ÑĤÐµÐ»ÑĮÐ½ÑĭÐµ":3407,"ĠÐ·Ð°Ð²Ð¸Ñģ":3408,"ĠÐ¾Ð±ÑĭÑĩÐ½Ð¾":3409,"ĠÐ´ÐµÐ¿":3410,"ĠÐ·ÐµÐ¼Ð»Ñİ":3411,"Ġ30":3412,"ĠÑĢÐ¾Ð¼":3413,"ĠÐ±Ð»Ð¸Ð¶":3414,"ÂłÐ¿":3415,"ĠÐ·Ð°ÑĩÐµÐ¼":3416,"ĠÑģÑĤÐ¸Ñħ":3417,"ĠÐŀÑĢ":3418,"ĠÐ¸Ð½Ð¾Ð³Ð´Ð°":3419,"ĠÐ½ÐµÑģÐºÐ¾Ð»ÑĮ":3420,"ĠÑĢÐ°Ð·ÑĢÐµÑĪ":3421,"ĠÑĤÐµÑĩÐµÐ½Ð¸Ðµ":3422,"Ð»ÑıÐµÑĤÑģÑı":3423,"ĠÑĥÐºÑĢÐ°Ð¸Ð½":3424,"Ð°Ð½ÐµÐµ":3425,"Ð¾Ð²Ð¾ÑĢÐ¸Ð»":3426,"Ð¸ÑĩÐµÑģÐºÐ¾Ðµ":3427,"ĠÐºÐ¾Ð¼Ñĥ":3428,"ĠÑħÐ¾Ð·ÑıÐ¹":3429,"ĠÐ¼Ð½Ð¾Ð³Ð¸Ðµ":3430,"ĠÐ¾Ð±ÐµÑģÐ¿ÐµÑĩ":3431,"Ð´Ð°ÐµÑĤ":3432,"ĠÐ´Ð¾Ð¶Ð´":3433,"ĠÐ²Ð¾Ð²ÑģÐµ":3434,"ÑĥÐ»ÑıÑĢ":3435,"ĠÐ»Ð¾ÑĪ":3436,"ĠÐľÐ°Ðº":3437,"ĠÐ¼Ð¸ÑĢÐ¾Ð²":3438,"ĠÑĪÐµÐ»":3439,"Ð°ÑģÑĤÑĮ":3440,"ĠÐļÑĢÐ°Ñģ":3441,"Ð¸Ð¼Ð¾ÑģÑĤÐ¸":3442,"Ð±ÐµÑĢ":3443,"ĠÑģÐ°Ð¼ÑĭÐ¼":3444,"ĠÐºÐ°Ð±Ð¸Ð½":3445,"ĠÐ°Ð²Ð³ÑĥÑģÑĤ":3446,"ÑĪÑĥÑİ":3447,"14":3448,"ĠH":3449,"ÑĭÐ³":3450,"ĠÐ³Ð»ÑĥÐ¿":3451,"ĠÐºÑĢÐ¸Ðº":3452,"ÑĢÐ¸Ñĩ":3453,"Ġf":3454,"ĠÐ¼ÑıÐ³":3455,"ĠÐ¡ÑĤÐ°ÑĢ":3456,"ĠÑĢÐµÐ·ÑĥÐ»ÑĮÑĤÐ°ÑĤÐµ":3457,"ĠÑĪÑĥÐ¼":3458,"ĠÑģÑĥÐ¿":3459,"ÑĩÐ°ÑĤ":3460,"ĠÑĢÐ°Ð·Ð´ÐµÐ»":3461,"ĠÑįÐ»ÐµÐºÑĤÑĢ":3462,"ĠÐ²Ð¾Ð·Ð´":3463,"ÐµÐ³Ð¾ÑģÑı":3464,"Ħĸ":3465,"ÐĻ":3466,"ĠÐ¿Ð¾Ð½Ð¸Ð¼Ð°Ñİ":3467,"Ð¾Ð´Ð½Ð¾":3468,"Ð¾ÑĢÑĭ":3469,"ĠÑıÐ²Ð½Ð¾":3470,"ÑĮÐ¼Ð¸":3471,"ĠÐ´Ð¾Ð²ÐµÑĢ":3472,"ĠÐ²Ð°Ð»":3473,"ĠÐĴÐ°Ð»":3474,"ĠÐ¿Ð¾Ð¸ÑģÐº":3475,"ĠÐ¼Ð¾Ðµ":3476,"Ð¾Ð»Ð¾Ñģ":3477,"ĠÑģÑĩÐµÑĤ":3478,"ĠÐ½Ð°Ð½":3479,"ĠÐĹÐ´ÐµÑģÑĮ":3480,"ĠÐ¶ÐµÐ½ÑīÐ¸Ð½Ñĭ":3481,"Ð½Ð¸ÑĨÐµ":3482,"ĠÐ·ÐµÐ¼Ð»Ð¸":3483,"ĠÑĥÑħ":3484,"Ð½Ð°ÑĩÐ¸ÑĤ":3485,"ĠÐ´Ð¾Ð¼Ðµ":3486,"ĠÐ¿ÑĢÐ¾Ð¸Ð·Ð¾ÑĪÐ»Ð¾":3487,"ĠÑģÐµÐºÑĢÐµÑĤ":3488,"ĠÐºÑĢÐµÑģ":3489,"ĠÐĶÐ¾":3490,"ĠÐ½Ð°ÑĪÐµÐ³Ð¾":3491,"Ð°Ð´Ñĭ":3492,"Ð°Ð»Ð¸Ð·Ð°":3493,"ĠÐ¿ÑĢÐ¾ÑĪÐ»":3494,"ĠÐ¸Ð½Ð°ÑĩÐµ":3495,"ĠÐ½ÐµÐ¼ÐµÑĨ":3496,"ĠÐ²Ð°Ð¼Ð¸":3497,"ĠÑĢÐ¾ÑģÑĤ":3498,"ĠÐ°ÑĢÐ¼Ð¸Ð¸":3499,"ĠÐ¿ÐµÑĢÐ¸Ð¾Ð´":3500,"ĠÑģÐ¼Ð¾ÑĤÑĢÐµÐ»":3501,"ÑİÑīÐ¸Ð¹":3502,"ÑģÐºÐ¾Ð»ÑĮÐºÐ¾":3503,"ĠÑģÐ¸Ð»Ñĥ":3504,"ĠÑĥÐ¿ÑĢ":3505,"ĠÐ´Ð¸ÑĢ":3506,"ac":3507,"Ġ193":3508,"ĠÑģÑĤÑĢÐµÐ»":3509,"ĠÐ´ÐµÑģÑıÑĤÑĮ":3510,"ĠÐĹÐµÐ¼":3511,"ĠÐ²Ð¾Ð¾ÑĢÑĥÐ¶":3512,"Ð²Ð¾Ð½":3513,"ĠÐ¾ÐºÑĤ":3514,"ĠÐĵÐ°ÑĢ":3515,"ÑģÐºÐ¾ÑĢ":3516,"ĠÑĥÐ±ÐµÐ´":3517,"Ð¾ÑĢÐ²":3518,"Ġo":3519,"Ð¦":3520,"ĠÐ¿ÑĢÐ°Ð²Ð°":3521,"ÑİÐ·":3522,"ĠÐ¿ÑĢÐ¾Ð¸ÑģÑħÐ¾Ð´":3523,"ĠÑģÐ»ÐµÐ·":3524,"Ġm":3525,"ĠÐ½Ð°Ð¿Ð¾Ð¼Ð¸Ð½":3526,"ĠÐ¿ÑĢÐ¾Ð´ÑĥÐº":3527,"ĠÐ½Ð¸ÐºÐ°ÐºÐ¸Ñħ":3528,"ÐµÐ½Ð½Ð¾Ð¼":3529,"ĠÐ¾ÑĤÐ±":3530,"ĠÑģÑĤÐ¾Ð»ÑĮÐºÐ¾":3531,"ĠÐ´Ð¾Ð²":3532,"Ð°Ð²Ð°Ð»":3533,"ĠÑĤÐ¾Ð²Ð°ÑĢÐ¸Ñī":3534,"16":3535,"ĠÑģÑĥ":3536,"ÐµÐ¼ÑģÑı":3537,"ĠÐ²Ð·Ð³Ð»ÑıÐ´Ð¾Ð¼":3538,"ĠÐ¸Ð½Ð´":3539,"ÐµÐºÐ¸":3540,"ÑĢÐ¾ÑĦ":3541,"ĠÑģÐ¿Ð¾ÐºÐ¾Ð¹Ð½Ð¾":3542,"Ð¾Ð²Ð°ÑĤÑĮÑģÑı":3543,"Ð¸ÑĩÐµÐ³Ð¾":3544,"ĠÐ·Ð¾Ð»Ð¾ÑĤ":3545,"ĠÐ¾ÑĤÐºÑĥÐ´Ð°":3546,"ĠÐļÐ¾Ð»":3547,"ĠÑĩÑĥÐ²ÑģÑĤÐ²":3548,"Ð°Ð²ÑĪÐ¸Ñħ":3549,"ĠÑĤÐµÑĢÑĢÐ¸ÑĤÐ¾ÑĢÐ¸Ð¸":3550,"ĠÐ¿Ð¾Ð²ÐµÐ´":3551,"ĠÐ±ÐµÑģÑģ":3552,"ĠÑģÐ¼ÐµÑĢÑĤÑĮ":3553,"ĠÑģÐºÐ¾ÑĢÐ¾":3554,"ĠÑģÐ°Ð¼ÑĭÑħ":3555,"Ð¾ÑıÑĤÐ½Ð¾":3556,"Ð»ÑĥÐ¶":3557,"ĠÐ¸Ð½ÑĤ":3558,"!!":3559,"ÑĢÐµÐ¼Ñı":3560,"ÐµÑĢÐ´":3561,"ÐµÑĪÐµ":3562,"ĠÐ¿ÑĢÐ¸Ð½ÑĨÐ¸Ð¿":3563,"ĠÐ¿ÑĢÐ¾Ð¸ÑģÑħÐ¾Ð´Ð¸ÑĤ":3564,"ÐµÐµÑĤÑģÑı":3565,"ÑĭÐ²Ð°ÑİÑĤ":3566,"ÑĢÐµÐ¹":3567,"ĠÑģÐ»ÑĥÑĩÐ¸Ð»Ð¾ÑģÑĮ":3568,"ĠÐ´Ð¾Ð»Ð»":3569,"Ð»ÐµÐ²":3570,"ĠÐ²Ð¼ÐµÑģÑĤÐ¾":3571,"ĠÐ¿Ð¸ÑĪ":3572,"Ð°ÑĢÑĭ":3573,"ĠÐ²Ð¸Ð´ÐµÑĤÑĮ":3574,"Ð´ÐµÑĢ":3575,"ÐºÐ¾Ð½":3576,"ĠÐ¡Ð¾":3577,"ÑĢÐ¾Ð¹":3578,"ĠÑıÐ½Ð²Ð°ÑĢ":3579,"ĠÐ¡Ð¼":3580,"ĠÐ¾ÑĤÐºÑĢÑĭÐ²":3581,"ÑĥÐ¶Ðµ":3582,"ĠÐ½Ð°ÑĤ":3583,"ĠÐ½ÐµÐ´Ð¾ÑģÑĤ":3584,"ĠÐ¾ÑĤÑģÑĥÑĤ":3585,"ÐºÑĥÑģ":3586,"ĠÑĩÐµÐ¼Ð¿Ð¸Ð¾Ð½":3587,"ĠÑĨÐµÑĢ":3588,"ÑĥÑĪÐºÐ¸":3589,"ÑīÐ¸Ðº":3590,"ĠÐ¸Ð´ÑĤÐ¸":3591,"ĠÐºÐ¾Ð¼Ð½Ð°ÑĤÑĥ":3592,"ÑĢÑĥÐ³Ð¾":3593,"Ð»ÑıÐ»":3594,"ĠÐĳÐ¾ÑĢ":3595,"Ð»ÐµÑĢ":3596,"ĠÐ·Ð½Ð°Ð»Ð°":3597,"Ð¸Ð»ÐµÑĤ":3598,"Ð¾Ð²Ð°Ð»Ð°":3599,"ÑĢÐ¸Ð´":3600,"ĠÑĢÐ°Ð·Ð²ÐµÐ´":3601,"Ð²Ð¾ÑģÑĤ":3602,"Ð°Ð»ÑĮÐ½Ð¾Ð¼":3603,"ĠÐ¼ÑĭÑģÐ»ÑĮ":3604,"ĠÑģÐ²Ð¾ÐµÐ¼Ñĥ":3605,"ĠÐ¿Ð°ÑĢÑĥ":3606,"ĠÑģÐ¾Ð¾Ð±ÑīÐ¸Ð»":3607,"Ð¿ÑĢÐ¾ÑģÑĤÑĢÐ°Ð½":3608,"Ð¡Ð¡Ðł":3609,"ĠÐ±ÑĥÐ¼Ð°Ð³":3610,"Ð¸ÑģÑĤÐ¾Ð²":3611,"ĠÐ¿Ð¾ÐºÐ°Ð·ÑĭÐ²":3612,"ÑģÐµÐ´":3613,"ĠÑģÑĤÐµÐº":3614,"ĠÐĴÐ¸Ð´":3615,"ÑĩÐ¸":3616,"ĠÐ¿ÐµÑĢÐµÐ¶":3617,"Ġw":3618,"ĠÐ´ÑĢÑĥÐ³Ð¾Ð¼":3619,"ĠÐ²Ð¾Ð¹ÑģÐº":3620,"Ð°Ð²ÐµÑĢ":3621,"ĠÐ¿ÑĢÐ¸Ð½ÐµÑģ":3622,"ĠÐĳÐ°ÑĢ":3623,"ĠÐ¿Ð¾Ð¼ÐµÑī":3624,"ĠÐ¾ÑĤÐ²ÐµÑĤÐ¸Ð»Ð°":3625,"ĠÑĩÐµÑģÑĤ":3626,"ĠÐļÐ¾Ð½ÐµÑĩÐ½Ð¾":3627,"ÂłÐł":3628,"ĠÑĥÐ»ÑĭÐ±Ð½ÑĥÐ»ÑģÑı":3629,"ĠÐ¾ÑĢÐ³Ð°Ð½Ð¸Ð·":3630,"ÂłÐ¥":3631,"Ð¾Ð¿ÑĢ":3632,"ing":3633,"ĠÐ´Ð¾ÑģÑĤÐ°Ð²":3634,"ĠÑģÐºÐ²Ð¾Ð·ÑĮ":3635,"ĠÑĦÐ¸Ð½Ð°Ð½Ñģ":3636,"ĠÐºÐ¾Ðµ":3637,"ĠÐ³Ð¾ÑĢÐ¾Ð´Ðµ":3638,"ĠÐ³ÑĢÑĥÐ¿Ð¿Ñĭ":3639,"Ð°ÑĤÐ¾Ð¼":3640,"ĠÐ²Ð¸Ð´Ð½Ð¾":3641,"ĠÐ¿ÑĢÐ¾ÑģÑĤÑĢÐ°Ð½":3642,"ĠÐ½ÐµÐ¿ÑĢÐ¸ÑıÑĤ":3643,"ed":3644,"ĠÑģÐ¸Ñħ":3645,"ÂŃ":3646,"ĠÐ¿ÑĢÐ¸ÐµÑħ":3647,"ĠÑĢÐ¾Ð·":3648,"ĠÑģÑģ":3649,"ĠÑģÑĥÑĤ":3650,"Ð°ÐºÑģÐ¸Ð¼":3651,"Ð¾ÑĢÐ¾Ð¼":3652,"Ð¾Ð¶Ð½Ð¾":3653,"ĠÑģÑĤÐ°Ð½ÐµÑĤ":3654,"Ð¸ÑĩÐµÑģÐºÐ¸Ð¼":3655,"ĠÐ¿ÑĢÐ¸ÑĪÐµÐ»":3656,"ĠÐŀÑĩ":3657,"ĠÐ¿Ð¾ÑģÑĤÑĢÐ¾":3658,"ÑĪÐµÐ¼":3659,"ĠÑĪÐ¸ÑĢÐ¾Ðº":3660,"ĠÑĨÐµÐ½ÑĤÑĢ":3661,"ĠÐ´Ð¸Ðº":3662,"ĠÐ¾Ð±ÑģÑĤ":3663,"ĠÐ¾Ð±Ð»Ð°Ð´":3664,"ĠÑĢÐ°Ð·Ð¼ÐµÑĢ":3665,"ĠÐ³Ð¾Ð»Ð¾Ð²Ðµ":3666,"ÐŁÐ¾":3667,"ĠÐ»Ð¾Ð²":3668,"ĠÑĥÐ²ÐµÐ»Ð¸Ñĩ":3669,"ĠÐ¿Ð¾Ð»Ð°Ð³":3670,"ÐµÐ·Ð´Ð°":3671,"ĠÐ¾ÑĩÐµÑĢÐµÐ´ÑĮ":3672,"ĠÑħÐ¾ÑĩÐµÑĪÑĮ":3673,"ÑĢÑıÑģ":3674,"ĠÐ·Ð°Ð¿Ð¸Ñģ":3675,"ĠÐ±Ð¾Ð»ÑĮÑĪÐ¸Ð½":3676,"ÑĤÐ¾Ð±Ñĭ":3677,"Ð°Ð¹Ð½":3678,"ĠÐ¿Ð¾Ð¼Ð¾ÑīÑĮÑİ":3679,"ĠÑĥÐ´Ð¾Ð²Ð¾Ð»ÑĮ":3680,"ÑģÑĤÐ²ÐµÐ½Ð½ÑĭÐ¼":3681,"ĠÑĢÐµÑĩ":3682,"ĠÐ´ÑĥÑĢ":3683,"Ġ25":3684,"ĠÑĢÑĥÐ±Ð»ÐµÐ¹":3685,"ĠÐ³Ð¾Ð²Ð¾ÑĢÑı":3686,"ĠÐ±Ð¾Ð»ÐµÐ·":3687,"ĠÐ¸Ð·Ð¾Ð±ÑĢÐ°Ð¶":3688,"Ġh":3689,"Ð»ÐµÐ½Ð½ÑĭÑħ":3690,"Ð¾Ð»ÑĮÑĪÐµ":3691,"Ð¸ÐµÐ²":3692,"ĠÐķÐµ":3693,"ĠÐ¿ÑĢÐµÐ´ÑģÑĤ":3694,"ĠÐ¿Ð¾Ð¶Ð°Ð»ÑĥÐ¹":3695,"Ð¾ÐºÑĢÐ°ÑĤ":3696,"ÑĩÐ°":3697,"ĠÐºÐ¾Ð¼Ð°Ð½":3698,"ĠÑģÐºÐ»Ð¾Ð½":3699,"ĠÑģÐµÐ»":3700,"ĠÐ²Ð¸Ð·":3701,"ĠÐºÐ¾ÑĢÐ¿":3702,"ÑĩÐ¸Ñģ":3703,"ÐŁÐ¾Ñģ":3704,"ĠÑĦÐ°Ðº":3705,"Ð¾Ð³Ð¸":3706,"ĠÐļÐ°Ð·":3707,"ĠÐ²ÑĭÑĢ":3708,"ĠÐ¿Ð¾Ð²ÐµÑĢÑħ":3709,"ĠÑĤÐµÐ»Ð°":3710,"Ð¸ÑģÑĤÑĢ":3711,"ĠÐ¿Ð¾ÑģÑĤÐ¾ÑıÐ½Ð½Ð¾":3712,"ĠÐ¿ÑĢÐµÑģ":3713,"ĠÐ¿Ð¾ÐºÐ°Ñĩ":3714,"Ð»Ð¸Ð¶Ðµ":3715,"ĠÑĦÐ¾Ð½":3716,"ĠÑĦÐµÐ²":3717,"ĠÐºÑĥÑħ":3718,"ĠÐ¾Ð³ÑĢÐ°Ð½Ð¸Ñĩ":3719,"Ð¢Ð°Ðº":3720,"?..":3721,"ĠâĦĸ":3722,"ĠÐ¼ÐµÑħ":3723,"ĠÐ²Ð½Ð¸Ð¼Ð°Ð½Ð¸Ñı":3724,"ĠÐ²Ð¸Ð½":3725,"ĠÐĿÐ¸ÐºÐ¾Ð»":3726,"ĠÐ´Ñĥ":3727,"ĠÐºÐ¾ÑĢÐ¸Ð´":3728,"ĠÐ¾ÐºÐ°Ð·ÑĭÐ²":3729,"ÂłÐĽ":3730,"ĠÐĴÐ¸Ðº":3731,"ĠÑģÑĤÐ°ÑĤ":3732,"Ð°Ð»ÑĮÐ½ÑĥÑİ":3733,"ĠÐ½Ð°ÑģÑĤÐ¾Ð»ÑĮÐºÐ¾":3734,"ĠÐ¿Ð¾ÑĪ":3735,"Ð»ÑıÐ½":3736,"ĠÐ´ÑĢÑĥÐ³Ð¸Ð¼":3737,"ÑĢÐµÑģÑĤ":3738,"ĠÑįÑĦÑĦ":3739,"ĠÐ»ÑİÐ±Ð¸Ð¼":3740,"ĠÐ¿Ð¾ÑģÐ»ÐµÐ´Ð½Ð¸Ð¹":3741,"ĠÐºÑĢÐ°ÑģÐ¸Ð²":3742,"ĠÑģÐµÐ²ÐµÑĢ":3743,"am":3744,"Ð¾Ð³Ðµ":3745,"ĠÐ·Ð°ÐºÑĢÑĭ":3746,"ÐµÑĪÐ½Ð¾":3747,"ĠÐ¼Ð°Ñı":3748,"ÑĤÐ¾ÑĢÐ¾Ð²":3749,"ÑĥÑģÑĮ":3750,"ĠÑĢÐµÐ·ÐºÐ¾":3751,"ÑĢÑĥÐ³Ð¾Ðµ":3752,"Ð¼Ð°ÑĢ":3753,"Ð°Ð»Ñĥ":3754,"ĠÐ»ÐµÑģÑĤ":3755,"ĠÐºÐ»Ð¸":3756,"Ð±Ð¾Ð»":3757,"ĠÐ½Ð¾Ð²ÑĭÐµ":3758,"ĠÐŀÐº":3759,"ĠÑĢÐ¸ÑģÐº":3760,"ĠÐ³ÑĢÑĥÐ·":3761,"Ð³Ð»Ð¸Ð¹":3762,"ÑĩÑĤÐ¾":3763,"ĠÐ²Ð¿ÐµÑĩÐ°ÑĤ":3764,"ĠÐ²Ð¾Ð»Ð¾ÑģÑĭ":3765,"ĠÐ¼Ð¾Ñİ":3766,"ĠÐĹÐ°ÑĤÐµÐ¼":3767,"ĠÑĢÐ°Ð±Ð¾ÑĤÐ°ÑĤÑĮ":3768,"Ð»ÑİÐ±":3769,"ÑĥÑĤÑģÑı":3770,"ion":3771,"ĠÐľÐ¾ÑĢ":3772,"ĠÐ°Ð¿ÑĢ":3773,"ĠÑĥÑģÐ¿ÐµÑħ":3774,"ÑİÑģÑĮ":3775,"ĠÐĲÐ»ÑĮ":3776,"ÐµÐ½Ð½Ð¾ÑģÑĤÐ¸":3777,"ĠÐ¾ÑĤÐ½Ð¾ÑĪÐµÐ½Ð¸Ñı":3778,"Ð¸ÑĤÐµÑģÑĮ":3779,"ĠÐ¿ÑĢÐ°Ð·Ð´":3780,"ĠÐ¿ÐµÑĢÐ²Ð¾Ð¹":3781,"ĠÑħÐ¾ÑĤÐµÐ»Ð°":3782,"ĠÐ¾ÑĨÐµÐ½":3783,"13":3784,"ĠÐ²ÐµÑĢÐ½ÑĥÐ»ÑģÑı":3785,"Ð¾Ð½ÑĮ":3786,"Ð»ÐµÐ½Ð½ÑĭÐ¹":3787,"ĠÐ¿ÑĢÐ¾Ð¶":3788,"ĠÐ²ÑĢÐ°Ñĩ":3789,"ÑģÐ¾Ð»ÑİÑĤ":3790,"ĠÐ½ÐµÑĢÐ²":3791,"ĠÐ¼Ð¸Ð¼Ð¾":3792,"ĠÐ¼ÐµÑĢÑĤÐ²":3793,"Ð½Ð¾Ð²ÑĢÐµÐ¼ÐµÐ½Ð½Ð¾":3794,"ÑıÑĤÐ¾":3795,"ÑıÐ»Ð°ÑģÑĮ":3796,"Ð°Ð½Ðº":3797,"ĠÐľÐ°Ð¹":3798,"ÂłÐĿÐ¾":3799,"ĠÐ¿Ð¾ÐºÑĥÐ¿":3800,"Ð¸ÑĤÐµÐ»ÑĮÐ½ÑĭÑħ":3801,"Ð¾ÑĤÐ¾Ð³ÑĢÐ°ÑĦ":3802,"Ð°Ð»Ð¸Ð½":3803,"ÑİÑĪ":3804,"ĠÐ½ÐµÐºÐ¾ÑĤÐ¾ÑĢÑĭÐµ":3805,"ĠÑģÑĤÑĥÐ¿":3806,"ĠÐ·Ð°Ð¶":3807,"ĠÐ¿ÑĢÐµÐ´Ñĥ":3808,"ĠÐ²Ð²ÐµÑĢ":3809,"ĠÐºÐ¾ÑģÐ¼":3810,"ĠÐ½Ð¾Ð²ÑĭÐ¹":3811,"ĠÐ¿Ð¾ÑģÐ»ÐµÐ´Ð½Ð¸Ðµ":3812,"Ð´Ð°Ñı":3813,"ĠÐ¿Ð¾ÑħÐ¾Ð´":3814,"ĠÐ²ÑģÑĤÑĥÐ¿":3815,"Ð½Ð°Ð¶Ð´Ñĭ":3816,"Ð°Ð´Ðµ":3817,"ĠÐ´ÐµÐ½ÐµÐ³":3818,"Ð»ÐµÐ½Ð¸Ñİ":3819,"Ġ198":3820,"ĠÐ´ÐµÐ¹ÑģÑĤÐ²Ð¸Ñı":3821,"ÑĮÐµÐ²":3822,"ĠÐ´ÐµÐºÐ°Ð±":3823,"ĠÐ¿Ð°ÑĤ":3824,"ÑĪÐ¸ÑĢ":3825,"Ġ0":3826,"ĠÐ¿ÑĢÐµÐ·Ð¸Ð´ÐµÐ½ÑĤ":3827,"ĠÐ½Ð°Ð²ÐµÑĢÐ½Ð¾Ðµ":3828,"ĠÐ¿Ð¾ÑģÐ¿":3829,"ĠÑĤÐµÑĢÐ¿":3830,"ĠÐ¿Ð¾Ð¼Ð¾ÑīÑĮ":3831,"ĠÐķÐ¼Ñĥ":3832,"ĠÑĤÑĢÑĥÐ±":3833,"Ð¾Ð´Ðµ":3834,"ĠÑĢÐµÑĩÑĮ":3835,"ĠÐ²ÑĭÐ²Ð¾Ð´":3836,"Ð¸Ð²Ð°ÑıÑģÑĮ":3837,"Ð´Ð¾Ð²":3838,"ĠÐ·ÐµÐ»ÐµÐ½":3839,"ĠÐ½ÐµÐ¾Ð±ÑħÐ¾Ð´Ð¸Ð¼Ð¾":3840,"ĠÐ²ÑģÐµÐ¼Ñĥ":3841,"Ð°ÑĩÐµÐ¼":3842,"Ð¸Ð»Ð¾Ñģ":3843,"ĠÐºÐµÐ¼":3844,"ĠÑĥÑģÐ¿ÐµÐ»":3845,"ĠÐ¿ÑĢÐµÐ²ÑĢÐ°ÑĤ":3846,"ĠÐ³Ð¾Ð²Ð¾ÑĢÑıÑĤ":3847,"ĠÐºÐ°Ð¿Ð¸ÑĤÐ°Ð½":3848,"ĠÐ²Ð½ÑĥÑĤÑĢÐ¸":3849,"ĠÐ¡Ð¡Ð¡Ðł":3850,"ÑĨÐµÐ»":3851,"ĠÐ³Ð»ÑıÐ´Ñı":3852,"ĠÐ´ÑĢÑĥÐ³Ð¾Ð³Ð¾":3853,"Ð¾Ð»Ðº":3854,"ĠÐ´Ð²Ð°Ð´ÑĨÐ°ÑĤÑĮ":3855,"ĠÑĤÑİ":3856,"ĠÐ³Ð¾ÑĢÐ°Ð·":3857,"ÐµÐ»ÑģÑı":3858,"ĠÐ¸Ð¼ÐµÐ½Ð¸":3859,"ĠÐ¿ÑĢÐ¸Ð¶":3860,"ĠÐ²ÐµÐºÐ°":3861,"ÐµÐ¹Ñģ":3862,"ĠÐ¸Ð±Ð¾":3863,"ĠÐ¿Ð¾Ð´Ð½":3864,"Ð¿Ð¾Ñĩ":3865,"ĠÐ³ÑĢÑıÐ·":3866,"ĠÐ¾Ð±ÐµÑĢ":3867,"ĠE":3868,"ĠÑĦÑĢÐ¾Ð½":3869,"Ð»Ð°Ð½Ð´":3870,"ĠÐ¿Ð¾ÑĢÑĤ":3871,"ĠÐ½ÐµÐ²Ð¾Ð·Ð¼Ð¾Ð¶Ð½Ð¾":3872,"ĠÐ¼Ð°Ð»ÑĮÑĩ":3873,"ĠÑģÐ¿Ð¾ÑĢ":3874,"ĠÐ¼ÑĥÐ¶ÑĩÐ¸Ð½Ð°":3875,"ĠÐ¿ÑĢÐµÑģÑģ":3876,"Ð¼ÐµÑħ":3877,"ĠÑĩÐµÑĢÑĤ":3878,"ĠÐ³ÑĢÑĥÐ´":3879,"ĠW":3880,"ĠÐ¿Ð»Ð¾ÑħÐ¾":3881,"ĠÑĢÐ¾ÑĤ":3882,"ĠÐ½ÐµÐ½Ð°Ð²":3883,"ĠÐ´Ð¾Ñģ":3884,"ĠÐ²Ð°ÑĢÐ¸":3885,"ĠÐ°Ð»ÑĮ":3886,"ÑĤÐ¾ÑĢÑĭ":3887,"Ð¸ÑĤÐµÐ»ÑĮÐ½ÑĭÐ¼":3888,"ĠÐĵÐ¾ÑģÐ¿Ð¾Ð´":3889,"ĠÐ¶ÐµÐ½ÑīÐ¸Ð½":3890,"ĠÐ´ÑĥÑħÐ¾Ð²":3891,"ĠÐ²Ð¾Ð·Ð¼Ð¾Ð¶Ð½Ð¾ÑģÑĤÐ¸":3892,"ter":3893,"ĠÑĢÐ°ÑģÐ¿ÑĢÐ¾ÑģÑĤÑĢÐ°Ð½":3894,"ÑģÑĤÐ²ÐµÐ½Ð½ÑĭÐµ":3895,"Ð°ÐºÑĥ":3896,"ĠÐ¿Ð¾Ð¼Ð¾ÑĩÑĮ":3897,"ÐµÑĢÐµÐ½":3898,"ĠÐµÑģÑĤÐµ":3899,"ĠÑĤÑĢÐµÐ²":3900,"ĠÑģÐ½Ð°ÑĩÐ°Ð»Ð°":3901,"ĠÐ±Ð¾Ð³Ð°ÑĤ":3902,"ĠÐ½Ð°Ð¹Ð´":3903,"Ð¸ÑĤÐµÐ»ÑĮÐ½Ð¾Ð³Ð¾":3904,"ĠÐ·ÐµÐ¼Ð»Ðµ":3905,"ÑĩÐ¸Ð²Ð¾":3906,"Ð¿ÑĢÐµÐ¶":3907,"ĠÑģÑĥÐ±":3908,"ĠÐ¿ÐµÑĢÐ²Ð¾Ð³Ð¾":3909,"Ð°ÑĪÐµ":3910,"ÑįÐ»":3911,"ĠÐ³Ð¾ÑĢÐ°Ð·Ð´Ð¾":3912,"ĠÐ¾Ð±ÑĢÐ°ÑĤÐ½Ð¾":3913,"ĠV":3914,"ĠÐ¢Ð¾Ð¼":3915,"Ġ11":3916,"Ð¿ÑĢÐ¸ÑıÑĤ":3917,"ĠÐ¼Ð¾Ð¸Ñħ":3918,"ĠÐ¿ÑĢÐµÐ´Ð»Ð°Ð³":3919,"ĠÐŃÑĤÐ¾ÑĤ":3920,"ĠÐºÐ¾ÑĢÐ¾Ð»ÐµÐ²":3921,"ÑĥÐ´ÑĢ":3922,"Ð½ÑıÐºÐ°":3923,"ĠÐ¾ÑĤÐ¼ÐµÑĩ":3924,"ĠÐ¿Ð¾Ð¼Ð¾ÑīÐ¸":3925,"ĠÐĶÐ°Ð²":3926,"ĠÐ²Ð¿ÐµÑĢÐ²ÑĭÐµ":3927,"Ð¸ÑĨÐ¸Ñı":3928,"ÑĥÑģÑĤÑĮ":3929,"ĠÑģÑĢÐ°Ð²Ð½":3930,"ĠÐ¼Ð½Ð¾Ð¶Ðµ":3931,"ĠÑĥÐ´ÐµÑĢÐ¶":3932,"Ð»ÑıÑĤ":3933,"ĠÐ¸Ð³ÑĢÐ°":3934,"ĠÐ¿ÑĢÐ¾Ð´Ð¾Ð»Ð¶Ð°Ð»":3935,"ĠÐ¼Ð½Ð¾Ð³Ð¸Ñħ":3936,"ĠÐ·Ð°ÑħÐ²Ð°ÑĤ":3937,"Ð¾Ð²ÑĭÐ¼":3938,"ÂłÐ´":3939,"ĠÐĽÐµÐ½":3940,"Ð°ÑĢÑı":3941,"Ð°Ð¼ÐµÑĤ":3942,"ĠÐ²ÐµÑīÐ¸":3943,"ĠÑģÑĭÐ½":3944,"ĠÐ·Ð°ÑīÐ¸ÑĤ":3945,"ĠÐ²Ð¾Ð·Ð»Ðµ":3946,"ĠÐ²Ð·ÑıÑĤÑĮ":3947,"ĠÐ´Ð¶":3948,"Ð¸ÑĩÐ°":3949,"ĠÑģÐ½Ð¸Ð¼":3950,"ĠÐ¾ÑģÑĥÑīÐµÑģÑĤÐ²":3951,"ĠÐ²ÑĭÐ³Ð»ÑıÐ´":3952,"ĠÐŁÑĥÑĤ":3953,"ĠÑģÐ²ÑıÑĤ":3954,"ÑĥÐ¶ÐµÐ»Ð¸":3955,"ĠÐĲÐ´":3956,"ĠÑģÐ¾Ð»Ð´Ð°ÑĤ":3957,"Ð»ÐµÐ½Ð¸Ð¹":3958,"ĠÐ¾Ð·Ð½Ð°Ñĩ":3959,"ĠÐ´Ð°ÑĤÑĮ":3960,"ĠÐ¿Ð¾Ð¿Ð°Ð´":3961,"ÑĭÐ²Ð°Ð»Ð°":3962,"ĠÐ·Ð°Ð²ÐµÑĢÑĪ":3963,"ÑĦÐµ":3964,"ĠÐ¡Ð°Ð½":3965,"ÐµÑģÐ°":3966,"ĠÐ»ÑİÐ±Ð¾Ð¹":3967,"ĠÐ¾ÑĤÐ²ÐµÑĢ":3968,"ÑĩÐµÑĢÐ°":3969,"ĠÑĢÐ¾Ð»ÑĮ":3970,"ÑĢÐµÐ´Ð¸":3971,"ĠÐºÐ¾Ð½ÑĨÐ¾Ð²":3972,"ĠÑģÐ¸Ð´ÐµÐ»":3973,"ĠÐ¿ÑĤ":3974,"ĠÑģÐµÐ½ÑĤÑıÐ±ÑĢÑı":3975,"ĠÐ½ÐµÐ¿Ð¾Ð´":3976,"Ð°Ð¼Ð¿":3977,"ĠÐ³Ð¾ÑĢÑıÑĩ":3978,"Ð§ÑĤÐ¾":3979,"Ð¸ÑĤÑĥÑĤ":3980,"ĠÑģÑĩÐ°ÑģÑĤÐ»Ð¸Ð²":3981,"ĠÐºÐ¾Ð½ÑģÑĤ":3982,"Ð½ÑıÐ»Ð¸":3983,"ĠÑĥÐ½Ð¸Ð²ÐµÑĢÑģ":3984,"ĠÑĥÐ²Ð°Ð¶":3985,"Ġ2015":3986,"ĠÐ½ÐµÐ³":3987,"Ð½ÐµÐ·Ð°Ð¿Ð½Ð¾":3988,"Ð½Ð°Ð»":3989,"Ð¾ÑĤÐ¾":3990,"ĠÐĴÐ¿ÑĢÐ¾ÑĩÐµÐ¼":3991,"Ð´ÑĥÑī":3992,"ĠÐ±Ð»Ð¸Ð¶Ð°Ð¹":3993,"ĠÐ´Ð¾ÐºÐ°Ð·":3994,"Ð¸ÑĤÐµÐ»ÑĮÐ½Ð¾Ðµ":3995,"ĠÐºÐ¾Ð½Ñĩ":3996,"ĠÐ±ÑĥÑĤ":3997,"ĠÑĢÑĥÑĩ":3998,"Ð¸Ð»Ñı":3999,"ĠÐ´Ð¾Ð³Ð°Ð´":4000,"ĠÐ¼Ð°ÑĪÐ¸Ð½Ñĭ":4001,"ĠÐ½ÐµÐ¸Ð·Ð²ÐµÑģÑĤ":4002,"Ð¼Ð°ÑĤ":4003,"ĠÐ´ÑĥÐ¼Ð°ÑĤÑĮ":4004,"ĠÐĺÑħ":4005,"ĠÐ½Ð°ÑģÑĤÑĢÐ¾":4006,"ĠÐ¸ÑģÐ¿ÑĥÐ³":4007,"ch":4008,"ĠÐ±ÑĢÐ°ÑĤÑĮ":4009,"ĠÐ»Ð¸ÑĤÐµÑĢ":4010,"Ð¾Ð»Ð¾Ð³Ð¸Ð¸":4011,"ĠÑģÑĥÑħ":4012,"ĠÑģÑĤÑĥÐ´":4013,"un":4014,"ĠÑħÑĢÐ°Ð½":4015,"ĠÐ´Ð²ÑĥÐ¼":4016,"ĠÐ²Ð¾Ð¿ÑĢÐ¾ÑģÑĭ":4017,"ĠÐ¶Ð¸Ð»":4018,"ĠÑıÑģÐ½Ð¾":4019,"ĠÐĲÐ»ÐµÐºÑģÐ°Ð½Ð´ÑĢ":4020,"ÑĥÑı":4021,"ĠÐºÐ¾Ð¼Ð½Ð°ÑĤÐµ":4022,"Ð¸Ð¼Ð¾ÑģÑĤÑĮ":4023,"ĠÐ¿Ð¾ÑĪÐµÐ»":4024,"ÑĨÐ°Ð¼":4025,"ĠÑģÑĤÑĢÐ°Ð´":4026,"ĠÑĪÑĥÑĤ":4027,"ÑĢÐ¸ÑģÑĤÐ¸Ð°Ð½":4028,"ĠÐ¿Ð¾Ð³Ð¾Ð²Ð¾ÑĢ":4029,"ĠÐ¿ÑĢÐ¸ÐµÐ¼":4030,"ĠÐ°Ð²Ð¸":4031,"ĠÐ¼Ð°Ð³Ð°Ð·":4032,"ĠÐ½Ð°ÑĩÐ°Ð»Ðµ":4033,"ĠÐ½Ð°Ð¿Ð°Ð´":4034,"ĠÐ±Ð°ÑĤ":4035,"ÐµÑĢÐµÐ¶":4036,"Ð½Ð°Ð´ÑĨÐ°ÑĤÑĮ":4037,"ĠÑģÐ¾ÑģÑĤÐ¾ÑıÐ½Ð¸Ð¸":4038,"ĠÑĢÐµÐ¿":4039,"ĠÐ¾ÑģÐ»":4040,"ĠÐ±ÐµÐ·Ð¾Ð¿Ð°ÑģÐ½Ð¾ÑģÑĤÐ¸":4041,"ÑĭÐ»Ð°":4042,"ĠÐºÐ»ÑİÑĩ":4043,"ĠÐ½ÐµÑĢ":4044,"ĠÐºÐ½ÑıÐ·":4045,"id":4046,"ÐºÐ°Ðº":4047,"Ð¾Ð·Ð°":4048,"ĠÐºÐ°ÐºÑĥÑİ":4049,"ĠÐ²ÑĭÐ³":4050,"ĠÐ²ÐµÑĤÐµÑĢ":4051,"ĠÐ½ÐµÑģÐ¼Ð¾ÑĤÑĢÑı":4052,"ĠÑģÐ¸Ð»Ð°":4053,"ĠÐ¼Ð¸Ð½ÑĥÑĤÑĥ":4054,"ĠÐºÐ°Ð¿Ð¸ÑĤ":4055,"ÐĶÐ¶":4056,"ĠÐ¿Ð¾ÑĢÐ°Ð¶":4057,"ĠÑĢÐµÐ¼":4058,"Ð¸ÑĢÑĥÐµÑĤ":4059,"ĠÐ¿Ð¾Ð´Ð°ÑĢ":4060,"ÐºÑĥÑĢ":4061,"ÐµÐ´Ð°":4062,"ĠÐ¿Ð°Ð½":4063,"ĠÐ´ÑĢÑĥÐ³Ð¾Ðµ":4064,"ĠÐ°ÑĤ":4065,"ĠÐ°Ð½Ð³":4066,"ÑĥÐµÐ¼":4067,"ĠÑĢÐµÐ²Ð¾Ð»Ñİ":4068,"ĠÐ¿Ð¸ÑĢ":4069,"ĠÐ²ÑĭÐ½Ñĥ":4070,"ĠÑĤÑĢÐ°Ð´":4071,"ĠÐĳÐ¾Ð»ÑĮÑĪ":4072,"Ð°Ð²ÑĪÐ¸Ðµ":4073,"Ġa":4074,"ÐºÐ¾ÑĢ":4075,"Ð¾Ð²ÑĭÐ¹":4076,"ĠÐ¾Ð±ÑĢ":4077,"ÂłÐ¼":4078,"Ð¾Ð»Ð¸":4079,"ĠÐ¾ÐºÐ°Ð·Ð°Ð»Ð¾ÑģÑĮ":4080,"ĠÐ´ÑĢÑĥÐ·ÑĮÑı":4081,"ÐµÐ½Ð¸Ð²":4082,"ĠÐĲÐ½Ð´":4083,"ĠÐ»ÑĮ":4084,"ĠÐ¾ÑĩÐµÐ²Ð¸Ð´":4085,"âĢ¦Â»":4086,"ĠÐ½Ð°ÑĩÐ°Ð»Ð¸":4087,"ĠÑĥÑģÑĤÐ°Ð²":4088,"ĠÑģÑĢ":4089,"ĠÐłÐ°Ñģ":4090,"ĠÑģÐ¸ÑģÑĤÐµÐ¼Ñĭ":4091,"Ð¸Ð»Ð¾ÑģÐ¾ÑĦ":4092,"os":4093,"ĠÐºÐ²Ð°ÑĢÑĤÐ¸ÑĢ":4094,"ĠÐ½ÐµÑģÐºÐ¾Ð»ÑĮÐºÐ¸Ñħ":4095,"Ð¸Ð±Ð¾Ð»ÐµÐµ":4096,"ĠÑĩÐ°ÑģÐ°":4097,"ĠÑģÐ»ÐµÐ³":4098,"Ð¸ÑĤÐ°Ð¹":4099,"ĠÐ¿Ð¾Ð¼Ð½":4100,"ÑĥÐ¼Ð°Ð½":4101,"ĠÐ¼Ð¸Ð³":4102,"Ð°ÑĨÐ¸Ð¸":4103,"ĠÐ¿Ð»ÐµÑĩÐ°Ð¼Ð¸":4104,"ĠÐ¿Ð¾ÑģÐµÐ»":4105,"ĠÑĪÐµÑģÑĤÑĮ":4106,"ĠÑģÐµÑĤ":4107,"ĠÐľÐ°Ð»":4108,"ĠÑĤÐ°ÐºÐ¾Ð¼":4109,"ĠÐ³ÑĢÑĥÐ´Ð¸":4110,"ĠÐ¿Ð¾Ð´Ñģ":4111,"ĠÐºÑĢÐ¾Ð²Ð¸":4112,"ĠÐłÐ¾Ð´":4113,"ĠÐľÐ¾ÑģÐºÐ²Ðµ":4114,"ĠÐ·Ð°Ð¿Ð°Ñħ":4115,"ÑĨÐµÐ½ÑĤ":4116,"ĠÐ¿ÐµÑĢÐµÐ½":4117,"Ġb":4118,"ĠÐ³Ð¾Ð»Ð¾Ð²Ñĭ":4119,"ĠÐĿÐ°Ð´Ð¾":4120,"ĠÑĤÐ°Ð±":4121,"ĠÐ´ÑĭÐ¼":4122,"ĠÐ¡Ð¾Ð²ÐµÑĤ":4123,"Ð¸Ð½Ð¾Ð¼":4124,"ĠÐ¼Ð¾Ð³Ð»Ð¾":4125,"ÐµÐºÑģ":4126,"ĠÑĢÐµÐ±ÑıÑĤ":4127,"ĠÐ¾Ð±ÑģÑĤÐ¾ÑıÑĤÐµÐ»ÑĮ":4128,"ÐµÐ¹ÑģÑı":4129,"ĠÐ¿ÑĢÐ°ÐºÑĤÐ¸ÑĩÐµÑģÐºÐ¸":4130,"Ð¸ÑĩÐµÑģÐºÑĥÑİ":4131,"ĠÐ¼ÐµÑĤÐ°Ð»":4132,"ÐĺÐ·":4133,"ĠÐ¾ÑģÑĤÐ°Ð»Ð¾ÑģÑĮ":4134,"ĠÐ¸Ð¼ÐµÐ»":4135,"ĠÐ¿ÐµÑĢÐµÑħÐ¾Ð´":4136,"ĠÑĥÐ»Ð¸ÑĨÐµ":4137,"ĠÐ·Ð°Ð¿Ð°Ð´":4138,"ÐµÑħÐ°Ð»":4139,"ur":4140,"ĠÑģÑĤÐµÐ½Ñĭ":4141,"Ð½ÑĥÐ»Ð¾":4142,"ĠÐ½Ð¾ÑĩÑĮÑİ":4143,"ĠÐµÑħ":4144,"Ð¾ÐºÐ¸":4145,"ĠÐ¾ÑģÑĤÑĢÐ¾Ð²":4146,"Ð½Ð¸ÐºÐ°Ð¼":4147,"ĠÐ½Ð°Ñħ":4148,"ĠÐ¿Ð¾Ð»Ñı":4149,"Ð¸Ð²Ð°Ð»ÑģÑı":4150,"Ð¸Ð»Ð»Ð¸":4151,"Ð¸ÑĤÐµÐ»ÐµÐ¼":4152,"ĠÐºÐ¸Ð»":4153,"ĠÐ¿Ð¾Ð»ÑĥÑĩÐ¸ÑĤÑĮ":4154,"ĠÑģÐ»ÐµÐ³ÐºÐ°":4155,"ĠÐĳÑĥÐ´":4156,"Ð¼Ð¸ÑĢ":4157,"ĠÐ¸Ð¼Ð¿ÐµÑĢ":4158,"ĠÑĤÑĢÑĥÐ´Ð½Ð¾":4159,"Ð°ÑĤÐµÑĢ":4160,"Ð¸ÑĤÐµÑĤÐ°":4161,"ĠÐ½ÐµÑģÑĩÐ°ÑģÑĤ":4162,"ĠÐ²ÑĭÐ´ÐµÐ»":4163,"ĠÐĿÐ¸":4164,"Ð°ÐºÐ¾Ð½":4165,"ÑĢÐµÑģ":4166,"ĠÐ·Ð°Ð¿ÑĢ":4167,"ĠÐ·Ð°Ð±Ð¾ÑĤ":4168,"ĠÐ¸Ð·Ð²":4169,"ĠÐ²Ð·ÑĢÑĭÐ²":4170,"ÂłÐ¢Ð°Ðº":4171,"Ð¿Ð¾Ð½":4172,"ĠÐ¾Ð³Ð¾Ð½ÑĮ":4173,"ĠÐ¶Ð°ÑĢ":4174,"Ð½Ð¾ÑģÑĤÑĢÐ°Ð½":4175,"âĢľ":4176,"Ð°ÐºÐ¾Ð½ÐµÑĨ":4177,"ĠÑģÐ½ÐµÐ³":4178,"Ġof":4179,"ÐĺÐ½":4180,"Ð¼Ð¿":4181,"ĠÐ»ÐµÐ²":4182,"ĠÐ´Ð½Ð¸":4183,"ĠÑĢÐ°Ð·Ð²Ðµ":4184,"Ð°ÑĢÑħ":4185,"ĠÐ¢ÑĥÑĤ":4186,"Ð¸ÑĢÐ¾Ð²Ð°Ð»Ð¸":4187,"ĠÐĵÐµÑĢÐ¼":4188,"ÐµÐ´Ð»ÐµÐ½Ð½Ð¾":4189,"ĠÐ¿ÑĢÐ¾ÐµÐºÑĤ":4190,"ĠÐ°ÑĢÑĤ":4191,"Ð¿ÑĢÐ¾Ñģ":4192,"ĠÐ»Ð¸ÑĨÐµ":4193,"ĠÐ¼Ð¾ÑĢÐµ":4194,"Ð¸ÑĤÐ¾Ð²":4195,"ĠÐ°Ð±ÑģÐ¾Ð»ÑİÑĤ":4196,"ĠÐ±Ñİ":4197,"ĠÐ½Ð¸ÐºÐ°ÐºÐ¾Ð³Ð¾":4198,"ĠÐ¿ÑĢÐ¸Ð¾Ð±ÑĢ":4199,"ĠÑĢÐ°Ðº":4200,"ĠÐĽÐµ":4201,"Ð°Ð½Ð½Ð¾Ðµ":4202,"ĠÑģÐºÐ»Ð°Ð´":4203,"ĠÐĶÑĥÐ¼":4204,"ĠÐ¿Ð¾Ð´Ð¿Ð¸Ñģ":4205,"ĠÐ´Ð¾Ñĩ":4206,"ĠÐĶÐ¼":4207,"Ð¿ÑĢÐ¸Ð½Ð¸Ð¼":4208,"Ð¸Ð½Ñı":4209,"ÐµÐºÑĥ":4210,"ĠÑģÐ°Ð¼ÑĭÐµ":4211,"ĠÑĤÐµÐ¾ÑĢ":4212,"ĠÐºÐ»Ð°ÑģÑģ":4213,"ÑģÐºÐ°Ð·":4214,"ĠÐ³Ð»ÑĥÐ±Ð¾Ðº":4215,"Ð¾ÑĢÑĥ":4216,"ÄĲ":4217,"____":4218,"ÑĦÐ°":4219,"ĠÑĢÐ°Ð·ÑĢÑĥÑĪ":4220,"ĠÑĦÐ¾ÑĤÐ¾Ð³ÑĢÐ°ÑĦ":4221,"ĠÑĪÐµÑģÑĤ":4222,"ĠÐ³Ð°Ð»":4223,"ĠÐ¼Ð¾Ð¶ÐµÑĤÐµ":4224,"Ġ196":4225,"Ġ2014":4226,"ĠÐºÐ¾ÑĪ":4227,"ĠÐ¿Ð¾ÑĢÑıÐ´ÐºÐµ":4228,"ĠÐ¼ÑĥÑĩ":4229,"Ð²Ð¾Ð¹":4230,"Ð»ÑıÑı":4231,".).":4232,"Ð¾Ð²Ð°Ñı":4233,"ĠÑģÐ²ÐµÑĤÐµ":4234,"ĠÑģÑĤÑĢÐ°Ð½Ðµ":4235,"ĠÐ¾ÑĤÑĩÐ°Ñı":4236,"ĠÐ»ÑİÐ±Ð²Ð¸":4237,"ĠÐŀÐ´Ð¸Ð½":4238,"ÑģÑĤÐ²Ð¸ÐµÐ¼":4239,"ĠÐ²Ð²ÐµÑĢÑħ":4240,"ĠÐłÐ¾ÑģÑģÐ¸Ñı":4241,"ĠÑĢÐ°ÑģÑģÐ¼Ð°ÑĤÑĢ":4242,"ĠÐŁÑĢÐ¾ÑģÑĤÐ¾":4243,"ĠÐ½Ð°Ð¿ÑĢÑıÐ¶":4244,"ĠÑĥÐ²Ð¸Ð´ÐµÑĤÑĮ":4245,"ĠÐ±Ð°ÑĪ":4246,"ĠÐ¿Ð¾Ð»ÐµÐ·":4247,"ĠÐ²ÑĭÑıÑģÐ½":4248,"ĠÐ´Ð°Ð½Ð½ÑĭÐ¼":4249,"ĠÐĲÐ½Ð´ÑĢ":4250,"Ð½Ð¸ÐºÐµ":4251,"ĠÐ¾ÑĢÑĥÐ¶Ð¸Ðµ":4252,"ÑįÐº":4253,"ĠÑĥÑĤÑĢÐ¾Ð¼":4254,"ĠÐ¿Ð¾Ð½ÑıÐ»Ð°":4255,"ĠÐ²Ð»Ð¸Ñı":4256,"ĠÑĢÐ°Ð¼":4257,"Ð¬":4258,"ĠÐ¡Ð»":4259,"ĠÑģÐµÐ¼ÑĮ":4260,"ĠÐ·Ð²ÐµÑĢ":4261,"ĠÑĨÐµÐ¿":4262,"ĠÐ¼Ð°Ð¼":4263,"Ð°ÑİÑīÐµÐ³Ð¾":4264,"ĠÐ¾Ð´Ð½Ð¾Ð²ÑĢÐµÐ¼ÐµÐ½Ð½Ð¾":4265,"ĠÐĶÐµÐ²":4266,"ĠÐ°Ð´Ð¼Ð¸Ð½Ð¸ÑģÑĤ":4267,"ĠÐ¿ÑĢÐ¸Ð²Ð¾Ð´":4268,"Ð°Ð¶Ð°":4269,"ĠÑģÐ¾Ð±ÑĢ":4270,"ent":4271,"ĠÑĤÑı":4272,"Ġ197":4273,"Ð¸ÑĨÐ¸Ð¾Ð½":4274,"ÑİÑīÐ¸Ðµ":4275,"ĠÐ²Ð·Ð°":4276,"ĠÐ³ÑĥÐ±Ñĭ":4277,"ÐŀÐ´":4278,"ĠÐºÐ¾ÑĤÐ¾ÑĢÐ¾Ð¼Ñĥ":4279,"ĠÑģÐ¿Ð¾ÑĢÑĤ":4280,"ĠÐ°Ð³ÐµÐ½ÑĤ":4281,"ĠÑĩÐµÑĤÑĭÑĢ":4282,"ĠÐ¾Ð±ÑīÐµÐ¼":4283,"ĠÐļÐ¸ÑĢ":4284,"Ð²ÐµÐ¹":4285,"ĠÐ½Ð¾ÑĩÐ¸":4286,"ĠÐ½Ð¸ÐºÐ¾Ð³Ð¾":4287,"ĠÐ¿Ð¾Ð´ÑĢÐ¾Ð±":4288,"ĠÐ²Ð»Ð°ÑģÑĤ":4289,"11":4290,"ĠÐ½Ð¾Ð²Ð¾Ð³Ð¾":4291,"ĠÐ·Ð½Ð°ÐµÑĤÐµ":4292,"ĠÐ¿ÑĢÐµÐ´Ð¾ÑģÑĤÐ°Ð²":4293,"ĠÑĤÐ°ÐºÑĥÑİ":4294,"ĠÐ¾Ð±Ðµ":4295,"Ð¾ÑĢÐ¼Ð¾ÑĤ":4296,"Ð¾ÐµÐ²":4297,"ĠÐºÐ°ÐºÐ¸Ñħ":4298,"ĠÐ¸Ð¼ÐµÑĤÑĮ":4299,"ÑıÑīÐ¸Ð¹":4300,"ÑĮÑĤÐµ":4301,"ĠÐ³Ð¾Ð»Ð¾ÑģÐ¾Ð¼":4302,"ĠÑĩÑĤÐ¾Ð±":4303,"ĠÐ°Ð²ÑĤ":4304,"ÑĤÐ¾Ðµ":4305,"ĠÑģÐºÑĢÑĭÐ²":4306,"ÐµÐºÑĤÐ°":4307,"ĠÐ¾Ð±Ð»":4308,"ĠÐ§ÐµÑĢÐµÐ·":4309,"Ð¾Ð±ÑĭÑĩ":4310,"qu":4311,"ĠÐŁÑĢÐ°Ð²Ð´Ð°":4312,"ĠÐ°Ð²Ð³ÑĥÑģÑĤÐ°":4313,"ĠÑĥÑģÐ¼ÐµÑħ":4314,"ĠÐ²Ð¾Ð´Ñĥ":4315,"ĠÐĵÐ´Ðµ":4316,"ÐµÐ½Ð·":4317,"Ð¸Ð·Ð¼Ð°":4318,"ÐµÐ»Ð¸ÑģÑĮ":4319,"Ð°ÑİÑīÐ¸Ð¼":4320,"ÑĨÐ¾Ð¼":4321,"ĠÐºÐ¾Ð¼Ð¼Ñĥ":4322,"ĠÐºÑĢÑĭÑĪ":4323,"Ð½Ð¾Ð´":4324,"Ð°Ð¹ÑģÑı":4325,"ĠÑĥÐ·Ð½Ð°ÑĤÑĮ":4326,"Ð±Ð¾Ð¹":4327,"ĠÑıÐ·ÑĭÐº":4328,"Ð¼Ð¾Ð²":4329,"Ð¾Ð»ÑĮÐ½Ð¾":4330,"ÑĨÐ°ÑĢ":4331,"ĠÐ²ÐµÑĩÐµÑĢÐ¾Ð¼":4332,"ĠÐ·Ð°Ð²ÑĤÑĢÐ°":4333,"Ð¸Ð¹ÑģÐºÐ¾Ð¹":4334,"ĠÐ½ÐµÐ¾Ð¶Ð¸Ð´Ð°Ð½Ð½Ð¾":4335,"ÐĴÑģÐµ":4336,"ÂłÐŁÑĢ":4337,"ĠÑĢÐ°Ð¹Ð¾Ð½Ðµ":4338,"ÐĶÐ°":4339,"ĠÐµÐ¶":4340,"Ð°Ð»Ð¾Ð¼":4341,"ĠÑĩÐµÐ»Ð¾Ð²ÐµÐºÐ¾Ð¼":4342,"ĠÐ²Ð¸Ð´ÐµÐ»Ð°":4343,"ÑĢÐµÐ¶Ð´":4344,"Ð»Ð¾Ð¿":4345,"ĠÑģÐ¿Ð¸Ð½Ð¾Ð¹":4346,"ĠÐ²ÑĭÑĪ":4347,"ĠÐŀÐ¿":4348,"Ð°Ð¶Ñĥ":4349,"ĠÐĽÑĥ":4350,"ÑģÐºÐ¾Ð²":4351,"ĠÐ¸Ð½ÑĦÐ¾ÑĢÐ¼Ð°ÑĨÐ¸Ð¸":4352,"Ð¾Ð»Ðµ":4353,"ĠÐ¼Ð¾ÑģÑĤ":4354,"ĠÐŃÐ½":4355,"ĠÐ°Ð½Ð³Ð»Ð¸Ð¹":4356,"Ð¾Ð·Ð½Ð°Ñĩ":4357,"ĠÐ²Ð¸Ð½Ð¾Ð²":4358,"ÐµÐ½Ðµ":4359,"ĠÑģÐ´ÐµÑĢÐ¶":4360,"ĠÐ¿Ð»Ð°ÑĤÑĮ":4361,"ÐµÐ¶Ð°Ð»":4362,"ĠÐŁÐ¾ÐºÐ°":4363,"ÂłÐĴÐ¾ÑĤ":4364,"ĠÐ´ÐµÑĤÐ¸":4365,"ĠÑģÑĢÐ°Ð¶":4366,"ĠÐ¼Ð°ÑĤÐµÑĢ":4367,"Ð´ÐµÑģÑıÑĤ":4368,"ĠÐ±Ð¸Ð·Ð½ÐµÑģ":4369,"ĠÐ¿Ð¾Ð´Ðº":4370,"ĠÑģÐ²Ð¸Ð´ÐµÑĤÐµÐ»ÑĮ":4371,"ÐµÐ·Ð´Ðµ":4372,"Ð°Ð½ÑĤÐ°":4373,"ĠÐºÑĢÐ°Ð¹Ð½ÐµÐ¹":4374,"ÐĲÐ½":4375,"ĠÑĢÐ°Ð·ÑĢÐ°Ð±Ð¾ÑĤ":4376,"ĠÑĢÐµÐ»Ð¸":4377,"ÑĢÐ°ÑĨÐ¸Ð¸":4378,"ĠÐĺÐ²Ð°Ð½Ð¾Ð²":4379,"ĠÐ¿ÑĢÐ¾Ñī":4380,"ÐµÐ½Ð½Ð¾ÑģÑĤÑĮ":4381,"ĠÐ¿ÑĢÐ¾Ð±Ð»ÐµÐ¼Ñĭ":4382,"ÐķÑģÐ»Ð¸":4383,"ĠÐºÑĢÐ¾Ð²ÑĮ":4384,"ĠÑĥÑĩÐ°ÑģÑĤÐ¸Ðµ":4385,"ĠÐ»Ð°Ð³":4386,"ĠÐ²ÑģÐµÐ¼Ð¸":4387,"Ġ,":4388,"Ð¸Ð´ÑĨ":4389,"ĠÑĤÑĢÐ°Ð½ÑģÐ¿":4390,"ĠÑģÐµÐ»ÑĮ":4391,"ÑĭÐ²Ð°ÐµÑĤÑģÑı":4392,"ĠÐ½Ð¾Ð²ÑĭÑħ":4393,"Ġl":4394,"ĠÐºÑĢÐ¸Ñĩ":4395,"ĠÐ³Ð¾ÑģÑĥÐ´Ð°ÑĢÑģÑĤÐ²Ð°":4396,"ĠÐ³Ð¾Ð²Ð¾ÑĢÐ¸Ð»Ð¸":4397,"ĠÑĢÐµÐ³Ð¸Ð¾Ð½":4398,"Ð¼ÑĥÑĤ":4399,"Ð½ÑıÐ²":4400,"ĠÐ¿ÑĥÐ±Ð»Ð¸":4401,"ĠÐ¿ÑĢÐµÐ´Ð¿Ð¾Ð»Ð¾Ð¶":4402,"ĠÐ¿Ð¾Ð´Ð¾ÑĪÐµÐ»":4403,"ĠÐĴÐ»Ð°Ð´Ð¸Ð¼Ð¸ÑĢ":4404,"ĠÐ¿Ð¾Ð»ÐºÐ¾Ð²":4405,"ĠÐ²Ð¾ÑģÐºÐ»Ð¸Ðº":4406,"ĠÐ¾Ð±Ð°":4407,"Ð°Ð½Ð½Ð°Ñı":4408,"ĠÐ´ÑĥÑĪÐ¸":4409,"ÐĵÐ»Ð°Ð²Ð°":4410,"ĠÐ¿ÑĥÑĤÐµÑĪÐµ":4411,"Ð¾Ð¹Ð´ÐµÑĤ":4412,"Ð¼Ð°Ñħ":4413,"ÑĤÐ¾ÑĢÐ¾Ð¼":4414,"ĠÑĢÐ°Ð±Ð¾ÑĤÐµ":4415,"Ð¾Ð¸ÑĤ":4416,"ĠÐ³Ð¾Ð²Ð¾ÑĢÑİ":4417,"ĠÐ¼ÐµÑħÐ°Ð½":4418,"ĠÑĢÐ°ÑģÐ¿Ð¾ÑĢ":4419,"ĠÐ¼Ð°ÑĪÐ¸Ð½":4420,"ĠÑģÐ¼Ð¾ÑĤÑĢÐµÑĤÑĮ":4421,"Ð»ÐµÐ½Ð¾":4422,"Ð´ÐµÐ¼":4423,"Ñ£":4424,"Ð¾Ð³Ð»Ð°Ñģ":4425,"Ð°Ð²Ð¸Ñģ":4426,"ĠÐ°ÑĢÐµÑģÑĤ":4427,"ĠÑģÐ»ÑĭÑĪÐ°Ð»":4428,"ĠÐ²ÑĭÐ¶":4429,"ĠÐ¼ÐµÐ¶Ð´ÑĥÐ½Ð°ÑĢÐ¾Ð´":4430,"ĠÐ´Ð¾ÑĢÐ¾Ð³Ðµ":4431,"ĠÐºÐ¾Ð»Ð¸ÑĩÐµÑģÑĤÐ²Ð¾":4432,"Ð½Ð°Ð·":4433,"Ð¸Ð²Ð°Ð»Ð¸ÑģÑĮ":4434,"ĠÐ´Ð°Ð»ÑĮÐ½ÐµÐ¹":4435,"ĠÐ¸Ð¼Ð¿ÐµÑĢÐ°":4436,"ĠÐ¿Ð¾Ð´ÑĬ":4437,"Ð¡Ð¿":4438,"ĠÐ²ÑĭÐ·Ð²":4439,"ĠÐ¸Ð½Ð¾ÑģÑĤÑĢÐ°Ð½":4440,"ĠÑģÐ¾Ð¿ÑĢÐ¾Ð²":4441,"ĠÐ·ÑĢÐµÐ½Ð¸Ñı":4442,"ÐµÑģÐ¿ÑĥÐ±Ð»Ð¸":4443,"ĠÐ»Ð¸ÑĨÐ¾Ð¼":4444,"ĠÑģÐµÑĢÐµÐ±":4445,"Ð·Ð´":4446,"ĠÐ¿ÐµÑĢÐ²ÑĭÐ¼":4447,"ĠÐ²ÑĭÐ½ÑĥÐ¶":4448,"ÐµÑĢÐºÐ²Ð¸":4449,"ĠÐ¾Ð±ÑıÐ·Ð°Ð½":4450,"ĠÐºÑĢÑĥÐ¶":4451,"ĠÐ¿ÑĢÐ¸Ð²Ð»ÐµÐº":4452,"ĠÐ¾ÐºÑĤÑıÐ±ÑĢÑı":4453,"ÑģÐºÐµ":4454,"ĠÑģÐ¸ÑĤÑĥÐ°ÑĨÐ¸Ð¸":4455,"ĠÐ³Ð¾Ð»ÑĥÐ±":4456,"ĠÐ±Ð¾Ð¼":4457,"im":4458,"Ð°Ð»Ð¾Ð³":4459,"Ð¾ÑģÐ½Ð¾Ð²":4460,"ĠÐ¡ÐµÑĢÐ³ÐµÐ¹":4461,"ĠâĢŀ":4462,"ĠÐ¿ÑĢÐ¸Ð±Ð»Ð¸Ð¶":4463,"ĠÑĢÐ°ÑģÑģÐºÐ°Ð·Ð°Ð»":4464,"ĠÐ¼Ð¾Ð¶ÐµÐ¼":4465,"ĠÑĤÑī":4466,"ÑİÑīÐ¸Ñħ":4467,"ĠÐ¾Ð²":4468,"Ð´Ð°ÐµÑĤÑģÑı":4469,"ĠÐ¿ÑĢÐ¸ÑĩÐ¸Ð½":4470,"ĠÐ³Ð¸Ð±":4471,"ĠÐ¾ÐºÐ½Ð°":4472,"ĠÐ¼Ð¾Ð¶ÐµÑĪÑĮ":4473,"ĠÑĩÐµÐ¼Ñĥ":4474,"ĠÑģÑĭÐ½Ð°":4475,"ĠÐºÑĥÑģ":4476,"ÐµÐ½Ñĥ":4477,"ĠÐ¿ÑĢÐµÐ´Ð¿Ð¾Ñĩ":4478,"Ð´ÑĢÑĥÐ³":4479,"Ð¾ÐºÐµ":4480,"ÐºÐ°Ð·":4481,"ĠÐ»ÑİÐ±Ð¾Ð²ÑĮ":4482,"Ð¸ÑīÐµ":4483,"ÐµÑĢÐ¾":4484,"Ð¾ÑĤÐµ":4485,"Ð»Ð°Ð¶":4486,"ĠÐ¢ÑĢ":4487,"ĠÑĢÑĭÐ½":4488,"ĠÐ¿Ð¾ÑħÐ¾Ð¶Ðµ":4489,"ĠÐºÐ½Ð¸Ð³Ð¸":4490,"ĠÐ´ÑĭÑħ":4491,"ĠÐ²ÑĭÐ´ÐµÑĢÐ¶":4492,"Ð½Ð¾ÑĢ":4493,"ĠÐĺÐ²Ð°Ð½":4494,"ĠÑģÑĤÐ°Ð½Ð¾Ð²Ð¸ÑĤÑģÑı":4495,"ĠÑģÑĢÐ¾Ðº":4496,"ĠÐ´Ð¾Ð±Ð°Ð²Ð¸Ð»":4497,"Ð°ÑģÐ¸Ð±Ð¾":4498,"ĠÐ¿ÑĢÐ¸Ð¼ÐµÐ½":4499,"ÑĢÐ¾ÑĢ":4500,"ĠÐŀÑģÑĤ":4501,"Ð»ÑĭÐ¹":4502,"ĠÐ¾ÑĢÐ³Ð°Ð½Ð¸Ð·Ð°ÑĨÐ¸Ð¸":4503,"ÑģÐ¾Ð¼":4504,"ĠÐ·Ð²ÑĥÑĩ":4505,"ĠÑĤÑĢÐ¸Ð´ÑĨ":4506,"ĠÐĲÑĦ":4507,"ĠÐŁÐ¾Ð¼":4508,"ĠÐ¼ÑıÑģ":4509,"ĠÐ¼Ð¾Ð»Ð¾Ð´Ð¾Ð¹":4510,"ĠÐ·Ð¸Ð¼":4511,"ĠÑģÑĢÐµÐ´ÑģÑĤÐ²":4512,"ĠÑıÐ½Ð²Ð°ÑĢÑı":4513,"ĠÐ¸Ð¼ÐµÐ½":4514,"ĠÐ¾ÑĤÑģÑĤÑĥÐ¿":4515,"Ð»ÑıÑİÑĤ":4516,"ĠÑģÐ²ÐµÐ¶":4517,"Ð½Ð¸ÑģÑĤ":4518,"ĠÑģÐ¼ÐµÑĪ":4519,"ĠÑģÑĨÐµÐ½":4520,"ĠÑĥÑĩÐµÐ½":4521,"ĠÐ¥ÑĢÐ¸ÑģÑĤ":4522,"ĠÐ½Ð°ÑģÐ»ÐµÐ´":4523,"Ð¾Ð¼Ð°":4524,"ĠÑĢÐ°":4525,"ĠÐłÑĥÑģ":4526,"ĠÐ°Ð½ÑĤ":4527,"Ð°Ð´ÐµÐ¼":4528,"000":4529,"ĠÑĥÑĩÐ°":4530,"Ð°ÑĢÐµ":4531,"ĠÐ¼Ð°Ð»ÑĮÑĩÐ¸Ðº":4532,"ĠÐ¾Ð¿ÑĢÐ°Ð²":4533,"ĠÐ¶ÐµÑĢÑĤÐ²":4534,"Ð¸ÑģÑĤÑĭ":4535,"ĠÐ¶Ð´Ð°ÑĤÑĮ":4536,"ĠÐ±ÑĭÐ²Ð°ÐµÑĤ":4537,"ÑĢÐ¾Ð¿ÐµÐ¹":4538,"ÐµÐµÑĤ":4539,"ĠÐ¼Ð»Ð°Ð´":4540,"ĠÐ±ÐµÑģÐµÐ´":4541,"ĠÑĥÑģÐ¿Ð¾ÐºÐ¾":4542,"ĠÐ²Ð¸Ð¶Ñĥ":4543,"ĠÑĢÐ°Ð·Ð²ÐµÑĢ":4544,"Ð¿ÑĢÐµÐ¶Ð½ÐµÐ¼Ñĥ":4545,"ĠÐĶÐ¾Ð½":4546,"Ð¸Ð²Ð°Ñİ":4547,"ÑģÑĤÑĢÐµÑĩ":4548,"ĠÐ¸ÑİÐ»Ñı":4549,"ĠÑĤÐ¾Ð»Ð¿":4550,"ĠÐ½ÐµÐ»":4551,"ĠÑĢÐ¾Ð´Ð°":4552,"Ð®":4553,"Ð»ÐµÑĤÐ²Ð¾ÑĢ":4554,"ĠÐĳÐµÐ·":4555,"Ð¾ÑĩÐ½Ð¾Ð¹":4556,"ĠÐºÐ°Ð¶Ð´Ð¾Ð³Ð¾":4557,"ĠÐ¾Ð±Ð¸Ð´":4558,"ĠÐ¼ÑĥÐ·Ñĭ":4559,"ĠÑĢÐ°Ð·Ð²Ð¸ÑĤÐ¸Ñı":4560,"ĠÐºÐ°ÐºÐ¾Ð³Ð¾":4561,"Ð°Ð½Ð³":4562,"ĠÑĢÐ°Ð·Ð½ÑĭÑħ":4563,"ĠÐ¾ÐºÐ°Ð·Ð°Ð»Ð°ÑģÑĮ":4564,"ĠÐ´ÑĢÐ¾Ð¶":4565,"ĠÐ³ÑĢÐ¾Ð·":4566,"ĠÑĤÐ²Ð¾Ð¹":4567,"ÑĥÑĢÑĥ":4568,"ĠÐ°ÑĤÐ°Ðº":4569,"ĠÑħÐ»Ð¾Ð¿":4570,"ĠÐ±ÐµÑģÐº":4571,"ĠÑĢÐ°Ð±Ð¾ÑĤÐ°":4572,"ÑĪÐ°":4573,"ĠÐ²ÑģÐ¿Ð¾Ð¼Ð¸Ð½":4574,"ÑģÑĤÐ²ÐµÐ½Ð½Ð°Ñı":4575,"ĠÐ»Ð¸Ð´":4576,"ĠÐ¿ÑĢÐ¾Ð¸Ð·Ð²ÐµÐ´":4577,"ĠÑĦÑĥÐ½Ðº":4578,"ĠÐ²ÐµÑĢÑĤ":4579,"ĠÑĢÐ¸Ñģ":4580,"ĠÐºÐ¾Ð¼Ð¸ÑģÑģ":4581,"Ð¾ÑħÐ¾ÑĤ":4582,"ĠÑģÐµÐ¼ÐµÐ¹":4583,"ĠÐĴÐ¾Ð»":4584,"Ð²ÐµÐ»":4585,"25":4586,"Ð¾ÑĢÐ³":4587,"ĠÐ¿Ð°ÑģÑģ":4588,"ÑĢÐ°Ð»Ñı":4589,"Ð¸Ð½ÐºÐ¸":4590,"ĠÐľÐ°ÑĤ":4591,"ĠÐĵÐ»Ð°Ð²":4592,"ÑıÐ»Ð¸ÑģÑĮ":4593,"ĠÐ¿ÑĭÑĤÐ°Ð»ÑģÑı":4594,"Ð¸ÑĢÐ°ÑĤÑĮ":4595,"ĠÑĦÐ¸Ð»Ð¾ÑģÐ¾ÑĦ":4596,"Ð¢Ðŀ":4597,"ĠÑħÐ»ÐµÐ±":4598,"ĠÐ¿ÑĢÐ¸Ð³Ð¾ÑĤÐ¾Ð²":4599,"ĠÑħÑĢÐ°Ð¼":4600,"ĠÐ½Ð¾Ð²Ð¾Ð¹":4601,"ĠÑĢÐ°Ð·Ð³Ð¾Ð²Ð°ÑĢ":4602,"ÐŁÐ¾Ð´":4603,"Ð¾Ð½Ð¸Ð¸":4604,"ĠÐ¿ÑĢÐ¸Ð²ÑĭÑĩ":4605,"ĠÐ±ÑĥÐºÐ²":4606,"ĠÐ¾ÐºÑĢÑĥÐ³":4607,"ĠÑģÐ¾ÑİÐ·":4608,"ĠÐ¿ÑĢÐ¸Ð¼ÐµÑĢÐ½Ð¾":4609,"ĠÐĲÐº":4610,"ĠÐºÑĢÐ¸ÑĤ":4611,"ÑĭÐ½":4612,"ÑĤÐ°Ñī":4613,"ĠÐ²ÑĭÑģÑĤÐ°Ð²":4614,"ĠÐ¼ÑĭÑĪ":4615,"ĠÐ¿ÑĢÐ¸Ð²ÑĭÐº":4616,"Ð¾ÐµÐ´Ð¸Ð½":4617,"ĠÐ¿ÑĢÐµÐºÑĢÐ°ÑģÐ½Ð¾":4618,"ĠÑģÑĦ":4619,"ĠÐ°Ð´ÑĢ":4620,"ĠÐ´Ð¸Ð²Ð¸Ð·":4621,"Ìģ":4622,"ĠÐ¿Ð¾Ð»Ðµ":4623,"ĠÑģÐ²ÑıÑī":4624,"ĠÐ¼Ð¾ÑĢÑı":4625,"ĠÐ´Ð²Ð¸Ð¶ÐµÐ½Ð¸Ñı":4626,"ĠÑĪÐ°ÑĢ":4627,"ĠÑĪÑĤÐ°Ð±":4628,"ĠÑģÑĤÐ¾ÑıÐ»Ð°":4629,"ĠÐ´Ð°ÑĢ":4630,"ĠÑģÐ¼ÐµÑĢÑĤ":4631,"30":4632,"ĠÐ¿Ð°ÑĢÑĤÐ¸Ð¸":4633,"ÑĭÑĤÑĮ":4634,"Ð»Ð°Ð³Ð¾Ð´Ð°ÑĢ":4635,"Ð°Ð±Ð°ÑĤ":4636,"ÑĥÐ½Ð´":4637,"ĠÐ¿ÑĢÐµÐ´Ð¿Ð¾Ð»Ð°Ð³":4638,"ĠÑģÐ¾Ð³Ð»Ð°ÑĪ":4639,"ĠÑģÐ¾ÐµÐ´Ð¸Ð½":4640,"ĠÑĤÐ¾Ð»ÑģÑĤ":4641,"ĠÐ¿ÑĢÐ¸Ð´ÑĥÐ¼":4642,"ĠÐºÐ¾ÑĤ":4643,"Ð°ÑİÑīÐ°Ñı":4644,"ĠÐ½Ð°ÑģÑĤÐ¾Ñı":4645,"ĠÐ´Ð¾Ð¿Ð¾Ð»Ð½":4646,"ĠÐ½ÐµÐ±Ð¾":4647,"ĠÐ¼Ð°ÑĪÐ¸Ð½Ñĥ":4648,"ĠÐľÐ¸ÑĢ":4649,"ĠÑĥÐ¿ÑĢÐ°Ð²Ð»ÐµÐ½Ð¸Ñı":4650,"Ð¾Ð½ÐµÑĩÐ½Ð¾":4651,"ĠÐ¡ÐµÐ¼":4652,"ĠÑĥÐ´Ð¾Ð±":4653,"ĠÐ²ÑģÐºÐ¾ÑĢÐµ":4654,"ĠÑģÐ¾Ð½":4655,"ĠÐ¼Ð°ÑĢÑĤÐ°":4656,"ĠÐ½ÐµÑĦ":4657,"ĠÐ½Ð°Ð¼ÐµÑĢ":4658,"ĠÐ¿Ð¾ÐµÐ·Ð´":4659,"ĠÑĤÑĢÑĥÐ´Ð¾Ð¼":4660,"ĠÐĶÐ¶Ð¾Ð½":4661,"ÐµÑİÑģÑĮ":4662,"Ð°ÑģÑĤÐ¸":4663,"ĠÐ¿ÑĢÐ¸Ð¿":4664,"Ð¾Ð²Ð°ÑĤÐµÐ»ÑĮ":4665,"ĠÐ³Ð»Ð°Ð²Ð½Ð¾Ðµ":4666,"ĠÐ¸ÑİÐ½Ñı":4667,"ĠÐ²Ð¾Ð·Ð±":4668,"Ġ195":4669,"ĠÑĦÐµÐ²ÑĢÐ°Ð»Ñı":4670,"ÑĢÑĭÑĤÑĮ":4671,"ĠÐ¿Ð»Ð°":4672,"Ð¾Ð²Ð»ÐµÑĤÐ²Ð¾ÑĢ":4673,"ĠÐ¿Ð¾Ð»Ð¾Ð¶ÐµÐ½Ð¸Ðµ":4674,"Ð¾Ð¿Ð¸Ñģ":4675,"ĠÑģÐ»ÐµÐ´ÑĥÑİÑīÐ¸Ð¹":4676,"Ð¾ÐºÐ¾Ð¼":4677,"ĠÐ¿Ð°ÑĢÐµÐ½ÑĮ":4678,"ĠÐ´ÐµÑıÑĤÐµÐ»ÑĮÐ½Ð¾ÑģÑĤÐ¸":4679,"ad":4680,"ĠÐĺÑĢ":4681,"ĠÐ¿ÑĢÐ¸Ð½ÑıÑĤÑĮ":4682,"ĠÐ¿Ð¾Ð´ÑĩÐµÑĢÐº":4683,"ÑĢÐµÐ¶":4684,"ĠÐ¾ÑģÑĤÐ°Ð»ÑģÑı":4685,"Ð¾Ð²ÑĥÑİ":4686,"ĠÑĩÑĥÐ²ÑģÑĤÐ²Ð¾":4687,"ÐµÑĢÐ½Ð°":4688,"ĠÐ¾ÑģÑĤÐ¾ÑĢÐ¾Ð¶Ð½Ð¾":4689,"ĠÐ¼Ð°ÑģÑĤÐµÑĢ":4690,"ÑįÐ»ÑĮ":4691,"Ð´ÑĥÐ¼":4692,"ÑģÑĤÐ²Ð¾Ð²Ð°Ð»Ð¸":4693,"ĠÐºÐ¾Ð»ÑĮ":4694,"ĠÐŁÐ¾ÑĤÐ¾Ð¼Ñĥ":4695,"ĠÐĵÐµÐ½":4696,"ĠÐ²Ð»Ð°ÑģÑĤÑĮ":4697,"ĠÐ¿Ð¸ÑģÑĮÐ¼Ð¾":4698,"ĠÐ¿Ð¾Ð²Ð¾Ð´Ñĥ":4699,"ĠÑģÐ¼Ð¾Ð¶ÐµÑĤ":4700,"ĠÐ¾ÑĤÐ½Ð¾ÑĪÐµÐ½Ð¸Ð¸":4701,"ĠÐ¿ÐµÑĢÐµÐ³Ð¾Ð²Ð¾ÑĢ":4702,"Ð²ÑıÑī":4703,"ĠÐ¿Ð¾Ð´Ð¾Ð·ÑĢ":4704,"ĠÐĴÐ¾Ð·Ð¼Ð¾Ð¶Ð½Ð¾":4705,"ĠÐĲÐ½Ð´ÑĢÐµ":4706,"ĠÑĥÑĤÐ²ÐµÑĢÐ¶Ð´":4707,"ĠÑģÐ¿ÐµÑĪ":4708,"ĠÑĤÐµÐ»ÐµÑĦÐ¾Ð½":4709,"ĠÐ¼ÐµÑĩÑĤ":4710,"ĠÐ¾ÐºÐ°Ð·Ð°Ð»Ð¸ÑģÑĮ":4711,"ĠÑĢÐµÐ±ÐµÐ½ÐºÐ°":4712,"ĠÐ´Ð²ÑĥÐ¼Ñı":4713,"ÑĭÐ¶":4714,"ÑĤÐ¾Ð½Ð°":4715,"ĠÐ½ÐµÑĩÑĤÐ¾":4716,"ĠÐ²Ð½Ð¸Ð¼Ð°ÑĤÐµÐ»ÑĮÐ½Ð¾":4717,"ÑĪÐµÐ¼Ñĥ":4718,"Ð½Ð¾Ð¿":4719,"ĠÑħÑĥÐ¶Ðµ":4720,"Ð¾ÑĤÑĢÐµÐ±":4721,"Ð½Ð¸ÑĩÐµ":4722,"ĠÐ¼Ð¾Ð»ÑĩÐ°":4723,"Ð¸Ð½ÑĥÐ»ÑģÑı":4724,"ÐŀÐ½Ð¸":4725,"ÑİÐ¼":4726,"ĠÐ¡ÐµÐ²ÐµÑĢ":4727,"ÐµÐ½ÑĮÐµ":4728,"ĠÐ¾Ð´ÐµÐ¶":4729,"ĠÐļÐ»":4730,"ĠÐ¿Ð»ÐµÐ¼":4731,"ĠÐ´Ð¾ÑĢÐ¾Ð³Ñĥ":4732,"ĠÑĢÐ¾Ð²":4733,"ĠÑģÐ¾Ð¶Ð°Ð»":4734,"âĢĻ":4735,"ĠÐ»ÑİÐ´ÑıÐ¼":4736,"ĠÐĿÐ°ÑĤ":4737,"ĠÐļÐ¾Ð½ÑģÑĤ":4738,"ĠÐ±Ð»Ð°Ð³Ð¾Ð´Ð°ÑĢÑı":4739,"ĠÐºÑĥÐ»":4740,"ĠÐ»Ð¾Ð´":4741,"ĠÐ¿Ð¾Ð·Ð²Ð¾Ð½":4742,"ĠÑģÐ¾Ð±ÑĢÐ°Ð½":4743,"ĠÐ½Ð¾Ð¼ÐµÑĢ":4744,"ĠÐ¿ÑĢÐ¾Ð»":4745,"Ð°Ð½Ð½ÑĭÐ¼":4746,"ĠÐ´ÐµÐ¼Ð¾Ð½":4747,"ĠÐ´Ð¾Ð»Ð»Ð°ÑĢÐ¾Ð²":4748,"ĠÐ¶ÐµÐ½Ð°":4749,"Ð¾ÑĤÐ¾Ñĩ":4750,"ig":4751,"ĠÐĴÑĤÐ¾ÑĢ":4752,"ĠÐ§ÑĤÐ¾Ð±Ñĭ":4753,"ĠÐ¶ÑĥÑĢÐ½Ð°Ð»Ð¸ÑģÑĤ":4754,"ĠÑĢÐ°ÑģÑģÑĩÐ¸ÑĤ":4755,"Ð°Ð´ÑĨÐ°ÑĤÐ¸":4756,"Ġ24":4757,"ĠÐ½Ð°Ð¸Ð±Ð¾Ð»ÐµÐµ":4758,"ĠÐ¿Ð»Ð¾Ñħ":4759,"Ð°Ð½Ð½Ð¾Ð³Ð¾":4760,"Ð·ÐµÐ¼":4761,"Ð¸ÑĢÐ¾Ð²Ð°Ð½Ð¸Ñı":4762,"ĠÐ²ÐµÑĢÐ½ÑĥÑĤÑĮÑģÑı":4763,"Ð¼Ð°Ð½Ð°":4764,"ĠÐ¾Ð±ÑĬÑıÑģ":4765,"Ð»ÑıÑĤÑĮÑģÑı":4766,"Ð°Ð¹ÑĤ":4767,"Ġ22":4768,"ĠÑĥÐ´Ð°Ð»":4769,"ĠÑģÐ²ÐµÑĤÐ°":4770,"ĠÑģÐ°Ð¼Ð¾Ð»":4771,"ĠÐºÐ°ÑĢÐ¼Ð°Ð½":4772,"ĠÑĨÐµÑĢÐºÐ¾Ð²":4773,"Ð¸Ð²Ð°":4774,"ÐµÐ¿ÐµÐ½Ð½Ð¾":4775,"ĠÐ³ÐµÐ½ÐµÑĢÐ°Ð»":4776,"Ð»ÑıÐ»Ð¸":4777,"Ð°Ð´ÑĨÐ°ÑĤ":4778,"ĠÐ¿Ð¾Ð²Ð¾ÑĢ":4779,"Ð¾Ð½Ð·":4780,"ĠÑĢÐ°Ð·Ð°":4781,"ĠÐļÐ°ÑĤ":4782,"Ð¸ÑĩÐµÑģÐºÐ¾Ð¼":4783,"ĠÐ½ÐµÐ²ÐµÑĢ":4784,"ĠÐ¼Ð½ÐµÐ½Ð¸Ñİ":4785,"ĠÑĤÐ¾ÑĩÐºÐ¸":4786,"ĠÐ¿ÐµÑĢÐµÑĪ":4787,"ĠÐ´Ð»":4788,"ĠÐ·Ð°ÐºÐ°Ð·":4789,"ĠÑĢÑĥÐºÐµ":4790,"Ġ(Â«":4791,"ĠÑĢÐ°Ð¹Ð¾Ð½":4792,"Ð¾Ð¿ÑĢÐ¸ÑıÑĤ":4793,"ĠÐ´ÐµÐ»Ð°ÐµÑĤ":4794,"ĠÐ¿ÑĢÐ¾ÑĪÐ»Ð¾":4795,"ĠÑħÑĢÐ¸ÑģÑĤÐ¸Ð°Ð½":4796,"ĠÐ½Ð¾ÑıÐ±ÑĢÑı":4797,"ĠÐ¿Ð¾ÐºÐ°Ð·Ð°Ð»Ð¾ÑģÑĮ":4798,"ĠÑĢÐµÐºÐ¸":4799,"ĠÐĵÐ¾Ð»":4800,"ĠÐ¿Ð¾Ð½ÑĢÐ°Ð²":4801,"ĠÑĤÐ¾ÑĢÐ¾Ð¿":4802,"ĠÐ¢Ð¾ÑĤ":4803,"ĠÐ¿Ð¾Ð»Ð¸ÑĨÐµÐ¹":4804,"ĠÐ±ÐµÑĢÐµÐ³Ñĥ":4805,"ĠÐ³Ð¾Ð²Ð¾ÑĢÐ¸Ð»Ð°":4806,"Ð°Ð½Ð¾Ð¼":4807,"ĠÐ¼Ð»Ð½":4808,"ĠÐ¼Ð°Ð¹":4809,"Ġand":4810,"ĠÑĥÑĤÑĢÐ°":4811,"ĠÐ²ÑĢÐµÐ¼ÐµÐ½ÐµÐ¼":4812,"ÑĢÑĥÐ±":4813,"ĠÑĢÐ°ÑģÑģÑĤÐ¾Ñı":4814,"ÐĴÐ¾ÑĤ":4815,"ĠÐŃÑĤÐ¸":4816,"ĠÑĢÐ°Ð½ÐµÐµ":4817,"ĠÐĴÐ¾ÑģÑĤ":4818,"ÑĢÐ´":4819,"ĠÐ¿ÐµÑĢÐ²ÑĥÑİ":4820,"ÑĮÑİÑĤÐµÑĢ":4821,"Ð¸Ð±Ð»Ð¸":4822,"ĠÐ½Ð°ÑĪÐµÐ»":4823,"ĠÐ²ÑģÑĤÐ°Ð»":4824,"ĠÐºÐ¾Ð¼Ð½Ð°ÑĤÑĭ":4825,"ĠÑģÑĤÐµÐ¿ÐµÐ½Ð¸":4826,"oo":4827,"ĠÑĢÐ°Ð·Ð´ÑĢÐ°Ð¶":4828,"ĠÐ¸ÑģÑħÐ¾Ð´":4829,"ÐµÐ½Ð¸ÑıÐ¼":4830,"ĠÑģÐ²ÐµÐ´":4831,"Ð¸ÑĤÐ°Ð»":4832,"ĠÐ·Ð°ÑīÐ¸Ñī":4833,"ĠÑĥÐ·Ð½Ð°Ð»":4834,"ĠÐ»ÑİÐ´ÑĮÐ¼Ð¸":4835,"ĠÐ´ÑĢÑĥÐ³Ð¸Ð¼Ð¸":4836,"Ð½Ð¸Ð¶":4837,"ĠÑģÐ¾Ð¼Ð½ÐµÐ²":4838,"ĠÐ»ÐµÐ´":4839,"ĠII":4840,"ĠÐ´Ð¸ÑģÐº":4841,"ĠÐ²Ð·Ð´Ð¾ÑħÐ½ÑĥÐ»":4842,"ĠÑĤÐµÐºÑģÑĤ":4843,"ĠÑģÑĤÐ¾ÑıÐ»Ð¸":4844,"ĠÐ¾Ð±ÑĬÐµÐ´Ð¸Ð½":4845,"Ð²Ð°ÑĢÐ´":4846,"ĠÐ±Ð¸":4847,"ĠÐ¸ÑģÐ¿Ð¾Ð»ÑĮÐ·Ð¾Ð²Ð°ÑĤÑĮ":4848,"ÐµÐ´Ð»Ð¸Ð²":4849,"ĠÐ¾ÑĤÑģÑİÐ´Ð°":4850,"Ð½ÐµÑĤÑģÑı":4851,"ĠÐ¾ÑĤÑĢÐ°Ð¶":4852,"Ð¾Ð²ÐµÑĤ":4853,"ĠÑģÑĤÐ¾ÑĢÐ¾Ð½Ðµ":4854,"ĠÐ´Ð°Ð¼":4855,"Ð¸Ð»Ð¸Ñı":4856,"ÑħÐ¾Ð²":4857,"ÑįÐ¼":4858,"ĠÐ²ÑĭÐ¿ÑĥÑģÐº":4859,"Ð¸Ð´ÐµÐ½ÑĤ":4860,"ÑĩÐµÑĢ":4861,"ĠÐĺÐ¼ÐµÐ½Ð½Ð¾":4862,"ĠÑĢÐµÐ°Ðº":4863,"ÐµÐ´Ð¾Ð¼":4864,"ĠÐłÐ¾Ð±":4865,"ĠÐ²ÑĭÑĪÐ»Ð°":4866,"Ð»Ð¾Ñĩ":4867,"ĠÐķÑģÑĤÑĮ":4868,"Ð³Ð¾ÑĢÐ¾Ð´":4869,"ĠÐĹÐ½Ð°ÑĩÐ¸ÑĤ":4870,"ĠÐ²ÐµÑģÑĤÐ¸":4871,"ĠÐ½ÑĢÐ°Ð²Ð¸ÑĤÑģÑı":4872,"ĠÐ´Ð¾ÑĩÑĮ":4873,"ĠÐ¼Ð°Ð¼Ð°":4874,"ĠÐ´Ð¾ÑĢÐ¾Ð³Ð¸":4875,"ÐºÑĢÐµÑĤ":4876,"ĠÐ¿ÐµÑĢÑģÐ¾Ð½":4877,"ĠÐ·Ð°Ð¹":4878,"ĠÐ¾Ð¶Ð¸Ð´Ð°":4879,"ÐµÑĢÐ·":4880,"ĠÐ¿Ð¸Ð»":4881,"Ð°Ð²ÑĪÐµÐ³Ð¾":4882,"ĠÐ·Ð½Ð°Ð»Ð¸":4883,"ĠÐ´Ð¾ÑħÐ¾Ð´":4884,"ĠÐ²ÑģÑĤÐ°Ð²":4885,"ÐµÑĤÐ¾Ð¼":4886,"ĠÐ¼ÐµÑĤÑĢÐ¾Ð²":4887,"ĠÐ¿Ð¾Ð´ÑĢÑĥÐ³":4888,"ĠÑĤÑĢÐµÑĤ":4889,"ĠÐ¿Ð¾Ð·Ð¶Ðµ":4890,"ĠÐĲÐ½Ð´ÑĢÐµÐ¹":4891,"ÐŀÐ±":4892,"ĠÑģÑħÐ¾Ð´":4893,"ĠÐ¿Ð¾Ð¿ÑĢÐ¾Ð±":4894,"ĠÐ¿Ð¾Ð´ÑĩÐ¸Ð½":4895,"ĠÐ¿Ð¾Ð¹Ð¼":4896,"ĠÐ¼Ð³Ð½Ð¾Ð²ÐµÐ½Ð¸Ðµ":4897,"Ð¸Ð½ÑĥÐ²":4898,"ĠÐ½ÐµÐºÐ¾ÑĤÐ¾ÑĢÑĭÑħ":4899,"ÑĥÑĩÐ¸":4900,"ĠÐ°Ð¿ÑĢÐµÐ»Ñı":4901,"ĠÑįÐ»ÐµÐ¼":4902,"ĠÑģÐµÐ·":4903,"Ð«":4904,"ĠÑģÑħ":4905,"ĠÐ¼Ð¸ÑģÑĤÐµÑĢ":4906,"ĠÐ²Ð¾ÑģÑģÑĤÐ°Ð½Ð¾Ð²":4907,"Ð°ÑĤÐµÐ»ÑĮÑģÑĤÐ²Ð°":4908,"ĠÐ´Ð¾ÑģÑĤÑĥÐ¿":4909,"ĠÐ²ÑģÐ»ÐµÐ´":4910,"ĠÑĤÑıÐ¶ÐµÐ»Ð¾":4911,"ĠÐ¼ÑĥÐ¶ÑĩÐ¸Ð½":4912,"Ð¸Ð·Ð°ÑĨÐ¸Ð¸":4913,"ĠÐ¾ÑĤÐºÑĢÑĭÐ»":4914,"ĠÐ²ÑĭÐ³Ð»ÑıÐ´ÐµÐ»":4915,"Ð½Ð¸ÑĤ":4916,"Ð»Ð¸ÑĩÐ½Ð¾":4917,"ÑĥÑģÑĤÐ¸Ð»":4918,"ĠÐ¸ÑģÑĤÐ¸Ð½":4919,"ĠÐ¿Ð»ÐµÐ½":4920,"ĠÐ¿ÑĢÐµÐ´Ð¼ÐµÑĤ":4921,"ĠÐ»ÑİÐ±Ð¾Ð¿ÑĭÑĤ":4922,"Ð°ÑģÐ°":4923,"ĠÐĺÐ³Ð¾":4924,"ĠÐľÐ¸ÑħÐ°":4925,"ĠÐ¿Ð¾Ð´Ð°Ð²":4926,"ĠÑģÑĤÑĢÐ¾Ð¸ÑĤÐµÐ»ÑĮ":4927,"ĠÐ±ÑĥÐ´ÐµÑĪÑĮ":4928,"ĠÐ½Ð°ÑģÐºÐ¾Ð»ÑĮÐºÐ¾":4929,"Ð¾Ð¶Ñĥ":4930,"ĠÐ½Ð°ÑĢÐ¾Ð´Ð°":4931,"ĠÐ°Ñį":4932,"Ð°ÐµÐ¼ÑģÑı":4933,"ĠÐ¿ÑĢÐ¾Ñħ":4934,"ĠÐ¿Ð¾ÑĢÑĥÑĩ":4935,"Ð»Ð¾ÑĢ":4936,"ĠÐĵÑĢÐ¸":4937,"ĠÐ¿ÑĢÐµÐ´Ð»Ð¾Ð¶Ð¸Ð»":4938,"ĠÐ¿ÑĢÐ¸Ð½ÑıÑĤ":4939,"ĠÐ¾ÑģÑĤÐ°Ð½Ð¾Ð²Ð¸Ð»ÑģÑı":4940,"ĠÐľÐµÐ½Ñı":4941,"ÑĭÐ»Ð¸":4942,"ÑģÑĤÐ¸":4943,"ĠÑĥÐ»ÑĭÐ±Ð½ÑĥÐ»Ð°ÑģÑĮ":4944,"ÑıÐ½ÑĥÑĤ":4945,"ĠÐ²Ð·Ð°Ð¸Ð¼":4946,"ĠÐ¼ÐµÐ»ÑĮ":4947,"ĠÐ½Ð°ÑģÐµÐ»ÐµÐ½Ð¸Ñı":4948,"ĠÐ¿Ð¾Ð´Ð½ÑıÐ»ÑģÑı":4949,"ĠÐ±Ð»Ð¸Ð¶Ðµ":4950,"ĠÑģÑĤÑĢÑĥÐºÑĤ":4951,"Ð¾Ð²Ð¸Ñĩ":4952,"ĠÑĥÑĩÐµÐ½Ð¸":4953,"ĠÐ½ÐµÐ´Ð°Ð²Ð½Ð¾":4954,"ĠÐ¿Ð¾Ð´ÑĤÐ²ÐµÑĢÐ´":4955,"ÑĭÑĪÐ»ÐµÐ½":4956,"ĠÑģÐ¿ÐµÑĨÐ¸Ð°Ð»Ð¸ÑģÑĤ":4957,"Ð°ÑīÐµ":4958,"ÐµÐ²Ð°ÑĤÑĮ":4959,"ĠÐºÐ»Ð°Ð´":4960,"ĠÑĦÐ¾ÑĢÐ¼Ñĥ":4961,"ĠÐ½Ð°Ð²ÐµÑĢÐ½ÑıÐºÐ°":4962,"ĠÐ¾ÑĤÐ¼ÐµÑĤÐ¸Ð»":4963,"ĠÐ±Ð»Ð¾Ðº":4964,"ĠÐ²Ð°Ð¶Ð½Ð¾":4965,"Ð°ÑĪÐ¸":4966,"ĠÑģÐ¼ÑĭÑģÐ»Ðµ":4967,"Ð°Ð»Ð¸Ñĩ":4968,"ĠÐ¿ÐµÑĤ":4969,"ÑİÐº":4970,"ĠÐ¿Ð¾ÑģÐ¼Ð¾ÑĤÑĢÐµÐ»Ð°":4971,"ĠÐ¡Ð»ÐµÐ´":4972,"ĠÐ¾Ð±ÑıÐ·Ð°ÑĤÐµÐ»ÑĮÐ½Ð¾":4973,"ĠÐ»ÐµÐº":4974,"ĠÐ¿ÑĢÐ°Ð²Ð¸Ð»ÑĮÐ½Ð¾":4975,"ĠÐ²ÑĭÑĢÐ°Ð·":4976,"ĠÐłÐ°Ð½ÐµÐµ":4977,"ÑĭÐ´":4978,"ĠÑĨÐµÐ»Ð¸":4979,"ĠÐºÐ¾Ð½ÐµÑĨ":4980,"ĠÐ¿Ð»Ð¾ÑīÐ°Ð´":4981,"ĠÐ¿ÑĢÐ¾Ð·":4982,"ĠÐ¿Ð¾Ð´Ð±":4983,"ĠÑģÐ»Ð¾Ð²Ð°Ð¼Ð¸":4984,"ĠÑģÑĤÐ¾Ð»Ð°":4985,"ĠÐ¿ÑĭÑĤÐ°ÑıÑģÑĮ":4986,"ĠÐ¿ÑĢÐ¾ÑĪÐµÐ¿ÑĤ":4987,"ĠÐ²Ð¾ÑĢ":4988,"ĠÑĤÐµÑĤ":4989,"ÂłÂłÂłÂłÂłÂłÂłÂł":4990,"ĠÐ¸ÑģÐºÐ°ÑĤÑĮ":4991,"ÐµÑĢÑĭÐ²":4992,"ÐºÐ¸Ð¿":4993,"ĠÑĥÑĪ":4994,"Ð½Ð°Ð´":4995,"Ġ50":4996,"ĠÑģÐ¾Ð³Ð»Ð°ÑģÐ¸Ð»ÑģÑı":4997,"ĠÐĺÑģÑĤ":4998,"ÑİÑĩ":4999,"Ð¶Ð¸":5000,"ĠÐ´Ð²Ð¾Ðµ":5001,"ĠÐ¾Ð±Ð»ÐµÐ³":5002,"ĠÐ¾Ð±ÑĥÑĩ":5003,"ĠÑģÐ¸Ð»Ð¾Ð¹":5004,"ĠÐĲÑĢÑĤ":5005,"ÑģÑĤÑĢÐ°Ð´":5006,"ĠÐºÐ¸Ð»Ð¾Ð¼ÐµÑĤ":5007,"ĠÐ¿Ð¾ÑĩÑĥÐ²ÑģÑĤÐ²Ð¾Ð²Ð°Ð»":5008,"ĠÐ¿Ð¾ÑģÐ¼Ð¾ÑĤÑĢÐµÑĤÑĮ":5009,"ĠÐ¿Ð¾Ð´Ð¾Ð·ÑĢÐµÐ²":5010,"ĠÐ¿Ð¾ÑģÐµÑĤ":5011,"ĠÐŃÑĤÐ°":5012,"ĠÐ·ÐµÐ¼Ð»Ñı":5013,"ĠÑģÐ»ÑĥÑĩÐ°Ñı":5014,"ĠÐ³Ð»Ñı":5015,"Ð»Ð¾Ñī":5016,"ĠÐ¿Ð¾Ð´Ð¿":5017,"ÑĤÐ¸ÑĢÑĥ":5018,"ĠÐ¢ÑĥÑĢ":5019,"ÑģÐ¸Ð¸":5020,"ĠÑĥÐ·Ð½Ð°":5021,"ĠÑĥÐ´Ð¾Ð²Ð»ÐµÑĤÐ²Ð¾ÑĢ":5022,"Ð¸ÑĤÐµÐ»ÑĮÐ½Ð¾ÑģÑĤÐ¸":5023,"ĠÐ¶Ð¸Ð»Ð¸":5024,"ĠÐ´Ð¾Ð½":5025,"ĠÐ¿Ð¾Ð´Ð²":5026,"ĠÑħÑĥÐ´Ð¾Ð¶":5027,"ĠÐ²ÐµÐ»Ð¸Ñĩ":5028,"ĠÐ²Ð½ÐµÐ·Ð°Ð¿Ð½Ð¾":5029,"Ð¼ÑĭÑģÐ»":5030,"ĠÑģÐµÐ¼ÑĮÐ¸":5031,"Ð¾ÑģÐ°":5032,"ĠÑĢÐµÑĪÐ¸Ð»Ð°":5033,"ĠÐ¿Ð¸ÑĤ":5034,"ĠÐ¿Ð¾Ð²ÑĭÑĪ":5035,"ĠÐ´ÐµÐºÐ°Ð±ÑĢÑı":5036,"ir":5037,"ĠÐ¼Ð°Ñħ":5038,"ĠÐ¾ÑģÑĤÐ°Ð»ÑĮÐ½ÑĭÐµ":5039,"ÑĥÑģÑĤÐ¸ÑĤÑĮ":5040,"ĠÐ½Ð°Ð·Ð²Ð°Ð½":5041,"ĠÐ»Ð¾Ð³":5042,"Ð¾ÑģÐ¿":5043,"ĠÐ½ÐµÐ´ÐµÐ»Ñİ":5044,"ĠÐ²Ð¸Ð´ÐµÐ»Ð¸":5045,"ĠÐ²Ð¾ÑģÐ¿Ð¾Ð¼Ð¸Ð½":5046,"ÐµÑģÑģÐ°":5047,"ĠÐ³Ð½ÐµÐ²":5048,"Ġ192":5049,"ÐµÐ¶Ð°ÑĤÑĮ":5050,"ĠÐ²Ð¾ÑģÑħ":5051,"Ð¾ÑĤÐ²Ð¾ÑĢ":5052,"ĠÐ½ÐµÐ¼ÐµÐ´Ð»ÐµÐ½Ð½Ð¾":5053,"ĠÑĥÐ²Ð¸Ð´ÐµÐ»Ð°":5054,"Ð¾ÑĩÐ¸Ð»":5055,"ĠÐ·ÐµÑĢÐº":5056,"Ð²ÐµÑģÑĤÐ¸":5057,"ĠÐ¿ÑĢÐ¾ÑĤÐ¸Ð²Ð½Ð¸ÐºÐ°":5058,"ĠÐ¾Ñħ":5059,"ĠÐĿÐ°ÑģÑĤ":5060,"ĠÑģÐ°Ð¼Ð¾Ð»ÐµÑĤ":5061,"ĠÐ¿Ð¾ÑıÐ²Ð¸Ð»ÑģÑı":5062,"ĠÑģÐ¿ÑĥÑģÑĤÑı":5063,"ĠÑįÐºÑĢÐ°Ð½":5064,"ÂłÑĤ":5065,"ĠÐºÐ¾Ð½Ñģ":5066,"ĠÐ½Ð°ÐºÐ°Ð·":5067,"ĠÑģÐ¾Ð»Ð½ÑĨÐµ":5068,"ĠÐļÐ°Ð¼":5069,"ÑİÐ±":5070,"ĠÐ±ÑĢÐ¾ÑģÐ¸Ð»":5071,"Ð¾Ð½ÐµÑĩ":5072,"Ġ23":5073,"ĠÐĲÐ±":5074,"ĠÐ¿ÑĢÐ¸ÑħÐ¾Ð´Ð¸Ð»Ð¾ÑģÑĮ":5075,"ĠÐºÐ¼":5076,"ĠÑģÐµÑĢÐµÐ´":5077,"Ð¾Ð²Ð°Ð»Ð°ÑģÑĮ":5078,"ĠÐ±ÑĥÑĤÑĭÐ»":5079,"ĠÐ³Ð¾ÑģÐ¿Ð¾Ð´Ð¸Ð½":5080,"ÑĪÐ¸Ð¼Ð¸":5081,"Ð¸ÐºÐ¾Ð¹":5082,"Ð¾ÑģÐ»ÐµÐ´":5083,"ĠÐ´ÑĢÑĥÐ³Ñĥ":5084,"ÐºÐ°Ð½":5085,"ĠÐºÐ°ÑģÐ°ÐµÑĤÑģÑı":5086,"Ð»ÑĭÐµ":5087,"ÑĥÐ³Ð¸":5088,"ĠÐ¿ÑĢÐ¸Ð½ÑıÐ»":5089,"ĠÐ¿ÑĢÐµÐ´Ð¿ÑĢÐ¸ÑıÑĤ":5090,"ĠÐ¾ÑģÐ¾Ð·Ð½":5091,"ĠÐļÑĢÑĭÐ¼":5092,"ÑģÑĤÑĢÐµÐ¼":5093,"ĠÐľÐ¾":5094,"ĠÑĤÑĭÑģÑıÑĩÐ¸":5095,"Ð¡Ðļ":5096,"ĠÐ²ÑĭÐ±ÑĢ":5097,"ĠÑħÐ¾Ð´Ðµ":5098,"ĠÑĨÐ²ÐµÑĤÐ°":5099,".:":5100,"Ð»Ð¾Ð¹":5101,"Ġ100":5102,"ĠÐ³Ð¾Ð²Ð¾ÑĢÐ¸ÑĤÑģÑı":5103,"ĠÐºÐ¾Ð¼Ð°Ð½Ð´Ñĭ":5104,"ĠÐ²Ð¸Ñģ":5105,"Ð¾Ð±Ð¾ÑĢÐ¾ÑĤ":5106,"ĠÐ¿ÑĢÐ¸Ð³Ð»Ð°ÑĪ":5107,"ĠÐ¿Ð¾ÐºÐ»Ð¾Ð½":5108,"ĠÐĿÐ¸ÑĩÐµÐ³Ð¾":5109,"ĠÐ¾Ð±ÑģÑĥÐ¶Ð´":5110,"ĠÐ²Ð°ÑĢ":5111,"Ð°ÑĤÑĥÑĢÑĭ":5112,"ĠÑĢÐµÐ¹":5113,"ĠÐºÑĥÑģÑĤ":5114,"ĠÐŁÑĥÑģÑĤÑĮ":5115,"ĠÐ·Ð°ÐºÑĢÑĭÑĤ":5116,"ĠÐ·Ð°ÑħÐ¾ÑĤ":5117,"ĠÐ¿ÑĢÐµÐ·Ð¸Ð´ÐµÐ½ÑĤÐ°":5118,"ÑĢÐ°ÑĤÐ½Ð¾":5119,"ĠÐ´ÐµÐ¿ÑĥÑĤ":5120,"ĠÐ¿ÑĢÐ¸Ð²ÐµÑĤ":5121,"ĠÐ³Ð¾ÑĢÐ´":5122,"ĠÐ´Ð²Ð¸Ð¶ÐµÐ½Ð¸Ðµ":5123,"ĠÐĿÐ°Ð¼":5124,"ÑĥÐ±Ð»Ð¸Ðº":5125,"Ġin":5126,"ĠÐ¾Ð±Ð¼Ð°Ð½":5127,"Ð°Ð²ÐµÑĢÐ½Ð¾Ðµ":5128,"ĠÑħÐ¾ÑĤÐ¸ÑĤÐµ":5129,"ÑĢÐ¾ÑģÑĤ":5130,"ĠÑĥÐ¼Ð°":5131,"ĠÐ¶ÐµÐ»Ð°Ð½Ð¸Ðµ":5132,"ĠÑħÐ¾ÑĩÐµÑĤÑģÑı":5133,"Ð¾ÐºÐ¾Ð»":5134,"ÐºÐ¾Ð²Ð°":5135,"Ð°ÐµÑĪÑĮÑģÑı":5136,"ĠÐĻ":5137,"ÑĭÐ²Ð°ÑĤÑĮÑģÑı":5138,"ĠÐ»Ð°Ð²":5139,"Ð¾ÑĩÐµÐº":5140,"ÑĥÑħÐ°":5141,"ĠÐĺÑģÐ¿":5142,"Ð¿Ð¾":5143,"ĠÐ¿Ð¾Ð·Ð´Ð½Ð¾":5144,"ĠÐ¿ÑĢÐ¸ÑĪÐ»Ð°":5145,"ĠÐºÐ¾Ð½ÐºÑĢÐµÑĤ":5146,"ĠÐ°Ð´ÑĢÐµÑģ":5147,"ĠÐ¾Ð¿ÐµÑĢ":5148,"ĠÐľÐµÐ¶Ð´Ñĥ":5149,"Ð°Ð»Ð»":5150,"ÑĪÐµÐ±":5151,"Ð²ÐµÐ½":5152,"ĠÐ¼ÐµÑģÑıÑĨÐµÐ²":5153,"Ð´Ð°ÑİÑĤ":5154,"ĠÑįÐ¼Ð¾":5155,"Ð¾Ð²Ð°Ð½Ð¸ÐµÐ¼":5156,"Ð°Ð½Ð½Ð°":5157,"ĠÐ²Ð¸Ð´Ð¸Ð¼Ð¾":5158,"ĠÐ¸Ð·Ð±Ð°Ð²":5159,"Ð¸Ð»Ðµ":5160,"ĠÐ¸Ð·ÑĥÐ¼":5161,"Ð¸ÑĨÐ¸Ñİ":5162,"ÑĢÐ°Ð¶Ð´":5163,"ĠÐ½ÑĥÐ¶ÐµÐ½":5164,"ĠÐĵÐµÑĢÐ¼Ð°Ð½Ð¸Ð¸":5165,"Ð¾ÑħÑĢÐ°Ð½":5166,"ĠÑĪÐ»Ð¸":5167,"Ð»ÑĥÑĩ":5168,"ĠÐ¾ÑĤÐ´ÑĭÑħ":5169,"Ð¸Ð²Ð°Ð½Ð¸Ñı":5170,"ĠÑģÑĩÐ¸ÑĤÐ°ÐµÑĤ":5171,"ĠÐ½ÐµÐ¿Ð¾Ñģ":5172,"ĠÑĪÐ°Ð½Ñģ":5173,"ĠÑĢÑı":5174,"ĠÐ¿Ð¸ÑĪÐµÑĤ":5175,"ÑİÐ¶":5176,"ĠÐºÑĢÑĭÐ»ÑĮ":5177,"ĠÐ¼ÐµÑĤÐ¾Ð´":5178,"ĠÐĲÐ¼ÐµÑĢ":5179,"ĠÑĥÐ³Ð¾Ð»":5180,"ĠÑĢÐµÑĪÐµÐ½Ð¸Ñı":5181,"ĠÐ·Ð½Ð°Ð¼ÐµÐ½":5182,"ĠÐ·Ð°Ð³Ð¾":5183,"ĠÑĩÑĥÐ²ÑģÑĤÐ²Ð¾Ð²Ð°Ð»":5184,"ĠÐ¼ÑĥÐ¶ÑĩÐ¸Ð½Ñĭ":5185,"ÑĥÑĪÐºÑĥ":5186,"ĠÑģÑģÑĭÐ»":5187,"Ð°Ð»ÑĮÐ½ÑĭÐ¼Ð¸":5188,"Ð¾Ð¸Ð½":5189,"ĠÐ½ÐµÐ·Ð°Ð²Ð¸Ñģ":5190,"ĠÑĢÐ°Ð·Ð½ÑĭÐµ":5191,"ĠÑĥÐ±ÐµÐ¶Ð´":5192,"ĠÐ¿ÑĢÐ¾ÑĦÐµÑģÑģÐ¸Ð¾Ð½":5193,"ĠÐ¿ÐµÑĢÐµÐ²Ð¾Ð´":5194,"ĠÐ²ÑĩÐµÑĢÐ°":5195,"ĠÐ¥Ð¾ÑĢÐ¾ÑĪÐ¾":5196,"ĠÑĥÑģÐ»Ð¾Ð²Ð¸ÑıÑħ":5197,"ĠÐ³Ð¾ÑģÑĤÐ¸Ð½":5198,"Ð¸ÑģÑĤÐ°":5199,"ĠÐļÑĥÑĢ":5200,"Ð¾Ð¶Ð´ÐµÐ½Ð¸Ðµ":5201,"Ð¸ÑĤÐµÐ»ÑıÐ¼Ð¸":5202,"ĠÐłÐ°Ð·Ð²Ðµ":5203,"ĠÐºÐ¾Ð¼Ð¿ÑĮÑİÑĤÐµÑĢ":5204,"ĠÐ¸Ð³ÑĢÑĭ":5205,"ĠÑģÑĥÑīÐµÑģÑĤÐ²ÑĥÐµÑĤ":5206,"ĠÐ¿Ð¸ÑģÑĤ":5207,"ĠÐ¡Ð¾Ð±":5208,"Ð°Ð»Ð¸Ð¸":5209,"ĠÐ·Ð¾Ð²":5210,"ĠÐ¤ÑĢÐ°Ð½ÑĨÐ¸Ð¸":5211,"ÑıÑīÐµÐ³Ð¾":5212,"ĠÐĲÐ·":5213,"ĠÐ¡ÐºÐ¾ÑĢ":5214,"ĠÐ¿ÑĢÐ¾ÑĪÐµÐ»":5215,"ĠÐºÐ¾ÑĤÐ¾ÑĢÑĭÐ¼Ð¸":5216,"ĠÐºÐ½Ð¸Ð³":5217,"ĠÐĴÐ¾Ð·":5218,"ĠÐ±Ð¾ÑĢÑĤ":5219,"ĠÑĤÐ¸ÑĪ":5220,"ĠÐ°Ð¿Ð¿Ð°ÑĢ":5221,"ĠÐ½Ð°ÑģÑĤÐ¾ÑıÑīÐµÐµ":5222,"ĠÐ¸Ð¼ÐµÑİÑĤ":5223,"ĠÐ³Ð¾Ð»Ð¾Ð²Ð°":5224,"Ð»ÑĥÐ±":5225,"ĠÑģÑįÑĢ":5226,"ro":5227,"ĠÐ¼Ð¾Ð¸Ð¼":5228,"ĠÐĹÐ°Ðº":5229,"ĠÑģÐ¿ÑĥÑģÐº":5230,"Ð¼Ð¾ÑĢ":5231,"ÑıÐµÑĤÑģÑı":5232,"ĠÐ½Ð°ÑĪÐ°":5233,"ĠÐºÐ¾Ð»Ð»ÐµÐº":5234,"ĠÐ²Ð´Ð¾Ð»ÑĮ":5235,"ĠÐ¿Ð¾Ð»Ð½Ð¾Ð¼":5236,"ĠÑįÐºÑģÐ¿ÐµÑĢ":5237,"ĠÑģÐ¿ÑĢÑıÑĤ":5238,"ÐµÐ¼Ð°":5239,"ĠÐ¿ÐµÑĢÐ²ÑĭÐµ":5240,"ĠÐļÐ¸ÐµÐ²":5241,"Ð¾Ð³Ñĥ":5242,"Ð°Ð´Ñĥ":5243,"ĠÐ½Ð¸ÐºÐ¾Ð¼Ñĥ":5244,"Ġn":5245,"ĠÐ¡ÑĤÑĢ":5246,"ĠÑģÐ¿ÑĥÑĤ":5247,"ĠÐµÐ²ÑĢÐ¾Ð¿ÐµÐ¹":5248,"ĠÐ¿Ð»Ð°ÑģÑĤ":5249,"ĠÐľÐ¾Ð¶Ð½Ð¾":5250,"ÑıÑı":5251,"Ð¾Ð²Ð°Ð½Ð¸Ð¸":5252,"ĠÐĳÐ¾Ð¶":5253,"ĠÐ½Ð°ÑĪÐµ":5254,"ĠÐ½Ð°Ð¶":5255,"Ð¾ÑĢÑĤÐ°":5256,"ĠÐ²ÑĭÐ¸Ð³":5257,"ĠÐŀÑĩÐµÐ½ÑĮ":5258,"ĠÐ²ÐºÑĥÑģ":5259,"ĠÑģÐµÐ´":5260,"ĠÐ¿Ð¾Ð²ÐµÑĢÐ½ÑĥÐ»ÑģÑı":5261,"ĠÐ¿ÑĢÐ¾Ð½Ð¸Ðº":5262,"ĠÐĽÑİÐ±":5263,"ĠÑģÐ´ÐµÐ»Ð°Ð»Ð°":5264,"ĠÑĢÐµÑĪÐ¸Ð»Ð¸":5265,"ĠÐ½Ð°ÑģÐ»":5266,"ĠÑĥÐºÐ°Ð·ÑĭÐ²":5267,"ĠÐ´ÐµÐ¹ÑģÑĤÐ²Ð¸Ð¹":5268,"Ð°Ð½ÑĤÑĭ":5269,"ĠÑĢÐ°Ð·Ð³Ð»ÑıÐ´":5270,"ÑĩÐ¸ÐºÐ¸":5271,"ÂłÐº":5272,"ÑĨÐ¾":5273,"Ð°ÑĤÐµÐ»ÑĮÐ½ÑĭÐ¹":5274,"ĠÐ¿ÑĢÐ¾Ð±Ð¾ÑĢÐ¼Ð¾ÑĤ":5275,"ÑĥÑĢÐµ":5276,"ÑģÐºÐ¾":5277,"ÐµÑĪÑĮÑģÑı":5278,"Ð³Ð»Ð°Ð²":5279,"ĠÑģÐ¸Ð¼Ð²Ð¾Ð»":5280,"ÑģÑĤÐ°Ð½":5281,"ĠÑĩÐ°ÑģÑĤÐ½Ð¾ÑģÑĤÐ¸":5282,"ĠÑĦÐ°Ð¼":5283,"ĠÐ¼ÐµÑģÑıÑĨ":5284,"ĠÑĥÐ³Ð¾Ð´Ð½Ð¾":5285,"ĠÐ½ÐµÐ¿Ð¾Ð½ÑıÑĤ":5286,"ĠÑĥÑĢ":5287,"ĠÐľÐ¾ÑģÐºÐ²Ñĭ":5288,"Ð½ÐµÑĢ":5289,"ĠÐ¿Ð°ÑģÑģÐ°Ð¶":5290,"ĠÑıÐ²Ð»ÑıÑİÑĤÑģÑı":5291,"ĠÐ³ÑĥÑģÑĤ":5292,"ĠÐ¿Ð¾ÑģÑĤÐ°ÑĢ":5293,"ĠÐŁÐµÑĤÑĢÐ¾Ð²":5294,"ĠÑĨÐµÑĢÐºÐ²Ð¸":5295,"ĠÐ¿Ð°Ð¼ÑıÑĤÐ¸":5296,"ĠÐŃÑĤ":5297,"ĠÐ¿Ð¾Ð¼Ð½Ñİ":5298,"ĠÑĩÑĥÐ²ÑģÑĤÐ²Ð°":5299,"Ð¾Ñĥ":5300,"ĠÑĩÑĢÐµÐ·":5301,"ĠÑģÐ³":5302,"Ð¾Ð²ÐµÐ´":5303,"ĠÐ´ÑĢÑĥÐ³ÑĥÑİ":5304,"Ð²ÐµÑĢÐ³":5305,"ĠÐ¾ÑĤÐ²ÐµÑĤÑģÑĤÐ²ÐµÐ½":5306,"ĠÑĢÐ°ÑģÑģÐ¼Ð¾ÑĤÑĢ":5307,"ĠÐ²ÑģÑĤÑĢÐµÑĩÐ¸":5308,".].":5309,"ĠÑģÐ¸Ð»ÑĮÐ½ÐµÐµ":5310,"ÐĹÐ°":5311,"ĠÑĤÐµÑħÐ½":5312,"ĠÐ½ÐµÐ·Ð½Ð°ÐºÐ¾Ð¼":5313,"ĠÑĤÐ¸Ð¿Ð°":5314,"ĠÐ·Ð²ÐµÐ·Ð´":5315,"ĠÑģÐ°Ð»":5316,"ÐµÑħÐ°ÑĤÑĮ":5317,"ĠÑģÑĤÐ°Ðº":5318,"ÐµÐ»Ð»Ð¸":5319,"ĠÐ¿ÑĢÐµÐ´ÐµÐ»":5320,"ĠÐ¡Ð²ÐµÑĤ":5321,"ĠÐ¿ÑĢÐ¸Ð±Ñĭ":5322,"ÐµÑģÐµÐ´":5323,"ĠÐ¼ÐµÐ´Ð¸ÑĨ":5324,"ĠÐ·Ð°Ð¿Ð°Ñģ":5325,"ĠÐ¸Ð½ÑģÑĤÐ¸ÑĤÑĥÑĤ":5326,"ĠÑĢÐ°Ð±Ð¾ÑĤÐ°ÐµÑĤ":5327,"ĠÐ¸ÑģÑĤÐ¾ÑĢÐ¸Ñİ":5328,"ĠÑĤÐ¾ÑĢÐ¶Ðµ":5329,"ĠÐ´ÑĥÑĪÐµ":5330,"Ð¸ÑĤÐµÐ»ÑĮÐ½Ð°Ñı":5331,"ĠÑĪÐµÐ¿":5332,"Ð¾ÑģÑĤÐ¸Ð¶":5333,"ĠÐ½Ð°ÑħÐ¾Ð´Ð¸Ð»ÑģÑı":5334,"ĠÑĢÐµÐ·ÑĥÐ»ÑĮÑĤÐ°ÑĤ":5335,"Ð»ÐµÐ½Ð½Ð¾Ð¹":5336,"ĠÑģÑĤÐ¾Ð»Ðº":5337,"ĠÐ±Ð»ÐµÑģÑĤ":5338,"ĠÐ¾Ð±Ð»ÐµÐ³Ñĩ":5339,"ĠÐ¿ÑĢÐµÐ´ÑģÑĤÐ°Ð²Ð¸ÑĤÑĮ":5340,"ĠÐºÐ¸Ð½Ð¾":5341,"ĠÐ²Ð¾ÑģÐµÐ¼ÑĮ":5342,"ĠÐ²Ð°ÑĪÐµÐ¹":5343,"ĠÐ²Ðµ":5344,"ĠÐĿÐµÑģ":5345,"ĠÑĢÐµÑģÑĤ":5346,"ĠÐ²Ð°ÑĪÐµ":5347,"ĠÐ¾Ð±ÑīÐµÑģÑĤÐ²Ð°":5348,"ĠÐ¿Ð¾Ð½Ð¸Ð¼Ð°Ð»":5349,"ĠÑģÐ¾Ð²Ð¼ÐµÑģÑĤ":5350,"ĠÑģÐ¾ÑģÑĤÐ¾ÑıÐ½Ð¸Ðµ":5351,"ĠÑģÐ¼ÐµÑħ":5352,"ĠÐ¢Ðµ":5353,"ĠÐ¿ÑĢÐ¸ÑĪÐ»Ð¸":5354,"ĠÐ½Ð¸Ð¶Ðµ":5355,"ĠÐ¸ÑģÑĤÐ¾ÑĢÐ¸Ñı":5356,"Ð°Ð»ÑĮÑĪÐµ":5357,"ĠÐ¡ÐµÑĢ":5358,"ĠÐ´ÐµÐ²ÑĥÑĪÐºÐ¸":5359,"ĠÑĢÐ°Ð±Ð¾ÑĤÐ°Ð»":5360,"ÂłÐŀÑĤ":5361,"ĠÐ¾Ð¿ÑĢÐ°Ð²Ð´":5362,"Ġ26":5363,"ĠÐ¾ÑĤÐ´Ð°Ð»":5364,"ĠÐºÐ¾Ð»Ð»ÐµÐ³":5365,"ĠÐĿÐ°ÑĢ":5366,"ĠÑģÐ¿Ð°ÑĤÑĮ":5367,"Ð¸Ð»Ð¸Ð¿":5368,"ĠÐ½Ð°Ð·ÑĭÐ²Ð°ÐµÐ¼":5369,"ÑıÑİÑĤ":5370,"ĠÐŃÐ´":5371,"ĠÐ½Ð°Ð·Ð²Ð°Ð½Ð¸Ðµ":5372,"Ð°Ð»ÑĮÐ½Ð¾ÑģÑĤÐ¸":5373,"ÑıÑīÐ¸Ñħ":5374,"ĠÑģÐ°Ð¼Ð¾Ð¼Ñĥ":5375,"ÑĩÐ¸ÐºÐ°":5376,"ĠÑĥÑĤÐ¾Ñĩ":5377,"ĠÐ´ÑĥÐ¼Ð°Ð»Ð°":5378,"ĠÐºÑĢÐµÑģÑĤÑĮÑıÐ½":5379,"ĠÐ»ÑİÐ±Ð»Ñİ":5380,"ĠÐ¿ÑĢÐµÐ²ÑĢÐ°Ñī":5381,"ĠÐ»ÐµÐ¹":5382,"Ð¸ÑĢÐ°Ñı":5383,"ĠÐ¿Ð¾ÑģÐ»ÑĥÑĪ":5384,"ĠÐ¿Ð¾Ð´ÑĥÐ¼Ð°Ð»Ð°":5385,"ĠÐ¦ÐµÐ½ÑĤ":5386,"ĠÐ¿Ð»ÐµÑĩÐ¾":5387,"50":5388,"ÑģÐµÐ½":5389,"ĠÐ´Ð¸ÑĢÐµÐºÑĤÐ¾ÑĢ":5390,"ĠÐĶÑĢÑĥÐ³":5391,"ĠÐºÑĢÑĥÑĤ":5392,"Ð¸ÑĤÐ°ÑĢ":5393,"Ð¸ÑĪÑĮÑģÑı":5394,"ÐĲÑĢ":5395,"ĠÐ¼Ð°ÑĢÑĪ":5396,"ĠÐ¾ÑģÑĤÐ°ÐµÑĤÑģÑı":5397,"ĠÐľÑį":5398,"ĠÐ¿Ð¾ÑģÐ»ÐµÐ´Ð½ÐµÐµ":5399,"ĠÐºÐ¾ÑĢÐ°Ð±Ð»Ñı":5400,"ĠÐ±Ð¾Ð»Ð¸":5401,"ĠÐ½ÐµÐ´ÐµÐ»Ð¸":5402,"ĠÑģÐ¼Ð¾Ð¶":5403,"ÐµÐºÐ¾Ð¼":5404,"ĠÐ»Ð¸ÑĩÐ½Ð¾":5405,"Ð°Ð²ÑĪÐ°Ñı":5406,"ÑĩÐ¸ÐºÐ¾Ð²":5407,"ĠÐ¾ÑĤÑģÑĤ":5408,"Ð°ÑĤÑĥÑĢÐ°":5409,"ĠÐŀÐ»ÑĮ":5410,"ĠÐ¿ÑĢÐ¸ÑĩÐµÐ¼":5411,"Ð°Ð¹ÑĤÐµÑģÑĮ":5412,"ÑĢÐµÐ»":5413,"ĠÐ³ÑĢÐµÑħ":5414,"ĠÐ¿Ð¾Ð¿ÑĢÐ°Ð²":5415,"ÑĢÐµÐ´Ð¾ÑĤÐ¾Ñĩ":5416,"ĠÑĤÑİÑĢÑĮ":5417,"ĠÐ±Ð¸ÑĤ":5418,"ĠÐŁÐµÑĢÐµÐ´":5419,"ĠÐ³Ðµ":5420,"ĠÐºÐ¸Ð½":5421,"ĠÐ¿ÑĢÐ¸ÑģÑĤÑĥÐ¿":5422,"ĠÑĦÐ°Ð½ÑĤ":5423,"ÑıÐº":5424,"ĠÐºÐ¾ÑĢÐ°Ð±Ð»ÑĮ":5425,"ĠÐ½ÐµÐ±Ð¾Ð»ÑĮÑĪÐ¾Ð¹":5426,"ĠÑĩÐµÑģÑĤÑĮ":5427,"ÐºÑĥÐ¿":5428,"ĠÐĿÐµÐ¼":5429,"ĠÐ´ÑıÐ´":5430,"ĠÐ¾Ð´Ð½Ð¾Ð¼Ñĥ":5431,"ĠÐ²ÑĭÑĤÐ°Ñī":5432,"ĠÐ¾Ð´Ð¸Ð½Ð¾":5433,"ĠÐ¿ÐµÑĢÐµÐ»":5434,"ĠÐ±Ð¾Ð»ÑĮÑĪÐ¸Ð¼":5435,"ĠÐºÐ¾Ð¼Ð°Ð½Ð´Ð¸ÑĢ":5436,"Ð¾Ð·Ñĭ":5437,"ĠÐ²ÑĢÐµÐ¼ÐµÐ½Ð°":5438,"ĠÐŃÑĢ":5439,"ĠÐ»Ð°ÑģÐº":5440,"ĠÐ°Ð²ÑĤÐ¾Ð¼Ð°ÑĤ":5441,"ĠÐłÐ¾Ð¼":5442,"ĠÐ²ÑĢÐµÐ´":5443,"ĠÐ¾Ð¿ÑĢ":5444,"ĠÐ¡ÑĤÐ¾":5445,"ĠÐ¿ÑĢÐ¸ÑģÐ¾ÐµÐ´Ð¸Ð½":5446,"ĠÐºÐ°ÐºÐ¾Ð¼":5447,"Ð°ÑĤÐµÐ»ÐµÐ¼":5448,"ĠÐ¿Ð¾Ð»ÑĮÐ·Ñĥ":5449,"ĠÑĢÐ°ÑģÑħÐ¾Ð´":5450,"Ð¾Ð¿Ð¾Ð»Ð¾Ð¶":5451,"ĠÐ½Ð°ÑĪÐ»Ð¸":5452,"Ġ27":5453,"ĠÐ¿Ð¾Ð½ÑıÑĤÐ½Ð¾":5454,"ĠÐŃÐ»":5455,"ĠĠĊ":5456,"ÑĤÐ¸Ð²":5457,"ĠÐĿÐ°Ñĩ":5458,"ÐµÐ³Ð¾ÑĢ":5459,"Ð¸Ð»Ð»ÐµÑĢ":5460,"Ð¸Ð²Ð°ÑİÑĤÑģÑı":5461,"ĠÑĦÑĥÑĤÐ±Ð¾Ð»":5462,"Ð½Ð°ÑģÑĤ":5463,"ĠÐ²Ð·ÑĢÐ¾Ñģ":5464,"ĠÑģÑĤÑĢÐ°ÑģÑĤ":5465,"ĠÐ¿Ð¾ÑģÑĤÐµÐ¿ÐµÐ½Ð½Ð¾":5466,"ĠÐ¸Ñī":5467,"ĠÐ¿ÑĥÐ³":5468,"ĠÑĩÐµÐ»Ð¾Ð²ÐµÐºÑĥ":5469,"ĠÐ´Ð¾ÐºÑĤÐ¾ÑĢ":5470,"ĠÐĲÐ»ÐµÐº":5471,"ĠÐĳÐ¾Ð³Ð°":5472,"ĠÐ¿Ð¾Ð´ÑĢÐ°Ð·":5473,"ĠÐ¾ÐºÐ½Ð¾":5474,"Ġ28":5475,"ĠÐ½ÐµÑĳ":5476,"ÂłÐľÑĭ":5477,"ĠÑģÐ¼Ð¾ÑĤÑĢÐµÐ»Ð°":5478,"ĠÑģÑĤÐµÐ½Ðµ":5479,"ĠÐĿÐ°ÐºÐ¾Ð½ÐµÑĨ":5480,"ĠÑĨÐµÐ½ÑĤÑĢÐµ":5481,"ÐµÑĢÐ±ÑĥÑĢ":5482,"ĠÐĺÐ»ÑĮ":5483,"ĠÐ¿ÑĢÐ¾ÑĤÑıÐ½ÑĥÐ»":5484,"ĠÐ¾ÑĤÑĢÐ¸ÑĨ":5485,"**":5486,"ĠÐ±ÐµÐ·ÑĥÐ¼":5487,"ĠÐ¡Ð¸ÑĢ":5488,"Ð»ÑıÐ»ÑģÑı":5489,"ĠÑĥÑģÐ»ÑĭÑĪÐ°Ð»":5490,"ÑĦÐµÑĢ":5491,"ĠÐ½ÐµÐ´Ð¾":5492,"ĠÐĲÑħ":5493,"ĠÐ¿Ð¸Ñī":5494,"ĠÐŃÐ¹":5495,"ĠÑĢÐ¾Ð´ÑģÑĤÐ²ÐµÐ½":5496,"ĠÑĢÐ°Ð´Ð¾ÑģÑĤ":5497,"ĠÐ¿Ð°Ð»ÑĮÑĨÑĭ":5498,"ĠÑģÑĩÐ¸ÑĤÐ°ÑĤÑĮ":5499,"ĠÐ²Ð¾Ð´Ð¾Ð¹":5500,"ĠÐ»Ð°Ð¿":5501,"ĠÐ¿Ð¾ÑģÐ°Ð´":5502,"ÑĳÑĤÑģÑı":5503,"ÑĮÐµÐ¼":5504,"ĠÑģÐ»ÑĥÑħ":5505,"ĠÐºÐ¾ÑĦÐµ":5506,"Ð°Ð´Ð¾Ð±":5507,"ÑıÐ±ÑĢÐµ":5508,"ĠÐ½ÐµÐºÐ¾ÑĤÐ¾ÑĢÐ¾Ðµ":5509,"âĢĥ":5510,"ÑĥÐ¼Ð°":5511,"ĠÐŁÑĢÐ¸Ð¼":5512,"ĠÐ¸Ð½ÑĦÐ¾ÑĢÐ¼Ð°ÑĨÐ¸Ñİ":5513,"ĠÐ¼ÑĥÐ¶Ð°":5514,"Ð¸Ð´Ñĥ":5515,"ĠÑĥÑģÑĤÐ°Ð»":5516,"ÐĺÐĲ":5517,"ĠÑĨÐµÐ»ÑĮÑİ":5518,"ĠÐ²ÐµÑģÐµÐ»":5519,"ÑĢÐ¾ÑĪ":5520,"ÂłÐŀÐ½":5521,"Ð°Ð½Ð´Ð°":5522,"ĠÐ½ÑĥÐ¶Ð½Ð°":5523,"Ð¾ÑĤÐ¾Ð²":5524,"ĠÑĤÐµÑģ":5525,"ÑĢÑĥÑģ":5526,"ÐµÑĢÐµÐ·":5527,"Ð±Ð»":5528,"ĠÐ²ÐµÐ´ÑĥÑī":5529,"ÑĥÑİÑģÑı":5530,"ĠÐ´ÑĭÑĪ":5531,"ĠÐ´Ð¾ÐºÑĥÐ¼ÐµÐ½ÑĤ":5532,"ĠÐĶÐ¶ÐµÐ¹":5533,"ĠÐ·Ð°Ð³Ð¾Ð²Ð¾ÑĢ":5534,"ĠÐ¼ÐµÑģÑıÑĨÐ°":5535,"Ġ21":5536,"ĠÐ±Ð¾Ð»ÑĮÑĪÑĥÑİ":5537,"ĠÐ¢Ð°ÐºÐ¶Ðµ":5538,"ĠÐ²ÑĢÑıÐ´":5539,"ĠÐ½Ð°Ð´Ðµ":5540,"ĠÐ¡Ð¾Ñİ":5541,"ĠÐ³ÑĢÑĥÐ´ÑĮ":5542,"ĠÐºÑĢÐ°Ñı":5543,"ĠÐ½ÑĭÐ½ÐµÑĪ":5544,"ĠÐ£ÐºÑĢÐ°Ð¸Ð½Ðµ":5545,"ĠÐ¡ÑĥÐ´":5546,"ĠÐ¿ÑĢÐµÐ´ÑģÐµÐ´":5547,"ĠÑĥÑĩÐµÐ±":5548,"ĠO":5549,"ĠÐŀÐ»ÐµÐ³":5550,"ĠÑģÐµÐºÑĥÐ½Ð´":5551,"ĠÐ·Ð°Ð²Ð¾Ð´":5552,"ĠÐ±Ð¾Ð»ÑĮÑĪÐ¸Ðµ":5553,"ĠÐ°Ð±ÑģÐ¾Ð»ÑİÑĤÐ½Ð¾":5554,"ĠÐºÑĥÑĩ":5555,"ĠÐ·Ð°Ð¼ÐµÑĤÐ¸Ð»Ð°":5556,"ĠÐ²Ð°ÑĪÐ¸":5557,"ĠÐ¼Ð½Ð¾Ð¶ÐµÑģÑĤÐ²Ð¾":5558,"ĠÐ¿Ð¾ÑıÑģÐ½":5559,"ÐĿÑĥ":5560,"ĠÐ²Ð¾Ð¹Ð½Ð°":5561,"Ð¸ÐºÐ°Ð¼Ð¸":5562,"ĠÐ½Ð¸ÐºÐ°ÐºÐ¾Ð¹":5563,"ĠÐ¢Ð¾Ð»":5564,"ĠÑĥÐºÑĢÐµÐ¿":5565,"Ð»ÐµÐ·":5566,"ĠÐ¼Ð¸Ð½Ð¸Ð¼":5567,"Ð¾ÑģÑĤÐ¾ÑıÑĤÐµÐ»ÑĮ":5568,"ĠÐºÐ¾Ð¼Ð¿Ð°Ð½Ð¸Ñı":5569,"ÑĥÐ»Ð°":5570,"Ð¹ÑĤÐµ":5571,"Ð¸Ð½ÐºÐ°":5572,"ĠÐ¿ÑıÑĤÐ¸":5573,"ĠÐ¿ÐµÑĢÐ²ÑĭÑħ":5574,"ÐµÐ½Ñī":5575,"Ð¸ÑģÐ¿":5576,"ĠÐ¿ÑĢÐµÑģÐ»ÐµÐ´":5577,"ĠÐ´ÐµÑĢÐµÐ²ÑıÐ½":5578,"ĠÐ¾ÑģÐ²Ð¾Ð±":5579,"ĠÐ½Ð°Ð¿ÑĢÐ¾ÑĤÐ¸Ð²":5580,"ĠÑĥÑģÑĤÑĥÐ¿":5581,"ĠÐ¾ÑģÐ½Ð¾Ð²Ð½Ð¾Ð¼":5582,"ĠÐ²Ð¼ÐµÑĪ":5583,"ĠÐ¼Ð¸Ðº":5584,"ĠÑģÑĤÑĢÐ°Ð½Ð½Ð¾":5585,"ĠÐ¸Ð·Ð¼":5586,"ÑĥÐ½ÐºÑĤ":5587,"ĠÑģÐ¾Ð±ÑģÑĤÐ²ÐµÐ½Ð½Ð¾Ð¹":5588,"Ð»ÐµÐ±":5589,"ĠÑģÐ¿ÐµÑĨ":5590,"ĠÐĴÐ·":5591,"ĠÐ¿ÑĢÐ¾ÑģÑĮ":5592,"ĠÐŃÐ¼":5593,"ĠÐ¿Ð¾Ð´ÑĤÐ²ÐµÑĢÐ¶":5594,"Ð¸Ð½Ð¸":5595,"ĠÐ¿ÑĢÐµÐ¿Ð¾Ð´":5596,"ÐµÑĢÐ°ÑĨÐ¸Ð¸":5597,"ĠÐ¿ÑĢÐ¸Ð±Ð»Ð¸Ð·":5598,"ĠÑģÑĥÐ´Ð°":5599,"Ð¾ÑĩÐµ":5600,"ra":5601,"ÐµÐºÐµ":5602,"ĠÐ¸ÑģÐºÑĢÐµÐ½":5603,"ÐºÐ¾ÑģÑĤÑĮ":5604,"ĠÐ¿ÑĢÐµÐºÑĢÐ°ÑĤ":5605,"ĠÑĤÐµÑĢÑĢÐ¾ÑĢ":5606,"ĠÑĢÐ¾Ð±":5607,"ĠÑĢÐ°ÑģÑĪÐ¸ÑĢ":5608,"ĠÐ»Ð¾Ðº":5609,"ĠÐŁÑĢÐ¸Ñĩ":5610,"ĠÑĥÑĪÐµÐ»":5611,"Ð°ÑģÑĤÑĭ":5612,"ĠÐ¨ÑĤ":5613,"ĠÐ¿Ð¾Ð»Ð¸ÑĨÐ¸Ð¸":5614,"ĠÐĲÐ¹":5615,"Ð¼Ð¾Ð¹":5616,"ĠÐ²ÑĭÐ¹ÑĤÐ¸":5617,"ÑģÐ¼":5618,"ĠÐĹÐ°Ð²":5619,"ĠÐľÐ°Ð³":5620,"ĠÐ½Ð¸Ð¶":5621,"ĠÑĩÐ°Ð¹":5622,"ĠÑĢÐ°ÑģÐ¿Ð¾Ð»Ð°Ð³":5623,"Ð¸Ð½ÐºÑĥ":5624,"ĠÐºÐ»ÐµÑĤ":5625,"ĠÑģÐ²Ð¾Ð´":5626,"ut":5627,"ĠÐ±Ð»ÐµÐ´":5628,"ĠÐ¾Ð´Ð½Ð°Ð¶Ð´Ñĭ":5629,"ĠÐ¿Ð»ÐµÑĩÐ¸":5630,"ĠÐ³ÑĢÑĥÐ¿Ð¿Ð°":5631,"ĠÐ¿ÐµÑĢÐ²Ð¾Ð¼":5632,"ĠÐĺÑĤ":5633,"ĠÑĩÐ°ÑģÑĭ":5634,"ĠÐ²Ð¾Ð»Ð½":5635,"ĠÐĶÐ¼Ð¸ÑĤÑĢ":5636,"ĠÑģÐ¾Ð¿ÑĢÐ¾ÑĤÐ¸Ð²":5637,"ĠÐ¿Ð¾Ð»Ð½Ð¾Ð¹":5638,"ĠÐ¿ÑĢÐ°Ð²Ð¸ÑĤÐµÐ»ÑĮÑģÑĤÐ²Ð°":5639,"Ð°Ð½Ð½ÑĥÑİ":5640,"ĠÐ»Ð¸Ð½Ð¸Ð¸":5641,"ĠÐĲÐ½Ð³Ð»Ð¸":5642,"ÐĴÐĲ":5643,"ĠÐ¼Ð¸Ð½ÑĥÑĤÑĭ":5644,"ÑĪÐµÐ´":5645,"ĠÐ²ÐµÑĢÐ½Ð¾":5646,"ĠÐķÐ¹":5647,"Ð°ÑĤÐµÐ»ÑĮÑģÑĤÐ²Ð¾":5648,"ĠÑĤÑĢÑĥÐ¿":5649,"ĠÑĥÐ¹ÑĤÐ¸":5650,"ĠÑģÐ¾ÑģÑĤÐ°Ð²Ðµ":5651,"ÑĨÐ²ÐµÑĤ":5652,"ÑĨÐ°Ñħ":5653,"Ð°ÑĤÐºÐ¸":5654,"ĠÐ¾Ð±ÐµÐ´":5655,"Ð¸Ð¼Ð°Ñı":5656,"ĠÑĦÐ¸ÑĢ":5657,"ĠÑĥÑģÐ¼ÐµÑħÐ½ÑĥÐ»ÑģÑı":5658,"ĠÑĤÐ°Ð»":5659,"ĠÐĴÐ¸ÐºÑĤÐ¾ÑĢ":5660,"ĠÐ¸Ð´Ð¸":5661,"ĠÐ¾ÑģÑĤÐ°Ð»Ð¸ÑģÑĮ":5662,"Ð½Ð¾Ñĩ":5663,"ĠÐºÐ»Ð¸Ð½":5664,"ĠÐŁÐ¾Ð²":5665,"Ð°Ð½Ð´Ð¸Ð´":5666,"ÑīÐ¸ÐºÐ¾Ð²":5667,"ĠÐ³ÑĢÐ¾Ð¼ÐºÐ¾":5668,"ĠÐ²Ð¿ÐµÑĢÐµÐ´Ð¸":5669,"ĠÐĴÐ°ÑĢ":5670,"ĠÐ³Ð»ÑĥÐ±Ð¾ÐºÐ¾":5671,"ĠÐºÐ°Ð¶Ð´Ð¾Ð¹":5672,"ĠÑĤÐ²ÐµÑĢÐ´":5673,"ĠÑģÐ»ÑĥÐ¶Ð±Ñĭ":5674,"ĠÐĿÐµÑĥÐ¶ÐµÐ»Ð¸":5675,"ĠÐ¿Ð¾ÑĪÐ»Ð¸":5676,"ĠÐ¿Ð¾Ð¿ÑĭÑĤÐ°Ð»ÑģÑı":5677,"ĠÐ¿ÑĢÐµÐ±":5678,"ĠÑģÐ´ÐµÐ»Ð°Ð»Ð¸":5679,"ĠÐ¡ÐµÐ³Ð¾Ð´Ð½Ñı":5680,"ĠÑħÐ²Ð¾ÑģÑĤ":5681,"ĠÐ²Ð¾Ð·Ð´ÑĥÑħÐµ":5682,"ÐŁÐ¾ÑģÐ»Ðµ":5683,"ÑģÐµÐ³Ð´Ð°":5684,"ĠÐ²Ð¾Ð½":5685,"ĠÑģÐ¿Ð¸Ð½Ñĥ":5686,"ÐºÐ¸Ð½Ð°":5687,"ĠÐ¿Ð¾ÑĤÑĢÑıÑģ":5688,"ĠÐ¼Ð¸Ð½Ð¸ÑģÑĤ":5689,"ÑıÐ»Ð¾":5690,"ĠÐ£Ð¶Ðµ":5691,"ĠÐ½ÑĥÐ¶Ð½Ñĭ":5692,"ĠÐ½Ð°ÑĩÐ°Ð»Ð¾":5693,"ie":5694,"ÑĥÑİÑīÐ¸Ð¹":5695,"ĠÐ±Ð¾Ð»ÑĮÑĪÐ°Ñı":5696,"Ð»Ð¾Ñħ":5697,"ĠÑĪÐ»Ð°":5698,"ĠÐ¿Ð¸ÑģÐ°Ð»":5699,"ĠÑĦÐ¾ÑĢÐ¼Ðµ":5700,"Ð°Ð±ÑĢ":5701,"Ð¾Ð²Ð¾Ðµ":5702,"ĠÐ²ÑĭÑĢÐ²":5703,"ĠÐ¿Ð¾Ð¸Ð½ÑĤÐµÑĢÐµÑģ":5704,"Ð»ÑıÑİÑī":5705,"ÐŀÐĿ":5706,"ĠÑģÐ»Ð°Ð´":5707,"ĠÐ½Ð°ÐºÐ»Ð¾Ð½":5708,"ĠÐ·Ð½Ð°ÑĩÐµÐ½Ð¸Ðµ":5709,"ĠÐ½Ð¾Ð³Ð°Ð¼Ð¸":5710,"ĠÐ±ÑĢÐ°ÑĤÐ°":5711,"ĠÐ¿Ð¾ÑıÑģ":5712,"ÑģÐ»Ñı":5713,"Ð¼Ð¾Ñģ":5714,"ĠÑĩÐ°ÑīÐµ":5715,"ĠÐ¾ÑģÐ²Ð¾Ð±Ð¾Ð´":5716,"ĠÐŁÐµÑĤÑĢ":5717,"ĠÐ´Ð¾ÑĢÐ¾Ð¶":5718,"ĠÑĤÑĢÑĥÐ´Ð°":5719,"ĠÑĢÐ°ÑģÑĤÐµÑĢ":5720,"ĠÐ²ÑĭÐ¹":5721,"ĠÐ´ÑĥÑĪÑĥ":5722,"ÐµÐ»Ð°ÑģÑĮ":5723,"ĠÐŁÐ¾Ð¿":5724,"ĠÐ»ÐµÑĩ":5725,"ĠÐºÐ°Ð»":5726,"ĠÐ¿ÑĢÐµÑĤ":5727,"ÐºÐ½ÑĥÐ»Ð°":5728,"ĠÑĢÐ°Ð·Ð¼ÑĭÑĪ":5729,"Ð¸ÑģÐºÐ¸":5730,"ĠÐºÐ°ÑĦ":5731,"ĠÐ½ÐµÐ¿ÑĢÐ°Ð²":5732,"Ð¸ÑĩÐµÑģÐºÐ¸Ð¼Ð¸":5733,"Ð¸Ð½Ð´":5734,"ĠÐ¿Ð¾ÑıÐ²Ð¸Ð»Ð°ÑģÑĮ":5735,"Ð¿ÐµÑĢÐ²":5736,"ĠÐĴÐ°Ð¼":5737,"ĠÐĴÐ¼ÐµÑģÑĤ":5738,"ĠÑįÑĤÐ°Ð¿":5739,"ĠÐ¾ÑĤÑĤÑĥÐ´Ð°":5740,"ĠÑģÑĤÑĢÐ°ÑĪÐ½Ð¾":5741,"ĠÐ¿Ð»Ð°Ð²":5742,"ĠÐ¸Ð·Ð²Ð¸Ð½":5743,"ĠÑĢÑĥÐºÐ°":5744,"ĠÐ¥Ð°ÑĢ":5745,"ĠÑĥÐ¿Ð¾ÑĢ":5746,"um":5747,"ĠÐ²ÐµÑĢÐ¾ÑıÑĤÐ½Ð¾":5748,"ĠÐ¾ÑģÐ¼Ð¾ÑĤÑĢ":5749,"ĠÑıÐ¿Ð¾Ð½":5750,"ĠJ":5751,"Ð¸Ð½ÑģÐºÐ¾Ð¹":5752,"ĠÐºÐ¾Ð½ÐºÑĥÑĢ":5753,"ĠÐļÐ°Ð¶Ð´":5754,"ĠÑĩÐµÑĤÑĭÑĢÐµÑħ":5755,"ĠÐ¿Ð¾Ð³Ð¾Ð²Ð¾ÑĢÐ¸ÑĤÑĮ":5756,"Ð°Ð¹Ð´":5757,"ĠÐºÑĥÑĢÑģ":5758,"Ð³Ð½":5759,"ĠÐ¿Ð¾ÑģÑĤÑĢÐ°Ð´":5760,"ĠÐ¾ÑĢÑĥÐ¶Ð¸Ñı":5761,"ÑĥÑİÑĤÑģÑı":5762,"ĠÐ´Ð¾ÑĪ":5763,"ÑĥÑİÑīÐµÐµ":5764,"ĠÐ¿Ð»Ñİ":5765,"ĠÐ³Ð¾Ð»Ð¾Ð´":5766,"ĠÑĢÐ°ÑģÐ¿Ð¾ÑĢÑıÐ¶":5767,"ĠÐ¼Ð¾ÑģÐºÐ¾Ð²":5768,"ĠÐ¿Ð°Ðº":5769,"24":5770,"ĠÐ¾ÑĤÐºÑĢÐ¾Ð²":5771,"Ð¶Ð°":5772,"ul":5773,"ĠÑĥÐ³Ð¾Ð»Ð¾Ð²":5774,"ĠÐ½ÐµÐ´Ð¾Ð²Ð¾Ð»ÑĮ":5775,"ĠÐ²Ð¾Ð´Ð°":5776,"ĠÑĥÐ±Ð¸ÑĤÑĮ":5777,"ÐľÐĺ":5778,"ĠÐ¶Ð¸ÑĤÐµÐ»ÐµÐ¹":5779,"ÐµÐ½ÑĨÐ¸":5780,"Ð¸Ð½ÑģÐºÐ¸Ð¹":5781,"ĠÐ³Ð»Ð°Ð²Ð°":5782,"ĠÑĢÐµÑģ":5783,"ÑĢÐµÑģÑģ":5784,"ĠÐĵÐ¾Ð²Ð¾ÑĢ":5785,"ĠÐ¾ÑĤÑĢÑıÐ´":5786,"ĠÐ²Ð¾ÑģÐºÑĢÐµÑģ":5787,"ĠÐ§ÐµÐ¼":5788,"ĠÐĿÐ°Ñģ":5789,"ÐŁÑĢÐ¸":5790,"Ð¾Ð²Ð°Ð½Ð¸Ð¹":5791,"Ð½ÑıÐ¼Ð¸":5792,"ĠÐ¿ÑĢÐ°Ð²Ð¸Ð»ÑĮ":5793,"Ð¸Ð½ÑģÐºÐ¾Ð³Ð¾":5794,"ĠÐ¾ÑīÑĥÑĤ":5795,"ĠÑĢÐ°Ð·Ð½Ð¾":5796,"ĠÑįÐºÐ¸Ð¿":5797,"ĠÐ¼ÑĥÐ·ÑĭÐº":5798,"ĠÐ²Ð¾ÑĪÐµÐ»":5799,"ĠÐ½ÐµÐ¾Ð±ÑĭÑĩ":5800,"ÐĴÐĶ":5801,"ĠÐĿÑĮÑİ":5802,"ĠÐ¿Ð¾ÐºÐ¾Ð»":5803,"ÑģÑĤÐ²Ð°Ñħ":5804,"ĠÐ´ÐµÐ´":5805,"ĠÐ¿Ð¾ÑĢÐ°Ð·":5806,"ĠÐ±ÑĭÑģÑĤÑĢÐµÐµ":5807,"ĠÐ´ÑĢÑĥÐ·ÐµÐ¹":5808,"ĠÐ·Ð°Ð¸Ð½ÑĤÐµÑĢÐµÑģ":5809,"Ð¸ÐºÑģ":5810,"ĠÐ°ÐºÐºÑĥ":5811,"Ð°Ð½ÑĤÐ¾Ð²":5812,"ĠÐĵÐ°ÑĢÑĢÐ¸":5813,"ĠÐ¸Ð¼Ð¸":5814,"ĠÑģÐ¾ÑģÑĢÐµÐ´Ð¾ÑĤÐ¾Ñĩ":5815,"ĠÑģÐ¾Ð±ÑĭÑĤÐ¸Ð¹":5816,"ĠÐŁÐ¾ÑģÐ»ÐµÐ´":5817,"ÑĥÐºÐ¾Ð²":5818,"Ð¾Ð²Ñĭ":5819,"ĠÐ¸Ð³ÑĢÐ°ÑĤÑĮ":5820,"Ð¸Ð¼Ð¾Ð¹":5821,"ĠÐ¿Ð¾Ð»ÑĥÑĩÐ¸Ð»Ð¸":5822,"Ð½Ð¸Ð»":5823,"ĠÐ¾ÑģÑĤÐ°Ð²Ð°Ð»Ð¾ÑģÑĮ":5824,"ĠÐºÑĢÐ¾Ð²Ð°ÑĤÐ¸":5825,"ĠÐ¿Ð¾Ð·Ð½Ð°ÐºÐ¾Ð¼":5826,"ÑĥÑīÐµÐµ":5827,"Ð¾ÑĨÐ¸":5828,"ĠÑĥÑģÑĤÑĢÐ¾Ð¹":5829,"ĠÐ²Ð¾Ð»ÑĪÐµÐ±":5830,"ĠÐ³Ð¾Ð´Ð¾Ð²":5831,"ĠÐ½Ð°Ð»Ð¸Ñĩ":5832,"ĠÑĪÐºÐ¾Ð»Ñĭ":5833,"ĠÑĥÐºÑĢÐ°ÑĪ":5834,"Ġ40":5835,"ÐµÐ»Ð¾Ð²ÐµÐº":5836,"ĠÑģÐºÐ°Ð·Ð°Ð»Ð¸":5837,"em":5838,"ÑıÑīÐ¸Ðµ":5839,"ĠÐ½ÐµÑĩÐµÐ³Ð¾":5840,"ĠÐ¿ÑĢÐ¸ÑħÐ¾Ð´Ð¸ÑĤÑģÑı":5841,"ÐŁÐµÑĤ":5842,"ĠÐĹÐ°ÑĩÐµÐ¼":5843,"ĠÐ²ÑĤ":5844,"ĠÐ¿Ð¾Ð´Ð½Ñı":5845,"ĠÐłÑĥ":5846,"Ð¼Ð¾Ð½":5847,"Ð¸Ð¹ÑģÐºÐ¾Ð³Ð¾":5848,"ĠÑĥÐ¿Ð¾Ð¼Ð¸Ð½":5849,"ÐºÑģ":5850,"ÐµÐ½Ð½Ð¾Ð¼Ñĥ":5851,"ĠÑģÐ¸ÑĤÑĥÐ°ÑĨÐ¸Ñı":5852,"Ð°ÐµÐ²":5853,"ĠÐ°ÑģÑģ":5854,"ĠÐ¸Ð½ÑĦ":5855,"ĠÑħÐ¾ÑĤÐµÐ»Ð¸":5856,"ĠÑĩÑĥÐ²ÑģÑĤÐ²Ñĥ":5857,"ĠÐ¿Ð¾ÑĢÐ°":5858,"ĠÐ¾ÑģÐ²ÐµÑī":5859,"ĠÐ»Ð°Ð±":5860,"ĠÑĨÐµÐ»Ð¾Ð¼":5861,"ĠÐĽÐ¾Ð½Ð´":5862,"Ð¿Ð»":5863,"ĠÐ·Ð°Ð¿ÑĢÐµÑī":5864,"Ð°ÑĤÐµÐ»ÑĮÐ½Ð¾Ð¹":5865,"ĠÐ¼Ñĥ":5866,"ĠÑĩÐ¸Ð½Ð¾Ð²":5867,"ĠÑĤÑĭÑģ":5868,"ÐµÐºÑĤÐ¾Ð²":5869,"ĠÐ²ÑĭÑĪÐ»Ð¸":5870,"ĠÐ²ÑģÐ¿Ð¾Ð¼Ð½Ð¸Ð»":5871,"ĠÐĲÐ»Ð¸":5872,"ĠÑģÐ²ÑıÐ·ÑĮ":5873,"Ð¾ÑģÑħÐ¾Ð´":5874,"Ð¾Ð²Ð°Ð½Ñĭ":5875,"ĠÑģÑĥÑī":5876,"Ð¿ÑĢÑıÐ¼":5877,"ĠÐ·Ð°Ð²ÐµÐ´":5878,"ĠÑĥÑĤÑĢÐ¾":5879,"ĠÐ·Ð²ÑĥÐº":5880,"Ð±ÐµÑĢÐ³":5881,"ĠÐ²Ð¸Ð´Ð¾Ð¼":5882,"ĠÐ¿Ð¾Ð¶Ð°Ð»ÑĥÐ¹ÑģÑĤÐ°":5883,"ĠÐºÐ¾ÑĢÐ¾Ð»Ñı":5884,"ĠÐ¿Ð¾ÑģÐ²ÑıÑī":5885,"Ð¾Ð²Ð°Ð»Ð¸ÑģÑĮ":5886,"ĠÑĢÐ°ÑģÑģÐ»ÐµÐ´":5887,"ĠÑĤÐ²Ð¾Ñı":5888,"ĠÑįÑĤÐ¸Ð¼Ð¸":5889,"ÐĴÑĭ":5890,"ĠÑģÐ¾Ð±ÑĭÑĤÐ¸Ñı":5891,"ĠÐľÐµÐ´":5892,"ĠÑģÑĤÐ¾Ð»Ð¾Ð¼":5893,"Ð¢ÐĲ":5894,"ĠÑĢÑĥÑģÑģÐºÐ¸Ñħ":5895,"ĠÐ·Ð½Ð°ÑİÑĤ":5896,"ĠÑĥÐ¼Ð¸ÑĢ":5897,"ĠÑĩÐ¸ÑģÐ»Ð¾":5898,"ÑĮÐµÑĢ":5899,"ĠÐĺÐ¸Ñģ":5900,"ĠÐ¼Ð¸Ð»Ð¸":5901,"ĠÐ¼Ð¸ÑģÑĤ":5902,"ĠÐ¿ÑĢÐ¾ÐºÑĥÑĢ":5903,"ĠÐ·Ð°ÑģÐµÐ´":5904,"ĠÐ¿ÑĢÐ¾ÑĪÐ»Ð¾Ð¼":5905,"ĠÐ¼ÑĥÑģ":5906,"ĠÐ´Ð°ÐµÑĤ":5907,"ĠÑĥÑĢÐ¾Ð²Ð½Ðµ":5908,"ĠÐ³Ð°Ð´":5909,"ĠÐ´ÐµÐ»Ñĥ":5910,"ĠÐ»Ð¾Ð¼":5911,"ĠÐ±ÑĢÐ¾Ð²":5912,"Ġto":5913,"Ð¾Ð»ÐµÐ¿":5914,"ĠÐ²Ð¾Ð¹ÑģÐºÐ°":5915,"ĠÐĵÐ°Ð»":5916,"ĠÐºÐ¾Ð½ÑĤÑĢÐ¾Ð»":5917,"Ð¾Ð²Ð°Ð»Ð¾":5918,"Ð¾Ð±Ð½Ð¾":5919,"Ð¾Ð¶Ð°Ð»ÑĥÐ¹":5920,"Ð°Ð²Ð°Ñı":5921,"ÂłÐķÑģÐ»Ð¸":5922,"Ð¸ÑĢÐ¾Ð²Ð°Ð»Ð°":5923,"ĠÑģÐ¸ÑĢ":5924,"ÐµÐ½ÑĮÑİ":5925,"ĠÐ±Ð¾Ð»ÑĮÑĪÐ¸Ð½ÑģÑĤÐ²Ð¾":5926,"ĠÑİÐ¶":5927,"ĠÑģÐ»ÑĥÑĩÐ°Ð¹Ð½Ð¾":5928,"Ð½Ð¸ÑĨÐµÐ¹":5929,"ĠÐ¸Ð½ÑĤÐµÑĢÐµÑģÐ½Ð¾":5930,"Ð½ÑıÐµÑĤ":5931,"ĠÐ½Ð°Ð¿Ð¸ÑģÐ°Ð»":5932,"ĠÐ¿Ð¾Ñį":5933,"ÑĮÑıÐ¼Ð¸":5934,"ĠÐºÐ½Ð¸Ð¶":5935,"ĠÐ³Ð¾Ð½":5936,"ĠÐ²Ð¾Ð·ÑĢÐ°Ð·":5937,"ĠÑĥÐ±Ð¸ÑĤ":5938,"ĠÐ±ÐµÑģÐ¿Ð¾ÐºÐ¾Ð¹":5939,"ĠÐ·Ð°ÑĪ":5940,"ĠÐ´ÐµÐ²Ð¾ÑĩÐºÐ°":5941,"ĠÐĿÐ¸ÐºÐ¾Ð»Ð°":5942,"ĠÐ½Ð°ÑĪÑĥ":5943,"ĠÐ¾ÐºÐ¾Ð½ÑĩÐ°ÑĤÐµÐ»ÑĮÐ½Ð¾":5944,"ĠÐ¿Ð¾ÑĤÐ¾Ð»":5945,"ĠÑģÐ¾Ð¾ÑĤÐ²ÐµÑĤÑģÑĤÐ²ÑĥÑİÑī":5946,"ĠÐĴÐ°ÑĪ":5947,"ĠÐķÐ²ÑĢÐ¾Ð¿Ñĭ":5948,"Ð¸Ð±Ð»Ð¸Ð¾ÑĤ":5949,"ĠÐ½Ð°Ð¿Ð¾Ð¼Ð½":5950,"ĠÐºÐ¾Ð¼Ð¼ÐµÐ½ÑĤ":5951,"ĠÐ²Ð¾ÑģÑĮ":5952,"ĠÐ¾Ð±ÑĬÐµÐºÑĤ":5953,"ĠÑģÑĥÐ¿ÑĢÑĥÐ³":5954,"ĠÐ¢Ð°ÐºÐ¸Ð¼":5955,"ĠÐ¿Ð»Ð°ÑĤÑĮÐµ":5956,"ĠÐ»ÐµÐ·":5957,"ĠÐ·Ð°Ð¼ÐµÑĢ":5958,"ĠÐ²Ð¿ÐµÑĩÐ°ÑĤÐ»ÐµÐ½Ð¸Ðµ":5959,"ĠÐ²ÑĭÑģÑĤÑĢÐµÐ»":5960,"ÑģÐºÐ¾ÑĢÐ±":5961,"ÑĩÐ¾Ð½":5962,"Ð²Ð¾Ðº":5963,"Ð¶Ð°Ð»":5964,"ĠÐ²ÑģÑıÐºÐ¸Ð¹":5965,"ÑģÑİ":5966,"ĠÐĲÐ»ÐµÐºÑģÐµÐ¹":5967,"Ð¸Ð²Ð¸Ð»":5968,"ÐµÐ»ÑĮÐµ":5969,"ĠÐ¿ÑĢÐ¸Ð½ÑĨ":5970,"ĠÐ½ÐµÐ¿Ð¾ÑģÑĢÐµÐ´":5971,"ĠÐ¿ÑĥÐ½ÐºÑĤ":5972,"ĠÐ®ÑĢ":5973,"ĠÐ¿ÑĢÐ¾Ð¸Ð³":5974,"ĠÑĢÐµÐ¶Ð¸Ð¼":5975,"ĠÐ¿ÑĢÐ¾Ð²ÐµÑģÑĤÐ¸":5976,"ĠÐ±ÑĥÐºÐ²Ð°Ð»ÑĮÐ½Ð¾":5977,"ĠÐ·Ð½Ð°Ðº":5978,"ĠÑĢÐµÐ´Ð°Ðº":5979,"Ð¿Ð°ÑĤ":5980,"ĠÐ¿Ð¾ÑĪÐ»Ð°":5981,"ĠÐ´Ð¾Ð¼Ð°ÑĪ":5982,"ĠÐ±ÐµÐ·Ð´":5983,"Ð°Ð½ÐºÐ°":5984,"iv":5985,"ĠÐĿÐ°Ð¿ÑĢÐ¸Ð¼ÐµÑĢ":5986,"Ð¾Ð¶Ð¸Ð»":5987,"ĠÐ½Ð¾Ð²ÑĥÑİ":5988,"Ð¸ÑĤÐµÐ»ÑıÐ¼":5989,"ĠÑģÐµÐºÑĥÐ½Ð´Ñĥ":5990,"Ð°Ð½Ð¸ÑıÑħ":5991,"ĠÐ±Ð°Ð½Ð´":5992,"ĠÐºÐ¸Ñģ":5993,"ĠÐ»Ð¸ÑĤÐµÑĢÐ°ÑĤÑĥÑĢ":5994,"ÑĭÐ²Ð°Ð»ÑģÑı":5995,"Ð¾ÑĤÐº":5996,"ĠÑĥÑģÐ»Ð¾Ð²Ð¸Ñı":5997,"ĠÐ²ÐµÐ´Ð¾Ð¼":5998,"ĠÐ¾Ð¿ÐµÑĢÐ°ÑĨÐ¸Ð¸":5999,"ĠÐŀÑģÐ¾Ð±":6000,"ĠÐ·Ð°ÑģÐ»ÑĥÐ¶":6001,"Ð¾ÐºÑģ":6002,"Ð°ÑĢÐ¸Ð¹":6003,"ĠÐŁÐ¾ÑģÑĤ":6004,"Ð¸ÑĢÐ¾Ð²Ð°Ð½Ð¸Ðµ":6005,"ÐĴÐ¾":6006,"ÐµÑĢÑģ":6007,"Ð¾Ð»ÐµÐ½":6008,"ĠÑģÐºÐ¾Ð»ÑĮÐ·":6009,"ĠÐ¼Ð°ÐºÑģÐ¸Ð¼":6010,"Ð°Ð½Ð¸ÑıÐ¼Ð¸":6011,"ĠÐ²Ð·ÑıÐ»Ð°":6012,"Ð°ÑĢÐ¸Ð¸":6013,"ÑĤÐµÐ½Ð°Ð½ÑĤ":6014,"ĠÐ»ÑİÐ±Ð¸ÑĤ":6015,"ĠÐºÐ°Ð´":6016,"ĠÑģÐ»Ð¾Ð¼":6017,"ĠÐ¾ÑĤÑĩÐµÑĤ":6018,"ĠÐ¼Ð°Ð»ÐµÐ½ÑĮÐºÐ¸Ð¹":6019,"ÑĨÐ¸ÑĦ":6020,"ĠÐ¼Ð¸Ð»Ð»Ð¸Ð¾Ð½Ð¾Ð²":6021,"Ð½Ð°Ð¼":6022,"ĠÑĤÐ°ÑĢ":6023,"ĠÐ¾ÑĤÐ½Ð¾ÑģÐ¸ÑĤÐµÐ»ÑĮÐ½Ð¾":6024,"ĠÐ²Ð¾Ð·ÑĮ":6025,"ĠÐºÐ¾ÑĢÐ¾Ð»ÑĮ":6026,"ĠÑĢÐ°Ð¹Ð¾Ð½Ð°":6027,"ÑĭÐ²Ð°ÑıÑģÑĮ":6028,"ĠÐ·Ð°ÐºÑĢÑĭÐ²":6029,"ĠÑģÑĤÐ°ÑĢÑĭÐ¹":6030,"ĠÐ·Ð°ÐºÑĢÐ¸Ñĩ":6031,"Ð¸Ð¾Ð½Ð°":6032,"ĠÑıÐº":6033,"ÂłÐ¿ÑĢ":6034,"ĠÐ²ÐµÐ½":6035,"ĠÐºÐ¸Ð²Ð½ÑĥÐ»Ð°":6036,"22":6037,"ĠÐºÐ¾Ð»ÐµÐ½Ð¸":6038,"com":6039,"ĠÐ·Ð½Ð°Ð¼ÐµÐ½Ð¸ÑĤ":6040,"Ð½Ð¸Ñģ":6041,"Ð¸Ð²ÐµÑĤ":6042,"Ð¸Ð±Ð¸ÑĢ":6043,"ĠÐ¾ÑĤÐ¾Ð·Ð²":6044,"ĠÑĢÐ°Ð¼ÐºÐ°Ñħ":6045,"ĠÐºÐ¾ÑĢÐ¼":6046,"ĠÑģÐ°Ð¿":6047,"Ð½Ð¸ÑĨÐ¸":6048,"Ð¾Ð³ÑĢÐ°Ð¼":6049,"ĠÐ¿Ð¾Ð½Ð°Ð´Ð¾Ð±":6050,"ĠÐ´ÐµÐ»Ð°Ð»":6051,"ÐµÐ²ÐµÐ»":6052,"ÑĪÑĤÐ°Ð±":6053,"ĠÐ¿Ð¾ÐºÐ¾Ð¹":6054,"ĠÐ¿Ð°Ñħ":6055,"Ð°ÑĤÑĭÐ¹":6056,"ĠÐºÐ°Ð½Ð´Ð¸Ð´":6057,"ĠÑįÑĦÑĦÐµÐºÑĤÐ¸Ð²":6058,"ÑĳÐ·":6059,"Ð¸Ð²Ð°ÐµÐ¼":6060,"ĠÑĥÐ¿Ð°Ð»":6061,"Ð¸ÑīÐ°":6062,"ĠÐ²ÑĬ":6063,"Ġ29":6064,"ĠÐ»ÑİÐ±Ð¸Ð»":6065,"ÂłÐľÐ½Ðµ":6066,"ĠÐ·Ð°ÑĤÐ¾":6067,"ĠÐĹÐ½Ð°":6068,"ĠÑģÐ°Ð¼Ð¾ÑģÑĤÐ¾ÑıÑĤÐµÐ»ÑĮ":6069,"ĠÐ¼Ð»ÑĢÐ´":6070,"ĠÑģÐ¾Ð³Ð»Ð°ÑģÐ½Ð¾":6071,"ĠÐºÐ¾ÑĢÑĢ":6072,"ĠÐ²Ð°ÑĪÐµÐ³Ð¾":6073,"ĠÐ¿Ð¾Ð¿ÑĢÐ¾ÑģÐ¸Ð»":6074,"ĠÐ²Ð¾Ð·Ð±ÑĥÐ¶Ð´":6075,"ĠÑĤÑĢÐ°Ð½ÑģÐ¿Ð¾ÑĢÑĤ":6076,"ĠÑģÑĤÐ°ÑĢÐ¸Ðº":6077,"ÐµÐ²Ð¾":6078,"ĠÐ¾ÑĤÐºÐ°Ð·ÑĭÐ²":6079,"Ð½Ð¾Ð³Ð¸Ðµ":6080,"ĠÐ³Ð¾Ð»Ð¾ÑģÐ°":6081,"ĠÐľÐ¾ÑģÐºÐ¾Ð²":6082,"Ð¼Ð¸Ð³":6083,"ĠÐ»ÐµÐ¶Ð°Ð»":6084,"Ð¾ÑĢÑĥÑģ":6085,"ĠÑģÐ¸Ñı":6086,"ĠÐ¼Ð°Ð»ÑĮÑĩÐ¸ÑĪ":6087,"ĠÐĿÐ¸ÐºÐ¾Ð»Ð°Ð¹":6088,"ĠÐ¢ÐµÐ±Ðµ":6089,"ĠÐļÐ°Ð»":6090,"ÑģÑĤÑĢÐµÐ±":6091,"Ð¸Ð¿Ð»Ð¾Ð¼":6092,"ĠÑĤÑĢÐ¾Ð¿":6093,"ĠÑģÑĢÐµÐ´ÑģÑĤÐ²Ð°":6094,"ĠÐ¾ÑĤÐ¾ÑĢ":6095,"ĠÐ¼Ð½ÐµÐ½Ð¸Ðµ":6096,"ÐµÑħÐ°Ð»Ð¸":6097,");":6098,"ÑģÐ¿ÐµÐºÑĤÐ¸Ð²":6099,"ĠÐºÐ¾ÑĢÐ¾Ð±":6100,"ÑĢÐ°ÑĤÐµÐ³":6101,"ĠÐ·ÑĥÐ±Ñĭ":6102,"ÐłÐ°Ð·":6103,"ÑıÐ½ÑĥÐ»Ð°":6104,"ĠÑĥÑģÑĤÑĢÐ°":6105,"Â»?":6106,"Ð¾ÐºÐ¾Ð²":6107,"ĠÐ²Ð¾ÑģÐ¿Ð¾Ð»ÑĮÐ·":6108,"ĠÐĶÐ°Ð½":6109,"ĠÑĢÐ°ÑģÑģÐ¼Ðµ":6110,"Ð¸Ð²Ð°Ð»Ð°ÑģÑĮ":6111,"ĠÐ¿ÑĢÐ°Ð²Ð¸Ð»":6112,"ĠÐĿÐ¸ÐºÑĤÐ¾":6113,"ĠÐ¾ÑĤÑģÑĤÐ°Ð²":6114,"ĠÑģÐ°Ð¼Ð°Ñı":6115,"ĠÐ¼Ð½Ð¾Ð³Ð¾ÑĩÐ¸Ñģ":6116,"ÐµÐ½ÑĮÐºÐ°":6117,"ĠÑĥÐ¼Ðµ":6118,"ĠU":6119,"ĠÐ¾Ð±ÑĬÑıÑģÐ½Ð¸ÑĤÑĮ":6120,"ĠÑģÑĤÐ°Ð´":6121,"Ð»Ð¸ÑĩÐµÑģÐº":6122,"ĠÐ¿ÐµÑĢÐµÐ´Ð°Ñĩ":6123,"ĠÐ¾Ð·Ð½Ð°ÑĩÐ°ÐµÑĤ":6124,"ĠÐ¾ÐºÐµ":6125,"ĠÐ¿Ð¾ÑĢÑıÐ´Ð¾Ðº":6126,"ĠÐ°Ð¼":6127,"ĠÑĤÐ²Ð¾ÐµÐ¹":6128,"ÐµÐ»ÑĮÐ½Ð¾":6129,"Ð³Ð¸Ð¾Ð·":6130,"ĠÐ¾ÑĤÐ¾":6131,"ĠÐ¿ÐµÑĢÐµÑĩ":6132,"ĠÐ¢Ð¾ÑĢ":6133,"Ð¾ÑħÐ¾Ð¶Ðµ":6134,"ĠÐ´ÑĭÑħÐ°Ð½Ð¸Ðµ":6135,".-":6136,"ĠÐ¢ÐµÑĢ":6137,"ĠÐ¿Ð¾ÐºÐ°Ð·Ð°Ð»":6138,"ĠÐ¾Ð±Ð¸ÑĤ":6139,"ĠÑĥÐ»ÑĭÐ±ÐºÐ¾Ð¹":6140,"ÑĥÑģÐ»Ð¾Ð²":6141,"ÑĥÑİÑīÐ¸Ñħ":6142,"ĠÑĤÐ°ÐºÐ¸Ð¼Ð¸":6143,"ĠÐ¿ÐµÑĢÐµÐ´Ð°ÐµÑĤ":6144,"ĠÐ¿Ð°Ð¼ÑıÑĤÑĮ":6145,"ĠÐ´Ð¾ÑģÑĤÐ¾Ð¹":6146,"ĠÐĲÐ¼":6147,"Ð°ÑģÑĮ":6148,"Ð¾Ð³Ð»Ð°ÑģÐ½Ð¾":6149,"Ð¶Ñĥ":6150,"ĠÑĢÐ°Ð·Ð»Ð¸ÑĩÐ½ÑĭÑħ":6151,"ĠÑĤÑĥÐ¿":6152,"Âł-":6153,"Ð³ÐµÑĢ":6154,"ĠÐļÐ°Ð½":6155,"ĠÐ²ÑĤÐ¾ÑĢÐ¾Ð³Ð¾":6156,"ĠÐ¼Ð°ÑĪÐ¸Ð½Ð°":6157,"ÑģÐ»ÑĥÑĪ":6158,"ĠÐ¿Ð¾Ð´Ð´":6159,"ĠÐ¿Ð¾Ð¿ÑĥÐ»ÑıÑĢ":6160,"Ð¼Ð¾Ð¼":6161,"ÂłÂłÂł":6162,"ĠÐ¸Ð½Ð²ÐµÑģÑĤ":6163,"ĠÑĥÑĢÐ¾Ð²Ð½Ñı":6164,"ĠÐ¿ÑĢÐ¾Ð²ÐµÐ»":6165,"Ð¾Ð½Ð°Ñĩ":6166,"ĠÐ¸Ð»":6167,"ĠÐ½Ð°Ð±Ð»Ñİ":6168,"Ð°ÑģÐ¿":6169,"ĠÐºÑĢÐµÐ´":6170,"ĠÐĶÐ°ÑĢ":6171,"Ð»ÑĮÑĦ":6172,"Â°":6173,"ĠÐ¼ÑĥÐ´ÑĢ":6174,"ĠÑģÑĤÐ¾Ð¹":6175,"ÐµÑģÐ¿ÑĥÐ±Ð»Ð¸ÐºÐ¸":6176,"ĠÑĢÐ°Ð·Ð¾Ð±ÑĢ":6177,"Ð¸ÑĤÐµÐ»ÑĮÐ½ÑĥÑİ":6178,"ĠÐ¼Ð¾Ð»Ð¸ÑĤ":6179,"ĠÑĦÐ»":6180,"ĠÑģÐ¿Ð¸Ñģ":6181,"ĠÐºÐ¸ÑĤÐ°Ð¹":6182,"ĠÐļÐ°Ð¿":6183,"ĠÑĪÑĤÑĥÑĢ":6184,"ĠÑģÐ¾Ð±Ð¸ÑĢÐ°Ð»ÑģÑı":6185,"ÐµÑģÐºÐ¾Ð»ÑĮÐºÐ¾":6186,"ĠÐ¿ÑĢÐ¾Ð³Ð¾Ð²Ð¾ÑĢÐ¸Ð»":6187,"ĠÑħÐ²Ð°ÑĤÐ¸ÑĤ":6188,"ĠÐ½ÐµÑĥÐ´Ð°":6189,"ĠÐ¿ÑĢÐ¸ÐºÐ°Ð·Ð°Ð»":6190,"].":6191,"ĠÐ½Ð¾Ð²Ð¾Ðµ":6192,"ÐĿÐĺ":6193,"ĠÐ·Ð°Ð²ÐµÑĢ":6194,"ĠÐ±ÑĢÐ¸Ð³":6195,"ĠÑıÐ·ÑĭÐºÐµ":6196,"ĠÐ²Ð¾ÑģÐ¿Ð¸ÑĤ":6197,"ĠÐ¿Ð»Ð°Ðº":6198,"ĠÐĽÐµÐ²":6199,"ĠÐ²Ð¾ÐµÐ½Ð½ÑĭÑħ":6200,"ĠÐ½Ð°ÑĩÐ¸Ð½Ð°ÐµÑĤ":6201,"ĠXV":6202,"ĠÐ¾ÑĤÑĢÑı":6203,"Ð¾Ð»Ð²":6204,"ĠThe":6205,"ĠÐ°Ð³ÑĢ":6206,"ĠÐ¼ÐµÑģÑĤÐ°Ñħ":6207,"ÐµÐ¶Ð°Ð»Ð°":6208,"ÐĿÐµÑĤ":6209,"ĠÐ¾Ð±ÑģÑĤÐ°Ð½Ð¾Ð²":6210,"ĠÐ¿Ð¾ÐºÐ°ÑĩÐ°Ð»":6211,"ĠÐ¿Ð¾Ð²ÐµÐ»":6212,"Ð»ÑıÐµÐ¼":6213,"ÑĭÐ²Ð°Ñİ":6214,"ĠÐ¾ÑĤÐ»Ð¸ÑĩÐ¸Ðµ":6215,"ĠÑģÐ¼ÑĥÑĤ":6216,"ĠÑģÐ¼ÑĥÑī":6217,"ĠÐļÑģÑĤÐ°ÑĤÐ¸":6218,"ĠÐ¼Ð°ÑĤÑĩ":6219,"ĠÐĿÐµÐ²":6220,"ĠÑģÐºÐ°Ð¶Ñĥ":6221,"ĠÑģÐ¾Ð¶Ð°Ð»ÐµÐ½Ð¸Ñİ":6222,"ĠÐ·Ð°Ð³Ð°Ð´":6223,"ĠÑĤÑĢÐ¸Ð´ÑĨÐ°ÑĤÑĮ":6224,"ĠÐ¿ÑĢÐ¾Ð·Ð²":6225,"Ð»ÑıÐ»Ð°":6226,"ÑĢÐ°Ð»Ð¸":6227,"ĠÐ¸Ð½ÑģÑĤÑĢÑĥ":6228,"ĠÐºÑĢÐµÐ¿ÐºÐ¾":6229,"ĠÐ±ÑİÐ´Ð¶":6230,"ĠÑħÑĢ":6231,"ĠÑĤÑĢÐµÑĤÐ¸Ð¹":6232,"ĠÑģÐµÑĢÐ´ÑĨÐ°":6233,"ĠÐ·Ð»Ð¾":6234,"Ð°ÐºÐµ":6235,"III":6236,"ĠÐ²ÑĭÑĢÐ¾Ñģ":6237,"ĠÐ½ÐµÑĥÐ´":6238,"ĠÐ¿ÑĢÐµÐ´ÑĥÑģ":6239,"ĠÑĩÐ°ÑĪ":6240,"ĠÐºÑģÑĤÐ°ÑĤÐ¸":6241,"ĠÐ·Ð°ÑĢÐ°Ð±Ð¾ÑĤ":6242,"ĠÐŀÐ½Ð¾":6243,"Ð½Ð¾ÑģÑĤÑıÐ¼Ð¸":6244,"ĠÑģÐµÐ¹":6245,"ĠÑĢÐ°Ð½ÐµÐ½":6246,"ĠÐ½ÐµÐ½Ð°Ð²Ð¸ÑģÑĤ":6247,"ÐµÐ¼Ð°ÑĤ":6248,"ÐŁÐ¾Ð»":6249,"Ð»Ð°Ñħ":6250,"ĠÐ½Ð°Ð¾Ð±Ð¾ÑĢÐ¾ÑĤ":6251,"ĠÐļÐ¾Ð½ÑģÑĤÐ°Ð½ÑĤ":6252,"ĠÐ¾Ð¿ÑĢÐµÐ´ÐµÐ»Ñı":6253,"ĠÐ¿ÑĢÐµÐ¸Ð¼":6254,"ia":6255,"ĠÐ¾Ð±Ð»Ð°ÑģÑĤ":6256,"ĠÐ¿Ð¾Ð´Ð²ÐµÑĢÐ³":6257,"ĠÐ¶Ð¸Ð²ÐµÑĤ":6258,"Ð°Ð»ÑĮÐ½Ð¾ÑģÑĤÑĮ":6259,"ĠÐ±Ð¾Ð»ÑĮÑĪÐ¾Ðµ":6260,"ĠK":6261,"ÂłÐ·":6262,"ĠÐ¾ÑĢÐ³":6263,"ĠÐ½Ð°Ð¿ÑĢÐ°Ð²Ð»ÐµÐ½Ð¸Ð¸":6264,"ĠÑĢÐ°Ð½Ð¾":6265,"ĠÑģÑĩÐ¸ÑĤÐ°Ð»":6266,"ĠÐ²Ð·Ð³Ð»ÑıÐ½ÑĥÐ»":6267,"ĠÐ»Ð¾Ð±":6268,"ĠÐ¿Ð¾Ð»ÐµÑĤ":6269,"Ð¸Ð¼ÑĭÐ¹":6270,"ĠÐļÐ¾":6271,"ĠÐ¿ÑĢÐ¾Ð¹ÑĤÐ¸":6272,"ĠÑģÐµÑĢÑĮÐµÐ·Ð½Ð¾":6273,"ĠÑĢÐµÑĩÐ¸":6274,"ĠÐ¿Ð¾Ð»Ð¾Ð¶Ð¸Ð»":6275,"ĠÑĤÐ²Ð¾Ð¸":6276,"ĠÑĤÐµÐ½Ð¸":6277,"ĠÐ¿ÑĢÐ¸Ð²ÑıÐ·":6278,"ĠÐ¾ÑģÑĤÐ°Ð½Ð°Ð²Ð»Ð¸Ð²":6279,"ĠÑħÐ¾ÑĤÑıÑĤ":6280,"ĠÐ¶ÐµÐ»ÑĤ":6281,"ĠÐ¿ÑĢÐ¸Ð³Ð»Ð°Ñģ":6282,"ĠÐ²Ð¾ÑģÐºÐ»Ð¸ÐºÐ½ÑĥÐ»":6283,"ĠÐ¿ÑĢÐµÐ´ÑĥÐ¿ÑĢÐµÐ´":6284,"ĠÐ¿Ð¾ÑįÑĤ":6285,"st":6286,"Ð»ÑıÑİÑĤÑģÑı":6287,"ĠÐļÐ¸ÑĤ":6288,"ÑģÑĤÑĢÐµÑĩÑĥ":6289,"ĠÑģÐ¸ÑģÑĤÐµÐ¼Ð°":6290,"ĠÐ³Ð¸Ð³":6291,"ÐµÑĢÐ±ÑĥÑĢÐ³":6292,"ĠÑģÐ¸Ð³Ð°ÑĢ":6293,"ĠÐ±ÐµÑģÐ¿Ð¾ÐºÐ¾":6294,"ÑģÑĤÐ²ÑĥÑİÑĤ":6295,"ĠÐ¿ÑĢÐ¸Ð²ÐµÐ´":6296,"ĠÑĤÐµÑħÐ½Ð¸ÑĩÐµÑģÐº":6297,"ÐµÐ½ÑĮÑĪ":6298,"ĠÐºÐ½Ð¸Ð³Ñĥ":6299,"ĠÐĳÑĭÐ»Ð¾":6300,"Ð¿Ð¾Ð·":6301,"ĠÐ»Ð¸Ðº":6302,"Ð°ÑħÐ°ÑĢ":6303,"ĠÐ¡Ð»Ð¾Ð²":6304,"ĠÐĽÑĥÑĩ":6305,"ĠÐ±Ð»Ð¸Ð·ÐºÐ¾":6306,"ĠÐ´Ð¾ÑģÑĤÐ¾Ð¸Ð½":6307,"ĠÑģÑĤÑĢÐ°ÑħÐ°":6308,"Ð»ÐµÑĩÑĮ":6309,"ĠÐ´ÑĥÐ¼Ð°ÐµÑĪÑĮ":6310,"ĠÐ»Ð¾ÑĪÐ°Ð´":6311,"ĠÐ¶Ð´Ð°Ð»":6312,"Ð¼Ð¾ÑĤÑĢÐ¸":6313,"ĠÐ³ÐµÑĢÑĨ":6314,"ĠÐ¾ÑģÑĤÐ°Ð²Ð¸ÑĤÑĮ":6315,"ĠÐ¾ÑĩÐµÑĢÐµÐ´Ð½Ð¾Ð¹":6316,"ĠÐĿÐ°Ð²ÐµÑĢÐ½Ð¾Ðµ":6317,"ĠÐ²Ð¾Ð·Ð´ÑĥÑĪ":6318,"Ð½Ð¾Ñİ":6319,"ĠÑĢÐ¾Ð¶":6320,"ĠÑĥÐ»Ð¸ÑĨÑĥ":6321,"ĠÐ¿Ð¾Ð²ÐµÐ·":6322,"Ð¸ÑĤÐµÐ»ÑĮÐ½Ð¾ÑģÑĤÑĮ":6323,"ĠÐ¢Ð°":6324,"ĠÐ¾ÑĤÐ¿ÑĢÐ°Ð²Ð¸Ð»ÑģÑı":6325,"ÐµÐ²Ð½Ð°":6326,"ĠÐ¿ÑĢÐ¾ÑĤÐµÑģÑĤ":6327,"ĠÑĤÐµÐ°ÑĤ":6328,"ĠÐºÐ½ÑıÐ·ÑĮ":6329,"ĠÑĢÐµÐ±ÐµÐ½Ð¾Ðº":6330,"Ð»Ð¾ÑħÐ¾":6331,"ĠÐ¨Ð°ÑĢ":6332,"Ð¾ÑĢÑī":6333,"Ð´Ð°ÑİÑī":6334,"ĠÑģÐºÑĥÑĩ":6335,"Ð»ÐµÐ½Ð½Ð¾Ð³Ð¾":6336,"ĠÐ¾ÑģÑĤÐ°Ð²Ð¸Ð»":6337,"ĠÐºÑĢÐ°Ð¹Ð½Ðµ":6338,"ĠÐļÐ¾ÑģÑĤ":6339,"Ġg":6340,"ĠÐ¿Ð¾Ð´ÑĥÐ¼Ð°ÑĤÑĮ":6341,"Ð¾ÑģÐ»Ð°Ð²":6342,"ÑĥÐ³Ð°":6343,"ĠÐ´Ð°Ð½Ð½ÑĭÐµ":6344,"ĠÐ¼Ð¾Ð¼ÐµÐ½ÑĤÐ°":6345,"Ð°Ð»Ð¸Ð·Ð°ÑĨÐ¸Ð¸":6346,"ĠÐ¾ÑĩÐµÐ²Ð¸Ð´Ð½Ð¾":6347,"ĠÑĢÐµÑģÑĤÐ¾ÑĢ":6348,"ĠÐ¿ÑĢÐ¸Ð¼ÐµÑĢ":6349,"ĠÑģÐ¾ÑĢÐ¾Ðº":6350,"ow":6351,"ĠÐĶÑį":6352,"Ð³Ð¸Ð¿":6353,"ĠÐ·Ð°Ð±ÑĭÐ»":6354,"ĠÑįÐºÑģÐ¿ÐµÑĢÐ¸Ð¼":6355,"ĠÑģÐ½Ð°ÑĢ":6356,"Ð¾ÑĢÑıÐ´":6357,"Ð½Ð¸Ð¼Ð¸":6358,"ĠÑĤÐµÐ¼Ð¿ÐµÑĢ":6359,"ĠÐ³Ð¾Ð´Ð°Ñħ":6360,"Ð¾Ð²Ð°Ð½Ð¸Ñİ":6361,"ĠÐ¼Ð¸ÑģÑģÐ¸Ñģ":6362,"ĠÐ¿Ð»Ð¾ÑīÐ°Ð´Ð¸":6363,"ĠÑģÑĤÐ°ÑĢÐ°ÑıÑģÑĮ":6364,"ĠÐ¿ÑĢÐ°Ð²Ð¸Ð»Ð¾":6365,"Ð»ÐµÐ½Ð½ÑĭÐ¼":6366,"Ð¸ÑĤÐ¸":6367,"23":6368,"ĠÑģÐ¼ÐµÐ½":6369,"ĠÐ´ÐµÐ»Ð¾Ð¼":6370,"Ð¢Ñĭ":6371,"ĠÐ¿Ð¾Ð¼ÐµÑĪ":6372,"ĠÑĥÑĢÐ¾Ð²ÐµÐ½ÑĮ":6373,"ÐľÐ°ÑĢ":6374,"Ð½Ð°ÑĤÑĮ":6375,"ĠÐºÑĢÐ¸ÐºÐ½ÑĥÐ»":6376,"ÑĢÑĭÐ»":6377,"ÐµÑģÐ»Ð¸":6378,"ĠÐŁÐ¾Ðº":6379,"Ð¸Ð½ÑĥÑĤÑĮ":6380,"40":6381,"ĠÐ·Ð°Ð³Ð»Ñı":6382,"ĠÐ¾ÑģÑĤÐ°ÑĤÑĮÑģÑı":6383,"ĠÐĿÐµÐºÐ¾ÑĤÐ¾ÑĢ":6384,"ĠÐ³Ð¾ÑĤÐ¾Ð²Ñĭ":6385,"ĠÐ¾ÑĤÐ½Ð¾ÑĪÐµÐ½Ð¸Ðµ":6386,"ĠÐ´Ð¸Ð¿Ð»Ð¾Ð¼":6387,"ĠÑĢÐ°ÑģÐ¿Ð°Ñħ":6388,"ĠÑģÐµÐ»Ð°":6389,"ĠÐ¿Ð¾Ð¿Ð°Ð»":6390,"Ð°ÑĤÐ°ÑĢ":6391,"ĠÐ¿ÑĢÐ¾ÑĤÑıÐ¶":6392,"Ð¾Ð²Ð¾Ð¼":6393,"ĠÐºÐ¾Ð»Ð¾Ð½":6394,"ag":6395,"Ð¾ÑĩÐ½ÑĭÐ¹":6396,"ĠÐ½ÐµÐ²Ð¸Ð´":6397,"ĠÐ¿Ð¾ÑıÐ²Ð¸Ð»Ð¸ÑģÑĮ":6398,"ĠÐ¸Ð½Ð¸ÑĨÐ¸":6399,"ĠÐĲÐ»ÐµÐºÑģÐ°Ð½Ð´ÑĢÐ°":6400,"ÑĥÐ½Ð°":6401,"ÐºÐ¾ÑĤ":6402,"ĠÐ¿Ð¾Ð»Ð¾Ñģ":6403,"ĠÐ¿Ð¾Ð´ÐµÐ»":6404,"Ð°ÑĤÐ¾Ñĩ":6405,"ĠÐ´Ð°Ð»ÐµÐµ":6406,"ĠÐľÐ¾Ð½":6407,"ĠÑĦÐµÐ´":6408,"ÑģÐ¾ÑĤ":6409,"ÑĮÐµÑĤ":6410,"ĠÐ¿ÑĢÐ¾ÑĤÐ¸Ð²Ð¾Ð¿Ð¾Ð»Ð¾Ð¶":6411,"ĠÐ½ÐµÐ±ÐµÑģ":6412,"ĠÐ²Ð¾Ð¹Ð½Ðµ":6413,"ÐµÐ²Ð°Ð»":6414,"ĠÐ·Ð°Ð¼ÐµÑģÑĤ":6415,"ĠÐ¡Ð²ÑıÑĤ":6416,"ÑģÐºÐ¾ÑĢÐµ":6417,"ĠÐ¼Ð¾ÐµÐ¼":6418,"ÐµÐºÑĤÐ¾ÑĢÐ°":6419,"ĠÐ²Ð·ÑıÑĤ":6420,"ÐµÐ²Ð¸Ð·":6421,"ĠÐ°Ð²ÑĤÐ¾Ð±":6422,"ĠÐ½Ð°ÑĩÐ°ÑĤÑĮ":6423,"ĠÐ²Ð¾Ð·Ð´ÐµÐ¹ÑģÑĤÐ²":6424,"ĠÐ¸Ð¼ÐµÑİ":6425,"Ð¸ÑĤÐ¾Ð¼":6426,"ĠÐ¸Ð¼ÐµÐ»Ð¸":6427,"Ð½Ð¾Ð·":6428,"ĠÑĢÐ°ÑģÑģÐºÐ°Ð·Ð°ÑĤÑĮ":6429,"ĠÐĹÐ°Ð¿Ð°Ð´":6430,"ĠÑģÑĤÑĢÑĥ":6431,"Ġde":6432,"ĠÑĪÐ¸ÑĢÐ¾ÐºÐ¾":6433,"Ð°Ð»ÑĮÑıÐ½":6434,"Ð²ÑĭÑĩ":6435,"ĠÐ³Ð¾ÑĢÑĭ":6436,"ĠÑģÐ½Ð¸Ð¶":6437,"ĠÐ³ÐµÐ½":6438,"ĠÐ¾Ð±ÑĢÐ°ÑĤÐ¸Ð»ÑģÑı":6439,"ÑıÑĢ":6440,"ĠÑģÐ¾ÑģÑĤÐ°Ð²Ð»ÑıÐµÑĤ":6441,"ĠÐľÐ¸Ð»":6442,"ĠÐ³Ð»Ð°Ð²Ðµ":6443,"ÐµÐ½Ð¸ÑĢÐ¾Ð²":6444,"ĠÐ°ÐºÐ°Ð´ÐµÐ¼":6445,"Ð¸ÑĩÐ½ÑĭÐ¹":6446,"ĠÑģÐ»ÐµÐ´Ð¾Ð²Ð°Ð»Ð¾":6447,"ĠÑĢÐ¾Ñģ":6448,"Ð¼ÑĥÑī":6449,"ÑĢÐ°Ð»Ð°":6450,"ĠÐ±ÑĥÐ¼Ð°Ð³Ð¸":6451,"ay":6452,"ÑĨÐµÐ»Ð¾Ð²":6453,"ĠÐ¡Ð¸Ð½":6454,"ĠÐ³Ð»Ð°Ð²Ð½ÑĭÐ¹":6455,"ĠÐ¾Ð±Ð¼":6456,"ĠÐ±ÑĥÐ´ÐµÑĤÐµ":6457,"ĠÑģÑĤÑĢÐ°ÑĤÐµÐ³":6458,"ĠÐ³Ð»ÑĥÑħ":6459,"ĠÐµÑİ":6460,"ĠÐĺÑģ":6461,"ĠÐĿÐĲ":6462,"ĠÐ»ÐµÑģÑĤÐ½Ð¸ÑĨÐµ":6463,"ĠÐ±Ð¸Ð±Ð»Ð¸Ð¾ÑĤ":6464,"ĠÐ½Ð¾Ð³Ñĥ":6465,"ĠÐ¸ÑĤÐ¾Ð³Ðµ":6466,"ÑĥÐ¶Ð½Ð¾":6467,"ĠÐ¤ÑĢ":6468,"ĠÐĴÑĭÑģ":6469,"ĠÑģÐ»ÐµÐ·Ñĭ":6470,"ĠÑģÐ¿Ð°Ð»ÑĮ":6471,"Ð½Ð°Ð·Ð½Ð°Ñĩ":6472,"ÐºÐ°ÑĤÐµÑĢ":6473,"ÂłÐ±":6474,"ĠÐ¿ÑĢÐµÐ¼ÑĮ":6475,"ĠÐ¾ÑĤÐ²ÐµÑĤÐ°":6476,"ĠÐ·Ð°Ð¼ÑĥÐ¶":6477,"ĠÐ·Ð´ÑĢÐ°Ð²":6478,"Ð½ÐµÐ¿":6479,"ĠÑĢÐ°ÑģÑģÐ»":6480,"ĠÐ´Ð°Ð»Ð¸":6481,"ĠÐ½Ð°ÑĪÐµÐ¼":6482,"ĠÐ´Ð½ÐµÐ¼":6483,"Ð²Ð°Ð»Ð¸":6484,"ĠÐ²Ð°ÑĪÐ°":6485,"ĠÐ²Ð·Ð´ÑĢ":6486,"ĠÐ²Ð°ÑĢÐ¸Ð°Ð½ÑĤ":6487,"ÑĥÐ´Ð¸":6488,"ĠÐ¾ÑģÐº":6489,"ĠÑģÑĥÑĢ":6490,"ĠÐºÑĥÐ»ÑĮÑĤÑĥÑĢ":6491,"ĠÐ·Ð½Ð°ÐµÐ¼":6492,"ĠÐĲÐ»ÐµÐºÑģÐµ":6493,"ĠÑĤÑĢÐ°Ð³":6494,"ĠÑĤÑĢÑĥÐ±ÐºÑĥ":6495,"ĠĠĠĠĠĠĠĠ":6496,"ĠÐłÐĺÐĲ":6497,"ĠÐ²Ð¾Ð¸Ð½":6498,"ĠÐ±ÑĢÐ¾Ð½":6499,"ĠÐ¿Ð¸ÑģÑĤÐ¾Ð»ÐµÑĤ":6500,"ĠÐºÑĢÐ°ÑĤ":6501,"Ð²ÑĤÐ¾ÑĢ":6502,"Ð°ÑĨ":6503,"ÐµÑģÑģÐµ":6504,"ĠÐ¿ÑĢÐµÐ²Ð¾ÑģÑħÐ¾Ð´":6505,"ĠÐ²Ð´Ð¾Ñħ":6506,"Ð°Ð¼ÐµÐ½ÑĤ":6507,"ĠÐ½ÐµÐ¾Ð±ÑħÐ¾Ð´Ð¸Ð¼Ð¾ÑģÑĤÐ¸":6508,"ĠÐ¿Ð¾ÐºÑĢÑĭÑĤ":6509,"ĠÐ½Ð°Ð¿Ð¾Ð»Ð½":6510,"ĠÐ´Ð¾ÐºÐ»Ð°Ð´":6511,"ĠÑĥÐ»Ð¸ÑĨÑĭ":6512,"Ð¾ÐºÑĥ":6513,"ĠÑģÐ²ÑıÑīÐµÐ½":6514,"Ð½ÑıÑĤÑĮ":6515,"Ð¸Ð½ÑĥÐ»Ð°":6516,"Ð¸ÑĤÐ¾":6517,"ht":6518,"ĠÑģÐµÐ¼ÑĮÐµ":6519,"ĠÐ¶ÐµÑģÑĤÐ¾Ðº":6520,"ĠÐ¼Ð°ÑģÐº":6521,"Ð°Ð¹Ð½Ð¾":6522,"ĠÐ¿ÑĢÐ°Ð²Ð¸ÑĤÐµÐ»ÑĮÑģÑĤÐ²Ð¾":6523,"Ð¸Ð²ÑĪÐ¸Ð¹ÑģÑı":6524,"ĠÑĨÐ¸ÑĦ":6525,"ĠÐ¿ÑĢÐ¸Ð¾Ð±ÑĢÐµÑĤ":6526,"ĠÑĢÑĥÐ±Ð°ÑĪ":6527,"ĠÑĢÐ¾Ð¶Ð´ÐµÐ½Ð¸Ñı":6528,"ĠÐ¾ÑħÐ²Ð°ÑĤ":6529,"ĠÐ¾ÑĤÐ²ÐµÑĤÐ¸ÑĤÑĮ":6530,"ĠÐ¿ÑĢÐµÐ´ÑģÑĤÐ°Ð²Ð¸ÑĤÐµÐ»ÑĮ":6531,"ĠÐ¶Ð´ÐµÑĤ":6532,"ĠÐłÐ¾ÑģÑģÐ¸Ñİ":6533,"ĠÑĪÐ°Ñħ":6534,"ĠÐºÑĥÐ»ÑĮÑĤÑĥÑĢÑĭ":6535,"ĠÐ¥Ð¾Ð»":6536,"ĠÑĨÐµÐ»ÑĭÐ¹":6537,"Ð¸Ð´ÐµÑģÑı":6538,"Ġv":6539,"ĠÐ·Ð¾Ð»":6540,"ÑīÐ¸ÐºÐ¸":6541,"ĠÐ²Ð¾Ð¿ÑĢÐ¾ÑģÐ¾Ð²":6542,"ĠÐºÐ°Ð¼ÐµÐ½ÑĮ":6543,"ĠÐºÐ°ÑĤÐµÐ³Ð¾ÑĢ":6544,"ĠÐĺÐ³Ð¾ÑĢÑĮ":6545,"ĠÐ¾ÑģÑĤÐ°Ð»ÑĮÐ½ÑĭÑħ":6546,"ĠÑĪÐ»Ñı":6547,"ĠÐ¿ÑĢÐµÐ´Ð»Ð¾Ð¶ÐµÐ½Ð¸Ðµ":6548,"ĠÐ¾ÑĢÑĥÐ´":6549,"ĠÐ¼ÐµÐ¶":6550,"ĠÐ¿ÐµÑĢÐ²Ð¾Ðµ":6551,"Ð¾Ð²Ñĥ":6552,"Ð°Ð²ÑĪÐµÐ¹":6553,"ĠÐľÐ¸ÑĪ":6554,"ÑĢÐ¸Ñģ":6555,"ĠÐĺÐ½Ð´":6556,"ĠÐ·Ð°Ð¿ÑĢÐµÑĤ":6557,"ĠÐ´Ð¾ÑĢÐ¾Ð³Ð¾Ð¹":6558,"ÐµÐ½ÑĮÐºÐ¾":6559,"ĠÑįÐ¿Ð¾Ñħ":6560,"ĠÐ¿ÑĢÐ¸Ð²ÐµÐ·":6561,"ĠÑĪÐºÐ¾Ð»ÑĮ":6562,"ĠÐ¼Ð¾Ð±":6563,"Ð±ÐµÐ¶":6564,"ĠÐ»ÐµÐ³ÑĩÐµ":6565,"ĠÑĩÐ°ÑģÑĤÑĮÑİ":6566,"ĠÑģÐ¾Ð±ÐµÑģÐµÐ´":6567,"ĠÑģÐ¼Ð¾ÑĤ":6568,"ĠÐ¿Ð¾Ð¹ÑĤÐ¸":6569,"ĠÐ¾ÑģÐºÐ¾ÑĢÐ±":6570,"ĠÐ²Ð¾Ð¹Ð½Ñĥ":6571,"Ð°Ð²Ð¸Ð»":6572,"ĠÐ¿ÐµÑĢÑģÐ¿ÐµÐºÑĤÐ¸Ð²":6573,"ĠÐ¾ÑģÐ½Ð¾Ð²Ðµ":6574,"ĠÐ¾Ð±Ð¾ÑĢÑĥÐ´":6575,"Ð¸Ð¼ÑĭÐ¼":6576,"ĠÐ¿ÑĢÐ¾Ð²Ð¸Ð½":6577,"ĠÐ´ÐµÑĢ":6578,"ĠÑģÑĤÐ°Ð½ÑĨÐ¸Ð¸":6579,"ĠÐ¶Ð¸Ð·Ð½ÑĮÑİ":6580,"Ð¸Ð¹ÑģÐºÐ¸Ð¹":6581,"ĠÐ¿ÑģÐ¸ÑħÐ¾Ð»Ð¾Ð³":6582,"ĠÐ²Ð½Ðµ":6583,"Ġ190":6584,"Ð°Ð»Ðº":6585,"ÑĭÐ´ÑĥÑī":6586,"ĠÐ¸Ð»Ð»Ñİ":6587,"ĠÑĢÐ°Ð·ÑĥÐ¼ÐµÐµÑĤÑģÑı":6588,"ÑĥÑİÑīÐ¸Ðµ":6589,"ÑĪÐ¸Ð½":6590,"ÑĢÑĭÐ·":6591,"Ð¾ÑĩÐºÐµ":6592,"Ð²Ð¾Ðµ":6593,"ĠÐ¿ÑĢÐ¸Ð½ÑıÐ»ÑģÑı":6594,"ÐµÐ¼Ð¾Ð½":6595,"Ð²Ð°Ñĩ":6596,"ĠÐ¸Ð½Ð´Ð¸Ð²":6597,"Ð»Ð°Ðº":6598,"ĠÐ¿ÑĢÐ°Ð²Ð´Ñĥ":6599,"Ð¸Ð½Ð³ÑĢ":6600,"ĠÐ¿ÑĢÐµÑĢÐ²":6601,"ĠÐ¾ÑĤÑĢÑĭÐ²":6602,"ĠÐŁÐ¾Ñĩ":6603,"ĠÐ³Ð»Ð¾ÑĤ":6604,"ĠÑģÑĤÐ¾Ð»Ðµ":6605,"Ð¾Ð»ÑĩÐ°Ð»":6606,"ĠÐ³ÑĢÐ°Ð¼":6607,"ĠÐ´ÑĥÐ±":6608,"Ð°ÑİÑīÐ¸Ð¼Ð¸":6609,"....":6610,"ĠÑģÐ¾Ð¿ÑĢÐ¾Ð²Ð¾Ð¶Ð´":6611,"ĠÐ¿Ð¾Ð¶ÐµÐ»":6612,"ĠÐ¿Ð°Ð»ÑĮÑĨÐ°Ð¼Ð¸":6613,"Ð°Ð½Ñı":6614,"ĠÐ¿Ð°Ð»ÑĮÑĨÐµÐ¼":6615,"Ġ%":6616,"ĠÑĢÐµÐ»Ð¸Ð³Ð¸Ð¾Ð·":6617,"ÐµÐ½Ð¾Ð¼":6618,"ĠÑģÐ²Ð°Ð»":6619,"ĠÐ´Ð¾ÑģÑĤÐ¸Ð¶":6620,"ĠÐ½Ð°Ð²ÑģÐµÐ³Ð´Ð°":6621,"ĠÑģÐºÑĢÐ¾Ð¼":6622,"ĠÑįÐ½ÐµÑĢÐ³Ð¸Ð¸":6623,"Ð°ÑĤÐµÐ»ÑĮÐ½ÑĭÑħ":6624,"ĠÐºÑĥÐ±":6625,"Ð¸ÑģÐºÐ¾Ð¿":6626,"ĠÐ¿Ð¾Ð»Ð½Ð¾":6627,"ĠÐ¿Ð°ÑĢÐ»Ð°Ð¼":6628,"200":6629,"ÑĥÐ·Ñĭ":6630,"ÐµÐ·Ð´Ñĭ":6631,"ĠÑĦÑĢÐ°Ð·":6632,"ĠÐ³Ð»Ð°Ð´":6633,"ĠÐ¿ÑĢÐ¾Ð¸Ð·Ð½ÐµÑģÐ»Ð°":6634,"ĠÑģÐ¸Ð´ÐµÐ»Ð¸":6635,"ĠÑĥÑĩÐ¸ÑĤ":6636,"ÑĢÐ°ÑĤÐ¸Ð²":6637,"ĠÐ±ÑĢÐ¸ÑĤÐ°Ð½":6638,"ĠÑĢÐµÐ´ÐºÐ¾":6639,"ĠÐ£Ñĩ":6640,"Ð°ÑĤÐµÐ»ÑĮÐ½Ð¾Ð³Ð¾":6641,"ĠÐ¡Ð¸Ð¼":6642,"ĠÐ®Ð¶":6643,"Ð°Ð½ÑĩÐ¸Ð²":6644,"ĠÐ·Ð½Ð°Ñı":6645,"Ð»Ð¾Ð´":6646,"Ð°Ð²Ð°":6647,"ĠÐ¾Ð±ÐµÐ·":6648,"ĠÐĲÐ³":6649,"ĠÐ¡Ð½Ð°ÑĩÐ°Ð»Ð°":6650,"ĠÐ»ÐµÑģÑĥ":6651,"ĠÐ»Ð°Ð´Ð½Ð¾":6652,"Ð¾Ð³Ð¾Ð²":6653,"ĠÑģÐ¾Ð»Ð½ÐµÑĩ":6654,"ĠÐ¿Ð¾Ð¾Ð±":6655,"ĠÑĩÑĥÐ´Ð¾Ð²":6656,"ĠÑģÐ¾Ð·Ð½Ð°Ð½Ð¸Ðµ":6657,"ĠÑģÐµÐ³Ð¾Ð´Ð½ÑıÑĪ":6658,"ĠÐĴÐ°ÑģÐ¸Ð»ÑĮ":6659,"ĠÐ¸Ð½Ð¶":6660,"ÑĨÐµÐ½Ð¸Ð²":6661,"ĠÑįÐºÑģÐ¿ÐµÑĢÑĤ":6662,"ĠÐ¾ÑģÐ¾Ð±Ð¾":6663,"ÑģÑĤÑĢÐ°":6664,"ĠÐºÐ¾Ð½ÑĨ":6665,"ĠÐ²Ð»ÑİÐ±":6666,"ĠÐ¿Ð¾Ð´Ð±Ð¾ÑĢ":6667,"ĠÑģÐ»ÑĥÑĩÐ°ÑıÑħ":6668,"ĠÐ¿Ð¾Ð½Ð¸Ð¼Ð°ÐµÑĪÑĮ":6669,"ĠÐľÐ°ÐºÑģ":6670,"ĠÐºÐ°Ð±Ð¸Ð½ÐµÑĤ":6671,"ĠÐ½Ð°ÑģÑĤÐ¾ÑıÑīÐ¸Ð¹":6672,"Ð¾ÑĩÐ½ÑĭÑħ":6673,"ĠÐ´Ð¾Ð¼Ñĥ":6674,"ĠÐ³Ð»Ð°Ð²Ð½ÑĭÐ¼":6675,"ec":6676,"ĠÐ²ÑĭÑĢÐ°Ð¶ÐµÐ½Ð¸Ðµ":6677,"ĠÐ¾Ð±ÑĬÐµÐ¼":6678,"ĠÐ¼Ð¾ÐµÐ¼Ñĥ":6679,"ĠÑĥÐ¿Ð¾ÑĤÑĢÐµÐ±":6680,"ĠÐ´ÐµÐ²ÑĥÑĪÐºÑĥ":6681,"ĠÑģÑĤÐ²Ð¾Ð»":6682,"ĠÑģÐ¸ÑĤÑĥÐ°ÑĨÐ¸Ñİ":6683,"ÑĮÑģÑı":6684,"ĠÐ¾ÑĤÐ¿ÑĥÑģÐº":6685,"ĠÑįÑģÐº":6686,"Ð°ÑģÑĤÑĢÐ¾ÑĦ":6687,"ĠÑįÐºÐ·":6688,"ĠÑĦÐ¸Ð³ÑĥÑĢ":6689,"ĠÑĪÐºÐ¾Ð»Ðµ":6690,"ĠÐ¾ÑĦ":6691,"ĠÐļÑį":6692,"ĠÐľÐ¸ÑħÐ°Ð¸Ð»":6693,"ĠÐ²ÑģÑıÐºÐ¾Ð¼":6694,"ĠÐ¿ÑĢÐ¸Ð¿Ð¾Ð´":6695,"ĠÐ¼Ð°ÑĪÐ¸Ð½Ðµ":6696,"Ð¸Ð»Ð¸Ð¸":6697,"ĠÑĥÐ¹":6698,"ĠÑģÐ²ÐµÑĢÑħÑĥ":6699,"ĠÐ²ÐµÑĩÐµÑĢÐ°":6700,"ĠÐ·Ð°Ð½Ð¸Ð¼Ð°ÑĤÑĮÑģÑı":6701,"ĠÑģÐ¾Ð¾Ð±ÑīÐ¸Ð»Ð¸":6702,"ĠÐ¿Ð¾Ð·Ð¸ÑĨÐ¸Ð¸":6703,"ĠÐľÐ¾ÑģÐºÐ²Ñĥ":6704,"ÐºÐ¾Ð¼Ñĥ":6705,"ĠÑģÐ½Ð¸Ð·":6706,"ĠÐ¿ÑĢÐµÐ¼":6707,"ĠÐ²Ð·Ð´Ð¾ÑħÐ½ÑĥÐ»Ð°":6708,"ĠÑģÑĤÑĢÐ¾Ð¹":6709,"ĠÐ¿Ð¾ÐºÐ°Ð·Ð°ÑĤÑĮ":6710,"ÐłÐĲ":6711,"ÑĳÐ²":6712,"ĠÑĢÐ°Ð·ÑĬ":6713,"ĠÐ¡ÑĤÐµÐ¿":6714,"ÑıÑīÐµÐ¹":6715,"Ð¸Ð¼Ð¾Ðµ":6716,"ation":6717,"ÐļÐ¾ÑĢ":6718,"Ð°Ð¼Ð±":6719,"ĠÑĤÐµÐ¼Ñĥ":6720,"ĠÐ½Ð°Ð²ÑģÑĤÑĢÐµÑĩÑĥ":6721,"ÐµÐ´Ð¶":6722,"Ð¾ÑĤÐ¾Ð¹":6723,"ÐµÑĤÑĮÑģÑı":6724,"ĠÐ¾ÑģÑĤÐ°Ð»Ð°ÑģÑĮ":6725,"ĠÐ²ÑģÐ¿ÑĭÑħ":6726,"Ð¿ÐµÑĢÐ²ÑĭÑħ":6727,"ĠÐ¿Ð»Ð°Ð¼":6728,"ĠÐ¾Ð³Ð½Ñı":6729,"--":6730,"ĠÐĵÐµ":6731,"ĠÐĳÐ¾ÑĢÐ¸Ñģ":6732,"ĠÐ»Ð¸ÑĨÑĥ":6733,"Ð¾Ð¼Ð½Ð¸Ð¼":6734,"ĠÑģÐ°Ð½Ðº":6735,"ÑĨÐ¸Ð¾Ð½Ð½Ð¾Ð¹":6736,"ĠÐ³ÑĢÑĥÑģÑĤ":6737,"Ð¾Ð³ÑĢÐ°Ð´":6738,"ĠÐ¶ÐµÐ½ÑīÐ¸Ð½Ñĥ":6739,"ĠÐ¶ÐµÐ½Ñĭ":6740,"26":6741,"ĠÑĥÐ´Ð¸Ð²Ð¸Ð»ÑģÑı":6742,"ĠÐ¿Ð¾Ð»ÑĥÑĩÐ¸Ð»Ð¾ÑģÑĮ":6743,"Ð¾Ð»ÑİÐ±":6744,"Ð¸Ð²ÑĪÐ°Ñı":6745,"ÐµÐ²ÑĭÑħ":6746,"ÐºÐ°ÑĦ":6747,"ÑĥÑĤÐ°":6748,"ĠÐ¿ÑĢÐµÐ´Ð½Ð°Ð·Ð½Ð°Ñĩ":6749,"ĠÐ¼Ð¾Ð½Ð°ÑģÑĤÑĭ":6750,"ĠÐ²ÐµÑīÐµ":6751,"ĠÑĪÐµÑİ":6752,"ĠÐ±Ð°Ð½Ðº":6753,"ĠÐ²Ð¾Ð´Ðµ":6754,"Ð¾ÑĢÐµÑĩ":6755,"Ð¼ÐµÑĢÑĤ":6756,"ĠÐ²Ð¸Ð´Ð¸ÑĤ":6757,"ĠÐºÑĢÐ¸Ð·":6758,"ĠÐ¾Ð´Ð½Ð¸":6759,"ĠÐ¼Ð¾Ð»ÑĩÐ°Ð»":6760,"ÑīÐ°":6761,"ĠÐ»ÐµÐ´Ð¸":6762,"Ð²ÑĥÑĩ":6763,"ĠÐ²Ð¾Ð·Ð½Ð¸ÐºÐ°":6764,"ĠÐ¿ÑĢÐ¾ÑĪÐ»Ð¾Ð³Ð¾":6765,"ÑĭÐ²Ð°Ð»Ð¸ÑģÑĮ":6766,"ĠÐ²ÐµÐ»Ð¸ÐºÐ¾Ð»ÐµÐ¿":6767,"ĠÐ¿ÑĢÐµÐ¸Ð¼ÑĥÑīÐµ":6768,"ÑĬÑıÐ²":6769,"ĠÑĩÐ¸ÑĤÐ°ÑĤÑĮ":6770,"Ð²Ð°ÑĤÑĮ":6771,"ce":6772,"Ð¾Ð´ÐµÐ¹ÑģÑĤÐ²":6773,"ÑģÑĤÑģÑı":6774,"Ð¾Ð´Ð¾Ð»":6775,"Ð°Ð»ÑĤ":6776,"ĠÐļÑĥÐ±":6777,"Ð¾ÑĪÑĥ":6778,"ĠÐĶÑĥÐ¼Ð°Ñİ":6779,"ĠÑģÐ¸Ð´ÐµÐ»Ð°":6780,"ĠÐ´Ð²Ð¾ÑĢÐµ":6781,"ĠÑĦÐ¾ÑĢÐ¼Ñĭ":6782,"ĠÐ»ÑİÐ±Ð¾Ð¼":6783,"Ð·Ð¸":6784,"ĠÑĩÐµÑģÑĤÐ½Ð¾":6785,"Ð°Ð²ÑĪÐ¸Ð¹ÑģÑı":6786,"ĠÐ±ÑĢÐ¾Ð´":6787,"ĠÐĽÑİÐ´Ð¸":6788,"ĠÐ¿Ð¾Ð´Ð¶":6789,"ĠÑħÐ¾Ð·ÑıÐ¸Ð½":6790,"ĠÐĽÐ°Ð²":6791,"ĠÐ¼Ð¾Ðº":6792,"ĠÑģÐ¼Ð¾ÑĤÑĢÐ¸ÑĤ":6793,"ĠÐ¿Ð¾ÐºÐ¾ÑĢ":6794,"ĠÐŃÐº":6795,"ĠÐ¸ÑģÐ¿ÑĢÐ°Ð²":6796,"27":6797,"ÑĥÐ²ÐµÑĢ":6798,"ĠÐ¼Ð¸ÑĢÐ¾Ð²Ð¾Ð¹":6799,"Ð°ÑĤÐµÐ»ÑĮÐ½ÑĭÐµ":6800,"ĠÐ¾ÑĤÑĩÐ°ÑıÐ½":6801,"ĠÐ²Ð¸Ð½Ð°":6802,"ĠÑĤÑĮ":6803,"21":6804,"Ð°Ð½ÑģÐºÐ¾Ð¹":6805,"ÑĭÑĪÐµ":6806,"ÑģÑĤÐ²ÐµÐ½Ð½ÑĥÑİ":6807,"Ð±Ð¾Ð¼":6808,"ĠÐ¿Ð¾ÑģÐ¿ÐµÑĪ":6809,"ÐµÐ¸":6810,"ĠÐ¿ÐµÑī":6811,"ĠÐ´ÑĢÑĥÐ³Ð°Ñı":6812,"Ð°ÑİÑīÐµÐµ":6813,"ĠÐĶÐ¾Ðº":6814,"ĠÑĢÐµÐºÐ»Ð°Ð¼":6815,"ĠÐ²Ð¾ÐµÐ½Ð½Ð¾":6816,"ĠÐ§Ð°ÑĢ":6817,"ĠÐ°Ð²ÑĤÐ¾Ð¼Ð¾Ð±Ð¸Ð»ÑĮ":6818,"ÑģÑĤÐ²Ð°Ð¼Ð¸":6819,"ĠÑģÐ¾ÑĤÐ½Ð¸":6820,"Ð½Ð°Ð¼Ð¸":6821,"ĠÐ½Ð°ÑĢÑĥÐ¶":6822,"ĠÐºÑĥÐ·":6823,"Ð½Ð¸ÑĪÑĮ":6824,"ĠÐ¿Ð¸ÑģÑĮÐ¼Ð°":6825,"ĠÑĩÐ»ÐµÐ½Ð¾Ð²":6826,"ĠÑĥÑī":6827,"ĠÐºÐ¾Ð²":6828,"Ð¾ÑĢÐ¸":6829,"Ð°Ð³Ð°":6830,"ĠÐ¿ÑĢÐ¾ÑĨÐµÐ´":6831,"ĠÑıÐ·ÑĭÐºÐ°":6832,"ĠÐĽÐ°Ð´Ð½Ð¾":6833,"ĠÐ¾ÑīÑĥÑīÐµÐ½Ð¸Ðµ":6834,"ĠÐ¿ÐµÐ½Ñģ":6835,"ĠÐ¿Ð¾Ð»ÑĮ":6836,"ĠÑĢÐµÐºÐ¾Ð¼":6837,"ĠÐ»ÐµÑģÐ°":6838,"ĠÐ¼ÐµÑĢÐ¾Ð¿ÑĢÐ¸ÑıÑĤ":6839,"Ð±Ð°Ñģ":6840,"ĠÐ»Ð¾Ð¿":6841,"ĠÑģÑĤÑĢÐ¾Ð³Ð¾":6842,"ĠÐ·Ð¾Ð²ÑĥÑĤ":6843,"ĠÐłÐ¸Ð¼":6844,"ĠÐ»ÐµÐ¶Ð¸ÑĤ":6845,"ĠÐ¿Ð¾ÑģÐ»ÐµÐ´Ð½Ð¸Ñħ":6846,"ĠÐ²Ð¾Ð·Ð³Ð»Ð°Ð²":6847,"Ð¸Ð»Ð¸Ð¹":6848,"Ð°Ð²Ð°Ð»Ð¸":6849,"Ð²ÑĮÑİ":6850,"ĠÐľÐ¾Ð¹":6851,"ĠÐ½Ð°Ð³ÑĢÐ°Ð´":6852,"Ð¾Ð¹Ð´Ñı":6853,"Ð½ÑĥÑģÑĮ":6854,"ĠÐ¡ÐºÐ¾Ð»ÑĮÐºÐ¾":6855,"ĠÐļÑĢÐ¸ÑģÑĤ":6856,"ĠÐ²Ð½":6857,"ĠÐķÐ´Ð¸Ð½":6858,"ĠÐ¶ÐµÐ»Ð°Ð½Ð¸Ñı":6859,"ĠÐĳÐ¾Ð¶Ðµ":6860,"ĠÐ¿Ð¾ÑģÐµÑī":6861,"ĠÑĢÐ°Ð·Ð´Ð°Ð»ÑģÑı":6862,"Ð»Ð¸Ð¼Ð¿":6863,"Ð¿ÑĢÐ¾":6864,"ĠÐ»Ð¸Ñħ":6865,"Ð»ÑĥÑħ":6866,"ĠÐ¿Ð¾ÑģÑĤÐµÐ»Ð¸":6867,"ĠÐ¾ÑĦÐ¸ÑĨÐµÑĢ":6868,"ĠÐ¼Ð°ÑĤÐµÑĢÐ¸Ð°Ð»":6869,"ĠÐĳÐ»":6870,"Ð»ÑĭÑħ":6871,"ĠÐ¿ÑĥÑĤÐµÐ¼":6872,"Ð½Ð¸ÐµÐ¼":6873,"ĠÐ¸Ð´ÐµÑı":6874,"ĠÐ´Ð¾ÑĩÐµÑĢÐ¸":6875,"Ð¾Ð»Ð¾Ð¼":6876,"ĠÐ¿Ð¾ÑģÑĤÐ°Ð²Ð¸Ð»":6877,"ĠÐºÐ¾Ð½ÑģÑĤÑĢÑĥÐº":6878,"ÑĥÑģÐ¾Ð²":6879,"ÑĭÑģÐ»Ð°":6880,"ĠÐ½Ð°Ð·ÑĭÐ²Ð°ÐµÑĤÑģÑı":6881,"ÂłÐŁÐ¾ÑĩÐµÐ¼Ñĥ":6882,"Ð¾ÑĢÐ°Ñĩ":6883,"ess":6884,"ew":6885,"ĠÐĴÐµÐ½":6886,"ĠÐ¿ÑĢÐµÐ´ÑĭÐ´ÑĥÑī":6887,"ĠÐ½Ð°ÑĪÐ¸Ð¼":6888,"ĠÐºÐ¸Ð¿":6889,"ĠÐ²Ð²ÐµÐ´":6890,"ĠÐ´Ð²ÐµÐ½":6891,"ĠÐ±Ð¾Ð¶Ðµ":6892,"ĠÐ¾Ð±Ð¾ÑĢÐ¾Ð½Ñĭ":6893,"ĠÐ¾Ð±Ð¾Ð·Ð½Ð°Ñĩ":6894,"ĠÐºÐ¾ÑĢÐ¾Ð»":6895,"ÐµÐ²ÑĪÐ¸Ð¹":6896,"ĠÑĩÑĥÐ´ÐµÑģ":6897,"ĠÑģÑĭÐ³ÑĢ":6898,"ÑıÑİ":6899,"ÑĢÑĥÑģÑĤ":6900,"28":6901,"ĠÐ¡Ð¾Ð»Ð½":6902,"ĠÐ±ÑĥÐ´ÑĮ":6903,"Ð°Ð»Ð°Ñħ":6904,"ĠÐ·Ð´Ð°Ð½Ð¸Ñı":6905,"Ð¸Ð´Ð¶":6906,"ÑģÐµÑĢ":6907,"Ð°ÐµÐ¼ÑĭÑħ":6908,"Ð°ÐµÐ¼ÑĭÐ¹":6909,"ĠÐ¸ÑģÐºÐ»ÑİÑĩÐ¸ÑĤÐµÐ»ÑĮÐ½Ð¾":6910,"ÑĢÐµÑĪ":6911,"ÐµÐ»Ð»":6912,"ĠÐ¿Ð¾ÑĨÐµÐ»Ð¾Ð²":6913,"ĠÐ²ÐµÑĢÐ¾ÑıÑĤ":6914,"ĠÐ²ÑĭÐ½ÑĥÐ¶Ð´":6915,"ĠÑĤÐµÑħÐ½Ð¾Ð»Ð¾Ð³":6916,"ĠÐ´ÐµÑĢÐ¶Ð°ÑĤÑĮ":6917,"ĠÐ±Ð¾Ð»ÑĮÐ½Ð¾":6918,"Ð°Ð¹Ð»Ð¾Ð²":6919,"Ð¼ÐµÐ»":6920,"Ð·Ðµ":6921,"ĠÐ´ÑĥÑĪÐ°":6922,"ĠÐ¼ÑĢÐ°Ñĩ":6923,"ĠÐ°ÑĢÑĤÐ¸Ð»Ð»ÐµÑĢ":6924,"ĠÑĢÐ¾ÑģÑģÐ¸Ð¹ÑģÐºÐ¸Ñħ":6925,"ĠÐ±ÐµÑģÐºÐ¾Ð½ÐµÑĩ":6926,"ĠÐĳÐ¾Ð»":6927,"ĠÐ¿ÑĢÑĭÐ³":6928,"ĠÐ¿ÑĢÐ¾Ð±Ð¾ÑĢÐ¼Ð¾ÑĤÐ°Ð»":6929,"ĠÐ¿Ð¸ÑĤÑĮ":6930,"ĠÐłÐ°Ð¹":6931,"ĠÐ½Ð°Ð·Ð²Ð°ÑĤÑĮ":6932,"ĠÑĩÑĢÐµÐ·Ð²ÑĭÑĩ":6933,"ĠÐ¡Ð¾ÑĦ":6934,"âĢĳ":6935,"ĠÑĢÐµÐ±ÑıÑĤÐ°":6936,"ĠÐ¿Ð¾ÑģÑĤÐ°Ð½Ð¾Ð²":6937,"Ð°Ð»ÑĮÐ´":6938,"ĠÐ¼Ð½Ð¾Ð³Ð¾Ðµ":6939,"ÑĳÑģ":6940,"ĠÐĶÐ¼Ð¸ÑĤÑĢÐ¸Ð¹":6941,"ĠÐ´ÐµÐ²ÑıÑĤ":6942,"Ð¸ÐºÐ¾":6943,"ĠÐłÐµÐ¹":6944,"ĠÑģÐ¼Ð¾Ð³Ñĥ":6945,"ĠÐºÐ°Ð¶Ð´Ð¾Ð¼":6946,"ĠÐ¸Ð¼ÑĥÑīÐµ":6947,"ĠÐ¿Ð¾ÑĤÑı":6948,"ÐłÐŀ":6949,"ÑĤÐµÑĢÐµÑģÐ½Ð¾":6950,"ĠÐ±Ð¾Ð¼Ð±":6951,"Ð°Ð»ÐµÐºÐ¾":6952,"Ð¾ÑĩÐ½Ð¾Ð³Ð¾":6953,"ĠÐ¼Ð³Ð½Ð¾Ð²ÐµÐ½Ð½Ð¾":6954,"ĠÐ¿ÑĢÐ¾Ð±Ð»ÐµÐ¼Ð°":6955,"Ð¾Ð¿ÑĢÐ¾Ñģ":6956,"ĠÐ¤Ð¸Ð»Ð¸Ð¿":6957,"ĠÑĤÐµÐ¿Ð»Ð¾":6958,"ĠÐµÐ·Ð´":6959,"ĠÑĤÑīÐ°ÑĤÐµÐ»ÑĮÐ½Ð¾":6960,"ĠÐ·Ð½Ð°ÑĩÐ¸ÑĤÐµÐ»ÑĮÐ½Ð¾":6961,"ÑīÐ¸Ð¹":6962,"Ġ2016":6963,"ĠÐ½Ð°Ð¿ÑĢÐ°Ð²Ð¸Ð»ÑģÑı":6964,"ĠÐ¿ÑĢÐµÐ´ÑģÑĤÐ°Ð²Ð»ÑıÐµÑĤ":6965,"ÂłÐĴÑģÐµ":6966,"ĠÐ½Ð°ÑĩÐ°Ð»ÑĮÐ½Ð¸Ðº":6967,"ĠÐ²Ð¾Ð·ÑĢÐ°Ð¶":6968,"ĠÑĥÐ¼ÐµÐ½ÑĮÑĪ":6969,"ĠÐĶÐ¶Ð¾":6970,"Ð¾ÑĩÐ½ÑĭÐµ":6971,"Ð°Ð±Ñĭ":6972,"ĠÐ¼Ð¾ÑĤÐ¸Ð²":6973,"ĠÐºÐ°Ð¶":6974,"ĠÑĢÐµÑĪÐ¸ÑĤÐµÐ»ÑĮÐ½Ð¾":6975,"ĠÐ²Ð½ÑĥÑĤÑĢÑĮ":6976,"Ð¸ÑĤÐ¸Ð²":6977,"ĠÑĤÐµÐ»ÐµÐ²Ð¸Ð·":6978,"ĠÑĢÐ°Ð·Ð±Ð¸ÑĢ":6979,"ĠÑħÐ²Ð°ÑĤÐ°Ð»Ð¾":6980,"ÑĪÐµÐµÑģÑı":6981,"ĠÑĨÐ¸ÑĤ":6982,"ĠÐ½ÐµÐ´Ð¾ÑĥÐ¼":6983,"Ð½Ð¾Ð¶":6984,"ĠÐ´Ð°Ð½Ð½ÑĭÐ¹":6985,"Ð»ÑĥÑĪÐ°Ð¹":6986,"ĠÐ¿ÑĢÐµÐ´Ð²Ð°ÑĢ":6987,"Ð»Ð°ÑģÑģ":6988,"ĠÐ±Ð¾Ð»ÑĤ":6989,"ĠÐ´ÑĢÐ°Ðº":6990,"ĠÐ¿ÑĢÐ¾ÑĪÐ»Ð°":6991,"Ð¸ÑĢÑĥÑİÑĤ":6992,"ĠÐ´ÐµÑıÑĤÐµÐ»ÑĮÐ½Ð¾ÑģÑĤÑĮ":6993,"ĠÐ²Ð¿ÑĢÐ¾ÑĩÐµÐ¼":6994,"ĠÐ¿ÑĭÐ»ÑĮ":6995,"ĠÐ²Ð¾Ð¾Ð±ÑĢÐ°Ð¶":6996,"Ð»ÑĭÐ¼":6997,"Ð¾Ð¹ÑĩÐ¸Ð²":6998,"Ð»ÑıÑİ":6999,"ĠÐ½Ð°ÑģÑĩÐµÑĤ":7000,"Ð¡Ð¢":7001,"Ð´Ð¾ÑĢÐ¾Ð²":7002,"ĠÐĶÐ¸":7003,"Ð»ÑıÐ»Ð¸ÑģÑĮ":7004,"ĠÐĲÑĢÐ¼":7005,"ĠÐ¾Ð´Ð¸Ð½Ð°ÐºÐ¾Ð²":7006,"ĠÐºÐ°ÑĢÑĮ":7007,"ĠÐ¿ÑĥÑģÐº":7008,"ĠÐĺÐ½Ð¾Ð³Ð´Ð°":7009,"ĠÑģÐ¾Ð¼Ð½ÐµÐ½Ð¸Ñı":7010,"ĠÐ²Ð¾ÑģÐ¿ÑĢÐ¸Ð½Ð¸Ð¼":7011,"ĠÐºÐ¾Ð½ÐµÑĩ":7012,"ĠÑģÐºÑĢÐ¸Ð¿":7013,"ĠÐ¾ÑģÑĤÐ°Ð½ÐµÑĤÑģÑı":7014,"Ð¸Ð²Ð°Ð½Ð¸Ðµ":7015,"ĠÐ¸ÑģÐ¿Ð¾Ð»":7016,"ĠÑĤÐ²ÐµÑĢ":7017,"ĠÐ³Ð¾ÑĢÐ¸Ð·":7018,"ÑĪÐ¸ÐµÑģÑı":7019,"ĠÐ´Ð°Ð½Ð½ÑĭÑħ":7020,"Ġ60":7021,"ĠÐľÐ°ÑĢÑĤ":7022,"ĠÐ¿Ð¾Ð·Ð°Ð´Ð¸":7023,"ĠÑĢÑĥÑģÑģÐºÐ¾Ð¹":7024,"ĠÑĥÐ³ÑĢÐ¾Ð¶":7025,"ÑįÑĤÐ¾":7026,"Ð¾Ð²Ð°Ð½Ð½ÑĭÐ¹":7027,"ÐĿÐ¸Ðº":7028,"ĠÑģÑĤÐ¾Ð¸Ð»Ð¾":7029,"ĠÐºÐ²Ð°ÑĢ":7030,"ĠÑģÐ¿ÐµÑĨÐ¸Ð°Ð»ÑĮÐ½Ð¾":7031,"ĠÑĤÑĥÑĢÐ½Ð¸":7032,"Ð¾Ð²Ð°Ð½Ð°":7033,"ĠÐ°Ð²ÑĤÐ¾":7034,"ĠÐľÐ°Ð¹Ðº":7035,"ĠÐľÑĥÐ¶":7036,"ĠÐľÐ°ÐºÑģÐ¸Ð¼":7037,"Ð¸ÑĢÐµ":7038,"ĠÐ³Ð¾Ð»Ð¾ÑģÐµ":7039,"Ð¸Ð²ÑĪÐ¸Ñħ":7040,"ĠÐľÐ¾Ð»":7041,"Ð½Ð¾ÑģÑĤÑıÑħ":7042,"ĠÐŁÑĢÐ¸Ð½":7043,"ĠÐ¸Ð·Ð±ÑĢÐ°Ð½":7044,"ÑıÑīÐµÐµ":7045,"ĠÐĿÐ¸ÐºÐ°Ðº":7046,"ĠÐ¿ÐµÑĢÐ²Ð°Ñı":7047,"ĠÑĨÐ¸Ð²Ð¸Ð»":7048,"Ð»Ð°Ð·Ð°":7049,"ĠÐĴÐµÑĢÑħÐ¾Ð²":7050,"ĠÐ½ÐµÑĤÐµÑĢÐ¿":7051,"ĠÐ½Ð°ÑħÐ¼ÑĥÑĢ":7052,"ĠÐ¶ÑĥÑĤ":7053,"ÐŀÐ´Ð½Ð°ÐºÐ¾":7054,"ĠÑģÐ¾ÑĩÐ¸Ð½":7055,"ĠÑĢÐ¾Ð»Ð¸":7056,"ĠÑĤÐµÑĩ":7057,"ĠÑĢÐ°Ð·Ñĥ":7058,"ÑĩÐ°Ð»":7059,"ĠÐ¿ÑĥÐ»":7060,"Ġ$":7061,"ĠÐ½Ð°ÑħÐ¾Ð´Ð¸Ð»Ð¸ÑģÑĮ":7062,"ĠÐ°ÑįÑĢÐ¾Ð¿":7063,"Ġth":7064,"ĠÐ°Ð´Ð²Ð¾Ðº":7065,"ĠÑģÐ¾Ð·Ð´Ð°ÑĤÑĮ":7066,"ĠÐķÐºÐ°ÑĤÐµÑĢ":7067,"ĠÑģÑĩÐ¸ÑĤÐ°ÑİÑĤ":7068,"ÂłÐ¥Ð¾ÑĢÐ¾ÑĪÐ¾":7069,"ÑĤÐ¸Ð¼":7070,"ĠÐ¢Ð°ÑĢ":7071,"Ð»ÐµÐ¿":7072,"Ġ2013":7073,"ĠÐ·Ð°Ð±Ð»":7074,"ĠÐ¿ÑĢÐ¸Ð½ÑıÑĤÐ¾":7075,"ÐµÐ¶ÑĥÑĢ":7076,"ĠÑģÐ¼Ð¾Ð³Ð»Ð¸":7077,"Ð±Ð¸Ð½":7078,"ĠÑģÐ¾Ð¿ÐµÑĢ":7079,"ĠÐ¿Ð¾Ð´ÑĢÐ°Ð·Ð´ÐµÐ»":7080,"ĠÐ´ÐµÐ»Ð°ÑİÑĤ":7081,"ÑĢÐ¾Ñħ":7082,"Ð¾Ð´ÑĥÑĪ":7083,"ĠÐľÐ°ÑĢÐ¸Ñı":7084,"Ð¾ÑģÐ»ÐµÐ´ÑģÑĤÐ²Ð¸Ð¸":7085,"ĠÐ¿Ð¾ÑģÐ»ÐµÐ´Ð½ÐµÐ³Ð¾":7086,"ĠÐ£Ð¶":7087,"ĠÐ¿Ð¾Ð»ÑĥÑĩÐ¸Ð»Ð°":7088,"ĠÐ½Ð°ÑħÐ¾Ð´ÑıÑĤÑģÑı":7089,"ĠÑħÐ¾Ð´Ñĥ":7090,"ĠÑĤÑĢÐ¾Ðµ":7091,"ĠÐ³Ð¸Ð¿":7092,"ĠÐ²Ð¾Ð·Ð´ÑĥÑħÐ°":7093,"ĠÐ³Ð»Ð°Ð²Ñĭ":7094,"ÐµÑĤÐ¾":7095,"ĠÑģÐ¼Ð¾ÑĤÑĢÐµÐ»Ð¸":7096,"ĠÐ²Ð¸Ð´Ð°":7097,"Ð¾ÑĢÐ´Ð¶":7098,"ĠÐĿÐµÐ¿":7099,"ĠÐ·Ð°ÑĢÐ°Ð½ÐµÐµ":7100,"ĠÐ¸ÑģÑĤÑĢÐµÐ±":7101,"ĠÐ¦ÐµÐ½ÑĤÑĢ":7102,"ĠÐ²Ð¾Ð·Ð¼ÑĥÑī":7103,"ĠÐ¾Ð±Ð¾Ð¸Ñħ":7104,"ĠÐ¿Ð¾Ð²ÐµÑĢÑħÐ½Ð¾ÑģÑĤÐ¸":7105,"ĠÐ¸ÑģÑģÐ»ÐµÐ´Ð¾Ð²Ð°Ð½Ð¸Ñı":7106,"ĠÐ±Ð°ÑĤÐ°Ð»ÑĮ":7107,"ĠÐ´ÐµÐ¹ÑģÑĤÐ²Ð¾Ð²Ð°ÑĤÑĮ":7108,"Ð¿ÑĢÐµÐ´ÐµÐ»":7109,"ĠÐµÑģÑĤÐµÑģÑĤÐ²ÐµÐ½Ð½Ð¾":7110,"Ð°Ð´Ð¾":7111,"ĠÐļÐ°Ð¶Ð´ÑĭÐ¹":7112,"Ð°Ð½ÑģÐºÐ¾Ð³Ð¾":7113,"ĠÑģÐ¾Ð±ÑģÑĤÐ²ÐµÐ½Ð½Ð¾":7114,"ĠÐ¿ÑĢÐ¾Ð¼ÑĭÑĪÐ»ÐµÐ½":7115,"ÐļÐ¾Ð¼":7116,"ÑĪÐ¸ÑħÑģÑı":7117,"ĠÐ¿ÑĢÐ¸Ð³Ð¾Ð²Ð¾ÑĢ":7118,"ĠÐ¿Ð°ÑĨÐ¸":7119,"ĠÐ³ÑĢÑĥÐ±":7120,"ĠÑĢÑĥÑģÑģÐºÐ¾Ð³Ð¾":7121,"ÑĥÑĪÐºÐµ":7122,"Ð°Ð½Ð´Ð°ÑĢÑĤ":7123,"ĠÑģÐµÐ¼ÑĮÑı":7124,"ĠÑħÐ¾ÑĢÐ¾ÑĪÐ¸Ð¹":7125,"ÑıÑīÐ¸Ð¼":7126,"ĠÑģÐ¾Ð»Ð½ÑĨÐ°":7127,"ĠÐ¿Ð¾Ð·Ð²Ð¾Ð»ÑıÐµÑĤ":7128,"ÑĢÐ¸Ð½":7129,"ĠÐ¿ÑĢÐ¾ÑĪÐ»Ð¸":7130,"=\"":7131,"ĠÐ¿Ð¾Ð´Ð²Ð¾Ð´":7132,"ĠÑģÐ¼Ð¾Ð³Ð»Ð°":7133,"ĠÑĥÑĩÑĢÐµÐ¶Ð´":7134,"Ð¿ÑĢÐµÐ¶Ð´":7135,"Ð¸Ð²ÑĪÐ¸ÑħÑģÑı":7136,"ĠÑĥÐ³Ð»Ñĥ":7137,"ĠÐ¿ÑĥÐ½Ðº":7138,"ÑĨÐ¸ÑıÐ¼Ð¸":7139,"ĠÐ·Ð°ÑħÐ¾Ð´":7140,"ĠÑĩÐµÐ»Ð¾Ð²ÐµÑĩÐµ":7141,"ĠÐ³ÐµÑĢÐ¾":7142,"ĠÑĢÐ°Ð·Ð¾Ñĩ":7143,"ĠÐĿÐµÑģÐ¼Ð¾ÑĤÑĢÑı":7144,"ĠÐ²Ð¾ÑģÑħÐ¸Ñī":7145,"ĠNE":7146,"ĠÑģÐ»ÐµÐ¿":7147,"Ð°Ð½Ð½ÑĭÐ¼Ð¸":7148,"Ã©":7149,"ĠÑħÐ²Ð°ÑĤÐ°ÐµÑĤ":7150,"Ð¾ÑĩÐµÑĤ":7151,"Ð°ÑİÑīÐµ":7152,"ÂłÐ¡Ð¿":7153,"ĠÐ²ÐµÐ¶":7154,"ĠÐ¿ÑĢÐ¸ÐµÐ·Ð¶":7155,"ÑĹ":7156,"ĠÐ¢Ð¸Ð¼":7157,"ĠÐ¿Ð¾Ð´ÑħÐ²Ð°ÑĤ":7158,"ĠXI":7159,"ÑĤÐ°ÑĢ":7160,"ĠÑĤÐ°Ð½ÐºÐ¾Ð²":7161,"WS":7162,"ĠÐĶÐµÐ»Ð¾":7163,"ĠÑĩÑĳÑĢ":7164,"Ð¾ÑģÑĤÐµÐ¹":7165,"Ð´Ð¾Ð¼":7166,"ÑĨÐ¸ÑıÑħ":7167,"ĠÐ²ÐµÑĢÐ½ÑĥÐ»Ð°ÑģÑĮ":7168,"ĠÐ¿ÑĢÐ¸ÑģÐ»ÑĥÑĪ":7169,"ĠÐ¾ÑĤÑĢÐµÐ·":7170,"ĠÑĥÑĢÐ¾Ðº":7171,"ĠÐ´Ð¾ÑģÑĤÐ°Ð»":7172,"Ð¾ÑĢÐ°ÑĤÐ¾ÑĢ":7173,"ĠÑĥÑģÑĤÑĢÐµÐ¼":7174,"ĠÐ¿Ð°ÑĤÑĢÐ¸":7175,"ĠÐ¿Ð¾ÑĩÑĥÐ²ÑģÑĤÐ²Ð¾Ð²Ð°Ð»Ð°":7176,"ĠÐ¿ÑĢÐ¾ÐºÐ»ÑıÑĤ":7177,"ĠÑģÐ¾Ð·Ð½Ð°Ð½Ð¸Ñı":7178,"Ð°ÑİÑīÑĥÑİ":7179,"ÐĻÐ¾ÑĢ":7180,"ĠÐ·Ð°Ð±Ð¾Ð»ÐµÐ²":7181,"ĠÐ±ÑĥÐ´ÑĥÑīÐµÐµ":7182,"Ð°ÑĤÐµÐ»ÑĮÐ½ÑĭÐ¼":7183,"ĠÐ²ÐµÑģÐµÐ»Ð¾":7184,"ĠÐ»Ð°Ð´Ð¾Ð½":7185,"ĠÐ¼Ð°Ðº":7186,"Ð¸ÑıÐ¼":7187,"Ð¸ÑĢÐ¾Ð²ÐºÐ¸":7188,"ĠÐĴÑĤÐ¾ÑĢÐ¾Ð¹":7189,"Ð·Ð°Ð¿":7190,"ĠÐĶÐ¶ÐµÐº":7191,"ĠÐ´ÐµÐ²ÑĩÐ¾Ð½":7192,"ĠÐ¿ÑĢÐ¸Ð½Ð¸Ð¼Ð°ÑĤÑĮ":7193,"ĠÐ¼ÐµÑĢÑĭ":7194,"Ð´Ð°Ñħ":7195,"ĠÐ²ÑĭÑģÐºÐ°Ð·":7196,"Ð»ÐµÐ½Ð½Ð°Ñı":7197,"ĠÑĪÐ¿":7198,"ĠÐ¿ÑĢÐ¸ÑıÑĤÐ½Ð¾":7199,"ĠÑģÐ¾ÑģÑĤÐ¾Ð¸ÑĤ":7200,"ĠÐ²Ð¾ÑĢÐ¾ÑĤÐ°":7201,"ĠÐ³Ð¾ÑģÑĤÐµÐ¹":7202,"ĠÐ¶Ð¸Ð²Ð¾ÑĤÐ½ÑĭÑħ":7203,"ĠÑĥÐ³ÑĢÐ¾Ð·":7204,"Ð¾Ð»Ð¸ÑĤ":7205,"ĠÑģÐ¿ÑĢÐ°Ð²ÐµÐ´Ð»Ð¸Ð²":7206,"ĠÑģÐ²Ð¾Ñĳ":7207,"ĠÑĢÐ°ÑģÑĩ":7208,"ĠÐ¿ÑĢÐ¾Ð³ÑĢÐ°Ð¼Ð¼Ñĭ":7209,"ĠÐŁÐ¾ÑĢ":7210,"âĢĥâĢĥ":7211,"ĠÐ¾Ð´Ð¾Ð±ÑĢ":7212,"ĠÐºÐ¾Ð¼Ð¿Ð»ÐµÐº":7213,"ĠÑħÐ¾Ð´Ð¸ÑĤÑĮ":7214,"Ð½Ð¸ÐºÐ°Ñħ":7215,"ÑĥÐ¼ÐµÐµÑĤÑģÑı":7216,"ĠÑĤÐµÐ¼Ð½Ð¾ÑĤÐµ":7217,"ĠÐĶÐ¾ÑĢ":7218,"ĠÑģÐ»Ð¾Ð²Ð¾Ð¼":7219,"ĠÐ¿ÑĢÐ¾Ð´Ð¾Ð»Ð¶Ð¸Ð»":7220,"ĠÐ³Ð¾ÑĤÐ¾Ð²Ð°":7221,"ĠÐ±Ð»Ð°Ð³Ð¾ÑĢÐ¾Ð´":7222,"ĠÐ£Ð´":7223,"ĠÐ·Ð°ÐºÐ¾Ð½Ð¾Ð´":7224,"ÂłÐĿÐ°":7225,"ĠÐ¿Ð¸ÑģÐ°ÑĤÑĮ":7226,"ĠÐ¾Ð³Ð»ÑıÐ´":7227,"60":7228,"ĠÐ°ÑĢÐ¼Ð¸":7229,"ĠÐłÐ¾ÑģÑģÐ¸Ð¹ÑģÐºÐ¾Ð¹":7230,"ĠÐ¿Ð¾Ð»Ð¾ÑĤ":7231,"ĠÑģÐµÑĢÐµÐ±ÑĢÑı":7232,"ĠÐ´Ð°Ð²Ð°Ð¹":7233,"ĠÑħÐ¾ÑĢ":7234,"ÑĥÐºÑĥ":7235,"ĠÐ¶Ð¸Ð´":7236,"ĠÑĩÐµÑĤÐ²ÐµÑĢÑĤ":7237,"Ġre":7238,"ĠÐ±Ð¾ÑĢÑĮÐ±Ñĭ":7239,"Â»)":7240,"ĠÐ»ÑİÐ±Ð¾Ð³Ð¾":7241,"Ð¸ÑĢÑĥÐµÑĤÑģÑı":7242,"Ð¼Ð¾ÐµÐ¼Ñĥ":7243,"29":7244,"ĠÐ±Ð¾Ð»ÑĮÑĪÐ¸Ñħ":7245,"ĠÐ¿ÑĢÐ¾Ð¸ÑģÑħ":7246,"ÑīÐ¸ÐºÐ°":7247,"Ð²ÐµÑĩ":7248,"ĠÐ½Ð°Ð·Ð²Ð°Ð»":7249,"ÑĳÑħ":7250,"ÑĢÐ¸ÑĤ":7251,"ÐµÐ³Ð°":7252,"ĠÑģÐ²ÐµÑĩ":7253,"ĠÑĥÑģÐ¿ÐµÐ»Ð°":7254,"ĠÑģÐ¸Ð´ÐµÑĤÑĮ":7255,"ĠÑĥÐ»ÑĥÑĩ":7256,"Ð¾Ð¿Ð¾Ð»ÑĥÑĩ":7257,"Ð¿Ð°Ð´":7258,"ĠÐ¡ÐľÐĺ":7259,"ĠÐŁÐ¾Ð³":7260,"ĠÑĥÐ´Ð°ÑģÑĤÑģÑı":7261,"Ð¾Ð¸Ñħ":7262,"Ð³ÑĢÐ¾Ð¼":7263,"ĠÐ·Ð°Ð²ÑĤÑĢ":7264,"ĠNEWS":7265,"ov":7266,"Ð¾Ð¶Ð°":7267,"ĠÑģÐºÐ°Ð½Ð´":7268,"Ð¾ÑĢÐ¾Ð´":7269,"ÑĮÐµÐ¹":7270,"ÐµÑĤÐ¸":7271,"ĠÐ¾Ð±Ð¾ÑĢÐ¾ÑĤ":7272,"ĠÑģÐ¸ÑģÑĤÐµÐ¼Ñĥ":7273,"ĠÐºÐ¾Ð½ÑĤÑĢÐ¾Ð»ÑĮ":7274,"ĠÐ¿Ð¾Ð¿Ð°ÑģÑĤÑĮ":7275,"ĠÐ¾Ð¿Ð°ÑģÐ½Ð¾ÑģÑĤÐ¸":7276,"ĠÑģÐµÐ²":7277,"ĠÐ¿Ð¾ÑĤÐµÑĢÑıÐ»":7278,"ĠÐ´ÐµÑĪ":7279,"ĠÐĽÐ¸Ð½":7280,"ĠÐ¾ÑĤÐ½Ð¾ÑĪÐµÐ½Ð¸Ð¹":7281,"ĠÐ´ÐµÑģÑıÑĤÐ¸":7282,"ÑıÐµÐ¼":7283,"ĠÐ¿Ð¾Ð²Ð¾Ð´":7284,"ĠÑħÐ¸Ð¼":7285,"ĠÐ¿ÑĢÐ¸ÐµÑħÐ°Ð»":7286,"ĠÐºÐ¾Ð»ÐµÐ±":7287,"ĠÐ¿ÑĮÑı":7288,"ÐµÐ´ÑĢ":7289,"ĠÑĢÑĥÑģÑģÐºÐ¸Ðµ":7290,"ĠNEWSru":7291,"ĠÑģÐ²Ð¸Ð½":7292,"Ð°Ð½ÑĥÐ½Ðµ":7293,"Ð°ÐµÑĤÐµÑģÑĮ":7294,"ĠÐ³ÑĥÐ±ÐµÑĢÐ½Ð°":7295,"ĠÐ·Ð½Ð°ÑĩÐµÐ½Ð¸Ñı":7296,"Ð½Ð¸Ñİ":7297,"ĠÐ¾Ð±ÑīÐµÐ³Ð¾":7298,"ĠÐķÐ²ÑĢÐ¾Ð¿Ðµ":7299,"ĠÑĤÐ²Ð°ÑĢ":7300,"ĠÑĤÑĢÐ°Ð´Ð¸ÑĨÐ¸Ð¾Ð½":7301,"Ð³ÐµÐ»":7302,"ĠÐ²ÐºÐ»ÑİÑĩÐ°Ñı":7303,"Ð½Ð°Ð¿":7304,"ÑĪÐºÐ°":7305,"ÐļÐĲ":7306,"ĠÐ½Ð°ÑģÐ»Ð°Ð¶Ð´":7307,"ĠÐ²Ð¿ÑĢÐ°Ð²":7308,"ĠÐ¿ÑĥÑģÑĤÑĭ":7309,"ĠÐ½ÐµÐ¼Ð°Ð»Ð¾":7310,"ĠÐ¿Ð¾ÑĢÑĤÑĢ":7311,"ĠÐŁÑĢÐµÐ·":7312,"ĠÐ´Ð¾Ð¼Ð¾Ð²":7313,"ÐµÑĢÐ²Ð°":7314,"],":7315,"Ð»Ð¸Ð½Ð°":7316,"ĠÐ´Ð¾ÐºÑĥÐ¼ÐµÐ½ÑĤÑĭ":7317,"ĠÐŁÐ¾Ð·":7318,"ĠÐ¿Ð¾Ð»Ð¸ÑĤÐ¸ÐºÐ¸":7319,"ĠÐµÐ´Ð¸Ð½ÑģÑĤÐ²ÐµÐ½Ð½ÑĭÐ¹":7320,"ĠÐ¿Ð¾Ð»ÐºÐ¾Ð²Ð½Ð¸Ðº":7321,"ĠÐ¡ÑĢÐµÐ´Ð¸":7322,"ĠÐ´Ð°Ð»ÐµÐº":7323,"ĠÐŁÐ°Ð²ÐµÐ»":7324,"ĠÐ²ÑĭÐ»ÐµÑĤ":7325,"ĠÐ¿ÐµÑħ":7326,"ĠÐķÐ²Ð³":7327,"Ð¾Ð²Ð°Ð»Ð¾ÑģÑĮ":7328,"ĠÐ¼Ð°Ð»ÐµÐ¹":7329,"Ð½Ð°Ñħ":7330,"ĠÑĢÐµÑģÑĥÑĢ":7331,"Ð¸Ð²ÑĪÐµÐ³Ð¾":7332,"ĠÐ´ÐµÐ¼Ð¾ÐºÑĢÐ°ÑĤ":7333,"ĠÐ¿ÑĢÐ¾ÑĤÐ¸Ð²Ð¾ÑĢÐµÑĩ":7334,"ÑĢÐ¾Ð³":7335,"ĠÐĳÐµÐ½":7336,"ĠÑĤÐº":7337,"ĠÐ·Ð°Ð±ÑĭÑĤÑĮ":7338,"ĠÑģÐµÑģÑĤÑĢÐ°":7339,"ĠÐ³Ð¾ÑģÑĤÐ¸":7340,"Ð½Ð°Ð¶":7341,"Ð´ÑĮ":7342,"ĠÐĵÐ¾ÑģÑĥÐ´Ð°ÑĢ":7343,"ĠÐ¿ÑĢÐ¸ÑĪÐ»Ð¾":7344,"ĠÐ°ÑĤÐ¼Ð¾Ñģ":7345,"ĠÐ¿Ð¾ÑĩÑĤ":7346,"ÐµÐ½ÑĮÐºÐ¸Ð¹":7347,"ĠÐĿÐµÐ´":7348,"ĠÐµÑħÐ°ÑĤÑĮ":7349,"âĢ¢":7350,"ĠÐ¿Ð¾Ð»ÑĥÑĩÐ°ÐµÑĤÑģÑı":7351,"ĠÑģÐµÑĢÐµÐ´Ð¸Ð½Ðµ":7352,"ĠÐ°Ð½Ð°Ð»Ð¾Ð³":7353,"ĠÐºÐ¸Ð»Ð¾Ð¼ÐµÑĤÑĢÐ¾Ð²":7354,"ĠÐľÐ°ÑĢÐº":7355,"ĠÐ¢Ð¸Ñħ":7356,"ĠÐ¿Ð¾ÑģÐ»ÑĭÑĪ":7357,"ĠÐ¶Ð¸Ð²ÑĥÑĤ":7358,"ĠÐ¼Ð°Ð»ÑĭÑĪ":7359,"ĠÐ¿ÑĢÐ¾ÑģÑĤÑĢÐ°Ð½ÑģÑĤÐ²Ð¾":7360,"ĠÐ¸ÑĤÐ°Ð»ÑĮÑıÐ½":7361,"ĠÐ¾ÐºÐ°Ð·ÑĭÐ²Ð°ÐµÑĤÑģÑı":7362,"ĠÐĳÐ¾Ð»ÐµÐµ":7363,"ĠÑĢÐ¾Ð´Ð¸ÑĤÐµÐ»ÐµÐ¹":7364,"ĠÐ·Ð°ÑģÐ¼Ðµ":7365,"ÑĩÐµÐ½ÐºÐ¾":7366,"ĠÐºÐ¾Ð¼Ð¿Ð»ÐµÐºÑģ":7367,"ĠÑģÐ²ÐµÑĢÑħ":7368,"ĠÑĤÑĥÐ¼":7369,"Ð¸Ð²ÑĪÐ¸Ðµ":7370,"ÑĪÐ¸Ð¹ÑģÑı":7371,"Ð¼Ñģ":7372,"ĠÐłÐ°Ð´":7373,"ĠÐ¿Ð»Ñı":7374,"ÑĢÐ¾ÑģÐ¸Ð»":7375,"ĠÑĤÐ°ÑĢÐµÐ»":7376,"Ð¸ÑĨÐ¸Ð¹":7377,"Ð¸Ð½ÑĤ":7378,"Ð»Ð¸Ð²ÑĭÐ¹":7379,"ĠÐ¾ÑĤÐ»Ð¸ÑĩÐ½Ð¾":7380,"ĠÐ²ÑĭÑģÐ¾ÐºÐ¾":7381,"Ð»ÐµÑģÐº":7382,"ĠÑĤÐ°ÐºÑĤ":7383,"ĠÐ¾ÑģÐ»Ð°Ð±":7384,"ĠÐ²Ð°Ð³Ð¾":7385,"ĠÐ·Ð°Ð»Ðµ":7386,"ĠÐ¾Ð±ÑħÐ¾Ð´":7387,"ĠÐ³Ð¾ÑģÑĥÐ´Ð°ÑĢÑģÑĤÐ²Ð¾":7388,"ĠÐ¡Ð¿Ð°ÑģÐ¸Ð±Ð¾":7389,"ĠÐ¿Ð¾ÑĤÐµÐ½ÑĨÐ¸":7390,"ĠÐ»Ð°Ð´Ð¾Ð½Ð¸":7391,"ĠÑģÐ¼Ðµ":7392,"ĠÐ²ÐµÑĢÐ¸ÑĤÑĮ":7393,"ĠÐ¿ÑĢÐ¾Ð²Ð°Ð»":7394,"Ð°ÑĢÐ¼":7395,"ĠÑĤÑĢÐµÐ½Ð¸ÑĢÐ¾Ð²":7396,"ĠÐºÐ¾ÑĢÐ¸Ð´Ð¾ÑĢ":7397,"Ð·Ð°Ð´Ð¸":7398,"ÐºÐ¾Ð³":7399,"ĠÐ¡ÑĤÐ°Ð»Ð¸Ð½":7400,"!!!":7401,"ĠÐ·Ð°Ð²Ð¸ÑģÐ¸ÑĤ":7402,"ĠÐ¿ÐµÑĢÐµÑħ":7403,"Ð¾ÑıÐ²":7404,"Ġe":7405,"ĠÐ¸Ð´ÑĥÑĤ":7406,"ÐµÑħÐ°Ð»Ð°":7407,"Ð¸Ð¹ÑģÐºÐ¸Ñħ":7408,"ĠÐ·Ð°Ð¼ÐµÑĤÐ½Ð¾":7409,"ĠÑĨÐµÐ½ÑĤÑĢÐ°":7410,"ĠÐŁÑĥÑĤÐ¸Ð½":7411,"Ð³Ð°Ð»":7412,"ĠÑĤÐ²Ð¾ÐµÐ³Ð¾":7413,"ĠÑģÑĥÐ´Ñı":7414,"ÑĤÐµÑĦ":7415,"ĠÐºÑĢÐ°ÑģÐ°Ð²":7416,"ĠÐ·Ð°Ð´ÑĥÐ¼ÑĩÐ¸Ð²Ð¾":7417,"ĠÑĦÐ»Ð¾ÑĤ":7418,"ĠÐ¿Ð¾Ð´Ð¾ÑĪÐ»Ð°":7419,"ap":7420,"ĠÐºÑĥÐ¿Ð¸ÑĤÑĮ":7421,"ĠÐ¿ÑĢÐµÐºÑĢÐ°Ñī":7422,"ĠÐ²Ð½ÑĥÑĪ":7423,"Ð¾ÑģÐºÐ¾ÑĪ":7424,"ĠÐ·Ð°Ð¼Ð¾Ðº":7425,"ĠÐ²ÐµÑīÐµÐ¹":7426,"Ð°ÑīÐ¸Ñħ":7427,"Ð°ÑİÑīÐ¸ÑħÑģÑı":7428,"ÐŁÐµÑĢÐ²":7429,"ĠÑĢÐ¾Ð´Ð¸ÑĤÐµÐ»Ð¸":7430,"ÑĥÐ´Ð¸ÑĤÑĮ":7431,"ĠÐ¿ÑĢÐ¸Ð¼ÐµÑĢÑĥ":7432,"ÑĤÑı":7433,"ĠÐ¿ÑĢÐ¾ÑĩÑĮ":7434,"ĠÐ½ÐµÐ¿Ð¾Ð´Ð²Ð¸Ð¶":7435,"ÐĶÐ»Ñı":7436,"ĠÐľÐ°Ð½":7437,"ÑĤÐ¸Ñİ":7438,"ĠÑĢÑĥÑģÑģÐºÐ¸Ð¹":7439,"ĠÐ¿ÑĢÐ¾Ð¸Ð·Ð²Ð¾Ð´ÑģÑĤÐ²Ð°":7440,"ĠÐ¾ÐºÐ°Ð·Ð°ÑĤÑĮÑģÑı":7441,"ĠÐ¼ÐµÑĤÐ°Ð»Ð»Ð¸ÑĩÐµÑģÐº":7442,"ĠÐ±ÑĥÐ´ÑĥÑīÐµÐ¼":7443,"oc":7444,"ĠÐ¸Ð½Ð¾Ð¹":7445,"Ð½Ð¾Ð²ÐµÐ½Ð¸Ñı":7446,"ĠÑĩÑĥÐ²ÑģÑĤÐ²Ð¾Ð²Ð°Ð»Ð°":7447,"ĠÐ½Ð¸ÑĩÐµÐ¼":7448,"ĠÐ»Ð°Ð³ÐµÑĢ":7449,"Ð°ÑĢÐ´Ð°":7450,"ÑĥÑīÐ¸Ð¹":7451,"ĠÑĤÐµÐ°ÑĤÑĢ":7452,"ĠÐ¿Ð¾Ð»Ð½ÑĭÐ¹":7453,"ĠÐ¢ÑĢÐ¸":7454,"ÑĥÐ»Ñĭ":7455,"ĠÐĹÐ°Ð¼":7456,"ĠÑģÐºÑĢÑĭ":7457,"ĠÐ¡ÑĢÐµÐ´":7458,"ĠÐ²Ð¾ÑģÑĤÐ¾ÑĢ":7459,"ĠÐ¸Ð¼ÐµÐ»Ð°":7460,"ĠÐ¼Ð¾Ð·Ð³":7461,"ĠÐ¿ÑĢÐµÐ´Ð¿ÑĢÐ¸Ð½Ð¸Ð¼":7462,"ĠÐ¿Ð¾ÑģÐ»ÐµÐ´Ð½ÐµÐ¹":7463,"ĠÐ²Ð°ÑĪÐ¸Ñħ":7464,"ĠÑģÐ¿Ð¸ÑģÐ¾Ðº":7465,"ĠÐ·Ð°Ð¼ÐµÐ½":7466,"Ð°Ð»Ð¸ÑĤ":7467,"ĠÑĤÑĢÐ¾Ð½":7468,"Ð»ÐµÐ½Ð½Ð¾Ðµ":7469,"ĠÑģÐºÐ¾ÑĢÐ¾ÑģÑĤÑĮ":7470,"Ð°Ð¶Ð¸ÑĤÐµ":7471,"Ð¾Ð¼Ð°ÑĤ":7472,"ĠÐĿÐ¾Ð²Ð¾ÑģÑĤÐ¸":7473,"ĠÐ·ÑĢÑı":7474,"ĠÐ½ÐµÐ¾Ð´":7475,"ÐľÐ½Ðµ":7476,"ĠÑģÑĩÐ°ÑģÑĤÑĮÐµ":7477,"Ð¸ÑĢÑĭ":7478,"Ð¾Ð´Ð¸":7479,"ĠÐ±Ð¾Ð»ÑĮÑĪÐµÐ¹":7480,"ĠÐ´ÑĢÐ°Ð³Ð¾":7481,"ĠÐ¿Ð¾ÑĨÐµÐ»":7482,"ĠÐ°Ð½Ð°Ð»Ð¸Ð·":7483,"ist":7484,"ĠÐ½Ð°ÑģÑĤÐ°":7485,"ĠÑİÐ½Ð¾ÑĪ":7486,"ĠÐ¿ÑĢÐ¸Ð²ÐµÑģÑĤÐ¸":7487,"ĠÐ¿Ð¾Ð´Ð·ÐµÐ¼":7488,"45":7489,"ĠSt":7490,"ĠÐ¿ÑĢÐ¾Ð´Ð¾Ð»Ð¶Ð°Ð»Ð°":7491,"Ð½Ð¾Ð´ÑĥÑĪ":7492,"ĠÑĢÐµÐ³ÑĥÐ»ÑıÑĢ":7493,"Ð±ÑĥÑĢ":7494,"ĠÑĪÐ°Ð³Ð¾Ð²":7495,"ĠÐºÐ¾Ð»ÐµÑģ":7496,"ĠÑĢÐ²Ð°Ð½":7497,"ĠÐ¡ÑĤÑĢÐ°Ð½":7498,"ĠÐŁÑĢÐµÐ´ÑģÑĤÐ°Ð²":7499,"ĠÐ¿Ð¾ÐµÐ´":7500,"ĠÐ²ÑĭÐ²":7501,"ĠÐºÐ°Ð¶Ð´ÑĭÐ¼":7502,"ĠÐ±Ð¾Ð»ÑĮÑĪÐ¾Ð³Ð¾":7503,"ĠÐ£ÐºÑĢÐ°Ð¸Ð½Ð°":7504,"ÐķÐł":7505,"Ð¾Ð·Ð³":7506,"ÂłÐ½Ðµ":7507,"ĠÐ¾Ð±Ð¾ÑĢÐ¾Ð½":7508,"ĠÑģÑĤÐµÐ½Ñĥ":7509,"ĠÐºÑĥÑģÐº":7510,"ÑĤÐ¸Ð½Ñĭ":7511,"ÐµÐ²Ð¸ÑĩÐ°":7512,"ÐµÐ²ÑĭÐµ":7513,"ĠÐ¿ÑĥÑĪ":7514,"ĠÐ¾Ð³Ð½":7515,"ÐĵÐ°Ð·":7516,"ÐĿÐł":7517,"ĠÐ½Ð°Ð´ÐµÑı":7518,"ĠÑģÐ¾Ð¶":7519,"ĠÐ¿Ð¾Ð¶Ð°ÑĢ":7520,"ĠÐ¯Ð¿":7521,"ĠÐºÐ°ÑĪ":7522,"ĠÑħÑĥÐ´Ð¾Ð¶Ðµ":7523,"Ð½Ð°Ð´ÑĨÐ°ÑĤ":7524,"ĠÐ³Ð°Ð·ÐµÑĤ":7525,"Ð°Ð±Ð¾Ñĩ":7526,"ÐµÑĢÑĤÐ°":7527,"ĠÑģÐ¿Ð¾ÑģÐ¾Ð±ÐµÐ½":7528,"ĠÑģÐ¾Ð¾ÑĤÐ²ÐµÑĤÑģÑĤÐ²Ð¸Ð¸":7529,"ÐµÐ½ÑĤÐ¾Ð¼":7530,"Ð¾Ð¿ÑĢÐµÐ´":7531,"ÑıÐ¿":7532,"ĠÑģÑĤÑĭÐ´":7533,"ĠÐĿÐµÐ±":7534,"ĠÑģÐ¿ÑĢÐ¾ÑģÐ¸ÑĤÑĮ":7535,"Ð¸Ð¼ÑĭÐµ":7536,"ĠÑĥÐ»ÑĥÑĩÑĪ":7537,"ĠÐ·Ð°ÐºÐ»Ð¸Ð½":7538,"ĠÑĩÐµÑĢÐµÐ¿":7539,"ĠÑĥÐ´Ð¾Ð²Ð¾Ð»ÑĮÑģÑĤÐ²Ð¸ÐµÐ¼":7540,"ĠÐ¿Ð¾ÑģÑĢÐµÐ´":7541,"ĠÐĴÐ°Ð½":7542,"ers":7543,"ĠÐ´ÐµÑĢÐµÐ²ÑĮÐµÐ²":7544,"ĠÐ¾Ð±ÑĢÐ°Ð·Ð¾Ð²Ð°Ð½Ð¸Ñı":7545,"Ð¸Ð²ÑĪÐ¸ÐµÑģÑı":7546,"ĠÐ¿Ð¾ÑĢÑıÐ´ÐºÐ°":7547,"ĠÐŁÐµÑĢÐ²ÑĭÐ¹":7548,"ÐµÑĤÐ¾Ð²":7549,"ĠÐºÐ¾ÑĢÐ¿ÑĥÑģ":7550,"ĠÐºÐ²Ð°ÑĢÑĤÐ¸ÑĢÑĥ":7551,"ĠÐ¸Ð½Ð´Ð¸Ð²Ð¸Ð´Ñĥ":7552,"ĠÐºÐ¾Ð¼Ð°Ð½Ð´Ð°":7553,"ÂłÐļÑĤÐ¾":7554,"ÂłÐļÐ¾Ð½ÐµÑĩÐ½Ð¾":7555,"ĠÐ¾Ð±Ð½Ð°ÑĢÑĥÐ¶Ð¸Ð»":7556,"Ð»Ð¸ÑĤ":7557,"ĠÐºÐ½Ð¸Ð³Ðµ":7558,"ĠÐ²Ð¾ÐµÐ½Ð½Ð¾Ð¹":7559,"Ð¾Ð²Ð°Ð½Ð½ÑĭÑħ":7560,"ÐĿÐŀ":7561,"ÐĽÐĲ":7562,"ĠÐ±ÑĥÐ¼Ð°Ð¶":7563,"ĠÑģÐ»Ð¾":7564,"ÑģÑĤÐµÑĢ":7565,"ĠÐ²Ð·Ð±":7566,"ĠÐºÐ¾Ð´":7567,"ĠÑĦÐ¸Ð»ÑĮÐ¼":7568,"ĠÐ¾Ð´ÐµÐ¶Ð´Ñĥ":7569,"Ð¸ÑĢÐ¾Ð²Ð°Ð½Ñĭ":7570,"ĠÐ±Ñĥ":7571,"ĠÑĦÐ¾Ð½Ðµ":7572,"ĠÑĥÑģÐ»ÑĥÐ³":7573,"ĠÐ¿Ð¾Ð²ÑĤÐ¾ÑĢÐ¸Ð»":7574,"ÑģÑĤÐ²ÐµÐ½Ð½Ð¾Ð¼":7575,"ĠÐ´Ð½ÐµÐ²":7576,"ĠÐ±ÑĭÐ²ÑĪÐ¸Ð¹":7577,"ĠÐ¾ÑĤÐ²ÐµÑĩÐ°Ð»":7578,"ĠÐ¾Ð³Ð»Ñı":7579,"ĠÐ¿Ð¾Ð½Ð¸Ð¼Ð°ÑĤÑĮ":7580,"ÑģÐ¸Ñı":7581,"ĠÑģÐ¸Ð´Ð¸ÑĤ":7582,"ĠÐ½Ð°Ð¼Ð½Ð¾Ð³Ð¾":7583,"ĠÐ¡Ð¾Ð³Ð»Ð°ÑģÐ½Ð¾":7584,"ĠÑįÐºÑģÐ¿ÐµÐ´":7585,"ĠÐºÑĢÐµÑģÐ»Ð¾":7586,"ÑĭÐ²Ð°Ð½Ð¸Ñı":7587,"ĠÐ¤ÐµÐ´ÐµÑĢÐ°ÑĨÐ¸Ð¸":7588,"ĠÐ¸Ð½Ð¶ÐµÐ½ÐµÑĢ":7589,"ĠÐ²Ð½Ð¸Ð·Ñĥ":7590,"ĠÐĿÐ°Ð²":7591,"ĠÐĶÐ¾Ð¼":7592,"35":7593,"ĠÑģÐ¸Ð»Ð°Ñħ":7594,"ĠÐŁÐ°ÑĢÐ¸Ð¶":7595,"Ð³Ð¾Ð»":7596,"ĠÐ¡ÐµÐ²":7597,"ĠÑīÐµÐ»":7598,"ÑħÐ¸":7599,"ĠÐ¸Ð·Ð¼ÐµÐ½ÐµÐ½Ð¸Ñı":7600,"ĠÐ·Ð°Ð²Ð¾ÐµÐ²":7601,"ÐµÑĤÐµÑģÑĮ":7602,"ĠÑĤÐµÐ»ÐµÐ³":7603,"ĠÐ¿Ð°Ð¿Ð°":7604,"ĠÐºÐ½Ð¾Ð¿":7605,"ĠÐ²ÐµÐ»Ð¸ÑĩÐµ":7606,"ĠÐĿÐµÐºÐ¾ÑĤÐ¾ÑĢÑĭÐµ":7607,"ĠÐ±ÐµÐ¶Ð°ÑĤÑĮ":7608,"ĠÐ´Ð²Ð¾Ð¹":7609,"________":7610,"ĠÑĢÐ°ÑģÑģÐ»Ð°Ð±":7611,"ĠÐ²Ð¿Ð»Ð¾ÑĤ":7612,"ĠÐ¿ÑĢÐ¸Ð½Ð¾Ñģ":7613,"Ð½ÐµÐ½Ð¸Ñı":7614,"ĠÐĲÐ½Ð³Ð»Ð¸Ð¸":7615,"ĠIn":7616,"ĠÑįÐ»ÑĮÑĦ":7617,"ĠÑĪÐºÐ¾Ð»Ñĥ":7618,"ĠÐºÑĢÐ¾Ð²ÑĮÑİ":7619,"ĠÐľÑĥÑĢ":7620,"ĠÐĺÐ¾":7621,"ĠÐ¿Ð¾Ð»ÐºÐ°":7622,"ĠÐºÐ°ÑĤÐ°ÑģÑĤÑĢÐ¾ÑĦ":7623,"ĠÐ²ÑģÑıÐºÐ¾Ð³Ð¾":7624,"ĠÐ¶ÐµÐ½Ð¾Ð¹":7625,"ĠÐ»Ð°Ð¼Ð¿":7626,"ÑĮÑıÐ²":7627,"ĠÑĢÐ°Ð·Ð²Ð¸ÑĤÐ¸Ðµ":7628,"ĠÐ¾ÑĤÐºÑĢÑĭÑĤÑĮ":7629,"ĠÐ²ÑĢÐ°Ð³Ð°":7630,"ĠÐ´Ð¾Ð¶":7631,"ĠÐ¿ÑĢÐ¸ÑĩÐ¸Ð½Ðµ":7632,"ĠÐ¿Ð¾Ð¼Ð¾Ð¶ÐµÑĤ":7633,"ĠÐ¿ÑĢÐ¸Ð´ÐµÑĤ":7634,"ĠÐ¾Ð±ÑĢÐ°Ð´":7635,"Ð¾Ð²Ð°Ð½Ð½ÑĭÐµ":7636,"ĠÑģÐ±Ð¾ÑĢÐ½Ð¾Ð¹":7637,"ĠÐ²ÐµÐ´ÐµÑĤ":7638,"Ð¸Ð½Ð°Ñħ":7639,"ĠÑģÐ¼Ð¸ÑĢ":7640,"Ð±Ð¾Ð»ÑĮ":7641,"ÂłÐŁÐ¾":7642,"ĠÑģÐ¿Ð°ÑģÐ¸Ð±Ð¾":7643,"ĠÐ²Ð·Ð´ÑĢÐ¾Ð³":7644,"ĠÐ¿ÑĢÐ¾ÑĨÐµÐ½ÑĤÐ¾Ð²":7645,"ĠÐ¡Ð¸Ð´":7646,"ÑİÐ½":7647,"Ð¸ÑģÐ»Ð°Ð²":7648,"ĠÑĢÐ¾ÑģÐºÐ¾ÑĪ":7649,"ÑĢÐ¸Ñħ":7650,"Ð¸Ð»Ð¾Ð²":7651,"Ð¾Ð²Ð°Ð½Ð¾":7652,"ĠÑģÐ½ÑıÐ»":7653,"ĠÐ¿Ð»Ð°Ð½Ñĭ":7654,"Ġi":7655,"ĠÐ¿ÑĢÐ¾ÑĦÐµÑģÑģÐ¾ÑĢ":7656,"ÑıÑİÑī":7657,"ĠÐ¾ÑĤÐºÐ°Ð·Ð°Ð»ÑģÑı":7658,"Ð»Ð¾Ð³Ð¾":7659,"ĠÐ²Ð·ÑıÐ»Ð¸":7660,"ĠÐ¡Ð°Ð²":7661,"ĠÑģÐ¿Ð¾ÑĢÑĤÐ¸Ð²":7662,"Ð¸Ð»Ñĭ":7663,"ÑĤÐµÑĢÐ°":7664,"ĠÐ²ÑĭÑħÐ¾Ð´Ð°":7665,"ĠÐ¿ÑĢÐ¾ÑĪÑĥ":7666,"ĠÐ¾Ð±ÑĬÑıÑģÐ½Ð¸Ð»":7667,"Ð°ÑĤÐ¾Ð¹":7668,"ĠÐ¿Ð¾Ð¸Ð½ÑĤÐµÑĢÐµÑģÐ¾Ð²Ð°Ð»ÑģÑı":7669,"Ð¢ÐµÐ¿ÐµÑĢÑĮ":7670,"ĠÑģÑĤÐ°ÐºÐ°Ð½":7671,"ĠÑĢÐ°ÑģÑģÐµ":7672,"ĠÐ·ÐµÐ»":7673,"ĠÑĤÑĢÐµÐ½ÐµÑĢ":7674,"ĠÐ·Ð°ÑīÐ¸ÑĤÑĭ":7675,"ĠÑĦÐ¾ÑĤÐ¾":7676,"ÐµÑģÐ¿Ð¾Ð½Ð´":7677,"ĠÐŀÑģÐ½Ð¾Ð²":7678,"ÑĢÐ¸Ð²":7679,"Ð°Ð»ÑĮÐ½Ð¾Ð¼Ñĥ":7680,"80":7681,"Ð¾ÑĩÐºÐ¾Ð¹":7682,"Ð¸Ð¼Ð¾Ð¼Ñĥ":7683,"ĠÐĲÐ½Ð½Ð°":7684,"ĠÑģÑĥÐ¼ÐµÐ»":7685,"Ð¾Ð±ÐµÐ´":7686,"ĠÐ¸ÑĤÐ¾Ð³":7687,"ÑĢÐ°Ð±Ð¾ÑĤ":7688,"Ð»Ð¸Ð¿":7689,"ÑģÐºÑĥ":7690,"ĠÐ¢ÐĲ":7691,"ÑĩÑĥ":7692,"ĠÑĢÐ¾ÑģÑĤÐ°":7693,"ĠÑĢÐ°Ð±Ð¾ÑĩÐ¸Ñħ":7694,"ÑĨÐ¸Ð¾Ð½Ð½ÑĭÑħ":7695,"ĠÐ¾Ð±ÑĭÐº":7696,"ĠÑģÐ¾Ð¾Ð±ÑĢÐ°Ð·":7697,"ÑĨÐ¸Ð¾Ð½Ð½Ð¾Ð³Ð¾":7698,"ĠÐĴÑģÑĳ":7699,"ĠÑıÑĢÐºÐ¾":7700,"ĠÐ¿Ð¾Ð¾Ð±ÐµÑī":7701,"est":7702,"Ð½Ð°Ð²":7703,"ĠÐŁÐ°":7704,"ĠÐ¸Ð½ÑĤÐµÑĢÐ²ÑĮÑİ":7705,"ĠÐ·Ð°Ð»Ð¾Ð¶":7706,"ĠÐµÐ²ÑĢÐµ":7707,"Ð¾ÑĩÐ¸":7708,"ĠÐ´Ð¾Ð±ÑĢÐ¾Ð²":7709,"Ð»Ð°Ñı":7710,"ĠÐ³ÑĢÐ°Ð´":7711,"ĠÐ¾Ð¿ÐµÑĢÐ°ÑĤÐ¸Ð²":7712,"ĠÐ¾ÑĤÑģÑĥÑĤÑģÑĤÐ²Ð¸Ðµ":7713,"ĠÐłÐ¾Ð·":7714,"ĠÐ¤Ð¸Ð½":7715,"ĠÐ¿ÑĢÐ¾Ð»ÐµÑĤ":7716,"ĠÐ³Ð¸Ð³Ð°Ð½ÑĤ":7717,"ĠÐºÐ¾Ð¼Ð°Ð½Ð´Ñĥ":7718,"ĠÐ½Ð°Ð½ÐµÑģ":7719,"Ð°ÐµÐ¼ÑĭÐµ":7720,"ĠÑģÐ¾ÐºÑĢÐ°Ñī":7721,"ĠÐĲÑĤ":7722,"ĠÐ¿Ð¾ÑģÑĤÐ°Ð²Ð¸ÑĤÑĮ":7723,"ĠÑįÑĦÑĦÐµÐºÑĤ":7724,"Ð°ÑĤÑĮÑı":7725,"ĠÐĶÐ°Ð²Ð°Ð¹":7726,"Ð¸Ð½ÑĥÐ»Ð°ÑģÑĮ":7727,"ÐµÑģÑĤÐ°":7728,"ĠÐŀÑĤÐº":7729,"ĠÐ½Ð°Ð·ÑĭÐ²Ð°ÑİÑĤ":7730,"ĠÐ¼ÑıÐ³ÐºÐ¾":7731,"ĠÐ¿ÑĢÐ¾ÐµÐºÑĤÐ°":7732,"ri":7733,"ĠÐĿÐµÑģÐºÐ¾Ð»ÑĮÐºÐ¾":7734,"Ð¾Ð»Ð·":7735,"Ð°Ð²ÐºÐ°Ð·":7736,"ĠÐ½Ð°ÑģÑĤÐ°Ð²":7737,"ĠÐ¡Ð¾Ð²ÐµÑĤÐ°":7738,"ĠÑģÑĤÐ°ÑĢÐ°Ð»ÑģÑı":7739,"ĠÑĥÑĪÐ¸":7740,"ĠÐ´ÐµÐ¶ÑĥÑĢ":7741,"ĠÑĢÐ°ÑģÑģÐºÐ°Ð·ÑĭÐ²Ð°Ð»":7742,"ÐµÑģÑĤÐ½Ð¾":7743,"ĠÐ¾Ð´ÐµÑĤ":7744,"ÐļÐ¾Ð½":7745,"Ð¾Ð´Ð¾Ð±":7746,"ĠÐļÑĥÐ·":7747,"ĠÐľÐµÑĢ":7748,"Ð¸Ð¼ÑĭÑħ":7749,"ĠÑĢÑĥÑħ":7750,"ĠÐĹÐ°Ð±":7751,"ĠÐ½ÐµÐ²Ñĭ":7752,"ĠÐ³ÑĢÐ¾Ð±":7753,"ĠÑģÐ°Ð¼ÑĥÑİ":7754,"ĠÐ½Ð¾Ð²Ð°Ñı":7755,"ĠÑģÐ¿Ð¸ÑģÐº":7756,"ĠÐ´ÐµÑĢÐ¶Ð°Ð»":7757,"Ð²ÑıÑĤ":7758,"Ð²ÑıÐ·":7759,"ĠÐ¿Ð¾Ð´Ð¾Ð±Ð½ÑĭÑħ":7760,"ĠÐ¿Ð°Ð»ÑĥÐ±":7761,"ĠÑģÐºÐ°Ð¼":7762,"ĠÐ¼ÑĭÑģÐ»Ñı":7763,"ĠÐ³Ð³":7764,"ĠÐĺÐ²Ð°Ð½Ð¾Ð²Ð¸Ñĩ":7765,"Ð¸Ð½Ð°Ð¼Ð¸":7766,"ÑģÑĤÐ²Ð¸Ð¹":7767,"Ð¡Ð°Ð¼":7768,"ÐºÐµÑĢ":7769,"ĠÐ¸ÑģÐºÑĥÑģÑģÑĤÐ²Ð°":7770,"ĠÐ²Ð¾ÑĪÐ»Ð¸":7771,"ĠÐ¾ÑĢÐ¸":7772,"ĠÑĢÐµÐ²Ð¾Ð»ÑİÑĨÐ¸Ð¸":7773,"ĠÐ¼Ð¸Ð½Ð¸ÑģÑĤÑĢ":7774,"ĠÐ±ÑĢÑİ":7775,"op":7776,"Ð½ÑĥÐ»Ð¾ÑģÑĮ":7777,"ĠÐºÐ¸ÑĢ":7778,"ÐµÐ¶Ð´Ðµ":7779,"Ð½ÐµÑĪÑĮ":7780,"ĠÐľÐ¾ÑģÐºÐ²Ð°":7781,"eb":7782,"ĠÑģÐ¾Ð·Ð´Ð°Ð½Ð¸Ñı":7783,"ĠÐ¼Ð¸ÑĤ":7784,"ĠÑĥÐ±Ð¸Ð»":7785,"ĠÐ¾ÑģÑĤÐ°Ð²Ð°ÑĤÑĮÑģÑı":7786,"Ð»Ð¸Ð»":7787,"ĠÐ¼Ð°ÑģÑĪÑĤÐ°Ð±":7788,"ĠÐºÐ²Ð°ÑĢÑĤÐ¸ÑĢÐµ":7789,"ĠÐ¿ÑĢÐ¸Ð·Ð½Ð°":7790,"ĠÐ²ÑĭÑģÐºÐ°Ð·ÑĭÐ²":7791,"av":7792,"Ñŀ":7793,"ĠÐ¿ÑĢÐ¸Ð¹":7794,"ĠÐ¾Ð±ÑĬÑıÑĤ":7795,"ĠÑģÑĤÐ¾ÑıÐ²":7796,"ĠÐ²Ð¾Ð»Ð½Ñĥ":7797,"ĠÐ¸Ð¼Ð¿ÐµÑĢÐ¸Ð¸":7798,"Ð°Ð²ÑĪÐ¸Ð¼":7799,"ĠÐºÑĢÐ°Ñİ":7800,"ĠÐ¿ÑĢÐ¸Ð²Ð¾Ð´Ð¸ÑĤ":7801,"ĠÐ¾ÑĤÑĬ":7802,"ĠÐ§ÐµÐ³Ð¾":7803,"ĠÐ²Ð·Ð´":7804,"ĠÐ¾ÑĤÐ½Ð¾ÑĪÐµÐ½Ð¸Ñİ":7805,"ĠÐ¿ÑĢÐµÐ·ÑĢ":7806,"Ð¸ÑģÑĤÐ°Ð½":7807,"ÑĦÑĢ":7808,"ĠÐ²Ð±":7809,"Ð¸ÑĢÐ¾Ð²Ð°Ð½Ð½ÑĭÑħ":7810,"ĠÐ¾Ð±ÑīÐµÐ¹":7811,"ĠÑģÐ¼ÐµÐ»":7812,"ÑĦÐ¸ÑĨÐ¸":7813,"ĠÐ»ÐµÐºÐ°ÑĢ":7814,"Ð²ÑĤÐ¾ÑĢÑĭÑħ":7815,"Ð¸ÑĤÐ»":7816,"ĠÐ¿ÑĢÐ¸ÑĢÐ¾Ð´":7817,"ĠÑĤÐ¾Ð½Ð¾Ð¼":7818,"Ð´Ð²Ð°":7819,"ĠÐ¶ÐµÐ½Ñĥ":7820,"ĠÐºÑĢÐ¾Ð²Ð°ÑĤÑĮ":7821,"Ġ2010":7822,"ÐµÑĢÐ½":7823,"ĠÑĤÐ¾Ð½Ð½":7824,"Ð°Ð¸":7825,"ĠÐŀÑģÐ¾Ð±ÐµÐ½Ð½Ð¾":7826,"Ð²Ð¾ÑĤ":7827,"ĠÑĩÐ¸ÑģÐ»Ð°":7828,"Ð´Ñı":7829,"ĠÐºÐ¾Ð½ÑĤÐ°ÐºÑĤ":7830,"ÐµÐ´ÐµÐ»ÑĮ":7831,"ÐµÐºÑĢÐµÑĤ":7832,"ĠÐ©":7833,"ĠÐ·Ð°Ð¿Ð»Ð°ÑĤ":7834,"ĠÐ¶Ð°Ð»ÑĮ":7835,"ĠÐĹÐ°ÑĤÐ¾":7836,"ÐºÐ¾ÑģÑĤÐ¸":7837,"ĠÑĢÑĭÐ¶":7838,"ĠÐ¸Ð¼Ð¿ÐµÑĢÐ°ÑĤÐ¾ÑĢ":7839,"ĠÐĿÐ°Ð¿Ð¾Ð¼Ð½Ð¸Ð¼":7840,"ĠÑģÑĢÐ°Ð²Ð½ÐµÐ½Ð¸Ñİ":7841,"ĠÐ¾Ð³Ð»ÑıÐ´ÐµÐ»":7842,"ĠÐ½ÐµÐ´ÐµÐ»ÑĮ":7843,"ĠÑģÐ¼ÑĭÑģÐ»Ð°":7844,"ĠÐ¿Ð¾Ð»Ð¾Ð¶ÐµÐ½Ð¸Ð¸":7845,"ĠÑĢÐ°ÐºÐµÑĤ":7846,"ĠÐ½ÐµÐ½Ð°Ð²Ð¸Ð´":7847,"ĠÐ¿Ð¾Ð³Ð¾":7848,"ĠÐĿÑĥÐ¶Ð½Ð¾":7849,"ĠÐ²ÑĭÑħÐ¾Ð´Ð¸ÑĤ":7850,"ĠÐ·Ð°ÐºÐ¾Ð½Ð°":7851,"ĠÑīÐµÐº":7852,"ĠÐ¾Ð±ÑĭÐºÐ½Ð¾Ð²":7853,"ĠÐŁÐ¾ÑħÐ¾Ð¶Ðµ":7854,"Ġ2012":7855,"ĠÑĢÐ°Ð´Ð¾ÑģÑĤÐ¸":7856,"ĠÑħÑĢÐ¸Ð¿":7857,"ĠÐ±Ð¾ÑĢÑĮÐ±Ðµ":7858,"ĠÐ¿Ð¾Ð´Ð¾Ð¶Ð´":7859,"ÑĢÑĥÐ½":7860,"ĠÑģÑĥÐ´ÑĮÐ±Ð°":7861,"ĠÐ¼ÐµÑģÑĤÐ½ÑĭÑħ":7862,"ĠÐ´ÐµÐ¼Ð¾Ð½ÑģÑĤÑĢ":7863,"ĠÐºÐ½ÑıÐ·Ñı":7864,"ĠÐ£Ð±":7865,"ĠÐļÐ°ÐºÐ¾Ð¹":7866,"ĠÐļÑĥÐ´Ð°":7867,"ĠÐłÐ¸Ñĩ":7868,"ĠÐºÐ¾Ð·":7869,"ĠÐ¿ÑĢÐµÑģÑĤÑĥÐ¿Ð»ÐµÐ½Ð¸Ñı":7870,"ĠÑģÐ²Ð¾Ð±Ð¾Ð´Ñĭ":7871,"ĠÐ¿ÑĢÐ¾ÑĤÑıÐ¶ÐµÐ½Ð¸Ð¸":7872,"ĠÑĢÐ¾Ð´Ð¸Ð»ÑģÑı":7873,"ĠÐĽÐ¾ÑĢ":7874,"Ð¸ÑĢÐ°ÐµÑĤ":7875,"Ð½ÑıÐµÑĤÑģÑı":7876,"ĠÑĦÐµÐ´ÐµÑĢ":7877,"ĠÐ²Ð»Ð¸ÑıÐ½Ð¸Ðµ":7878,"ĠÐ¿ÑĢÐ°Ð²Ð¸Ð»Ð°":7879,"ĠÐ´ÑĥÐ¼Ð°ÐµÑĤ":7880,"ÂłÐ¢Ð¾Ð³Ð´Ð°":7881,"ĠÐ³Ð»Ð°Ð²Ð½Ð¾Ð³Ð¾":7882,"ĠÐ¾Ð¶Ð¸Ð²":7883,"ĠÐ²Ð¾Ð·ÑĢÐ°ÑģÑĤÐµ":7884,"ĠÐ¿Ð°ÑĢÐ°":7885,"ĠÑĢÐ°Ð·Ð¼ÐµÑī":7886,"ĠÐ±Ð¾Ð»ÐµÐ·Ð½Ð¸":7887,"Ð³Ð¾ÑĤ":7888,"th":7889,"Ð°ÑĤÐµÐ»ÑĮÐ½Ð¾Ðµ":7890,"ĠÐ¿ÑĭÑĤÐ°Ð»Ð¸ÑģÑĮ":7891,"ÐµÑģÑĤÑĢ":7892,"ÐµÐ¹ÑĤ":7893,"Ð°Ð´Ð¸Ð¼":7894,"ÐĿÐĲ":7895,"ĠÑģÑĥÐ´ÐµÐ±":7896,"ĠÐ¿Ð¾Ð´Ð¾Ð±Ð½ÑĭÐµ":7897,"ĠÐ»Ð°Ð±Ð¾ÑĢÐ°ÑĤÐ¾ÑĢ":7898,"ĠÑĢÐ°ÑģÑĤÐ²":7899,"Ð¸Ð½Ð³Ð°":7900,"ĠÑģÑħÐ²Ð°ÑĤÐ¸Ð»":7901,"ĠÐ²ÐµÑĢÐ½ÑĥÑĤÑĮ":7902,"ĠÐ·Ð°ÑıÐ²Ð¸Ð»Ð°":7903,"ÑĤÐµÑĢÐ½":7904,"ĠÐ¿ÑĢÐµÐ´ÑĥÐ¿ÑĢÐµÐ¶Ð´":7905,"ĠÐµÐ´Ð¸":7906,"Ð°ÑİÑīÐ¸ÐµÑģÑı":7907,"ĠÐ¿Ð¾Ð¼ÐµÑģÑĤ":7908,"Ð¸Ð»ÐµÐ¹":7909,"ĠÑĤÑĢÐµÐ¿":7910,"ĠÐ¿Ð¾Ð¹Ð´ÐµÑĤ":7911,"ĠÑĤÐ°Ð¸Ð½":7912,"ĠÑģÑĤÐ¾Ð»Ñĥ":7913,"ĠÐ¸Ð·Ð¾Ð±ÑĢ":7914,"ĠÐ²ÑĭÐ´Ð¾Ñħ":7915,"Ð¾ÑĢÐ°Ð´":7916,"ĠÑĤÐ¾ÑĤÑĩÐ°Ñģ":7917,"ĠÐĶÐ¶Ð¾ÑĢÐ´Ð¶":7918,"ĠÑĥÐ¿Ð¾Ð¼":7919,"Ð°Ð´ÑĢÐ°ÑĤ":7920,"ĠÐ±ÐµÑģÐ¿ÑĢ":7921,"ĠÐ¿ÑĢÐ¾Ð·Ð²ÑĥÑĩ":7922,"ĠÐ¿Ð¾Ð´ÑģÐº":7923,"our":7924,"ĠÐ¿Ð¾ÑıÑģÐ½Ð¸Ð»":7925,"ĠÐ¿Ð¾ÐºÑĢÑĭÐ²":7926,"ÐµÐ²ÑĭÐ¼":7927,"ĠÐŀÑĤÐµÑĨ":7928,"ÐµÐ½Ð´Ð°":7929,"ĠÐ½Ð¸ÐºÑĥÐ´Ð°":7930,"ĠÐ²Ð¾Ð·Ð²ÑĭÑĪ":7931,"ĠÑĤÐ²Ð¾Ðµ":7932,"ĠÐ¿ÑĢÐ¸ÑĢÐ¾Ð´Ñĭ":7933,"ĠÑĤÐ°Ð»Ð°Ð½ÑĤ":7934,"ĠÐĳÐ¾Ð³Ñĥ":7935,"Ġ31":7936,"ĠÑĥÑģÐ¿ÐµÐ»Ð¸":7937,"ĠÑģÐ²ÐµÐ´ÐµÐ½Ð¸Ñı":7938,"ĠÐ·Ð°ÐºÐ°Ð½ÑĩÐ¸Ð²":7939,"ĠÐ²ÐµÐ·":7940,"ĠÑıÐ¹":7941,"ĠÐ¡ÐµÑĢÐ³Ðµ":7942,"Ð°ÑģÐ¾Ð²":7943,"ĠÐ¿ÑĢÐ¸Ð»Ð¾Ð¶":7944,"ĠÑĤÑĢÐµÐ²Ð¾Ð¶":7945,"ĠÐ¿Ð¾Ð´Ð¾Ð±Ð½Ð¾Ð³Ð¾":7946,"ĠÐ¡ÐµÐ½":7947,"Ð¾ÑĪÐµÐ»":7948,"ĠÐºÑĥÑĢÑĤ":7949,"ĠÐĶÐµÐ¼":7950,"ĠÐ²ÑĭÐ³Ð»ÑıÐ´Ð¸ÑĤ":7951,"ĠÐ¾Ð±Ð¸Ð¶":7952,"ĠÐ½ÐµÐ·Ð°Ð¼ÐµÑĤ":7953,"ĠÑĩÐµÑĢÐ½ÑĭÐµ":7954,"ĠÑģÐ¾Ð²ÐµÑĢÑĪÐµÐ½":7955,"ĠÐ½ÐµÐ²Ð¾Ð»ÑĮÐ½Ð¾":7956,"quot":7957,"ĠÑĥÑĪÐ»Ð°":7958,"ĠÑģÐ¿Ð¸Ð½Ðµ":7959,"od":7960,"ĠÐ±ÐµÑĢÐµÐ³Ð°":7961,"ĠÑģÐ¾Ð¾Ð±ÑĢÐ°Ð¶":7962,"ĠÐ¿Ð¾Ð»ÑĥÑĩÐ¸ÑĤÑģÑı":7963,"Ð°ÑħÐ°":7964,"ĠÐ¼ÐµÑĢÐ·":7965,"Ð¾Ð¼Ð½ÐµÐ½Ð½Ð¾":7966,"Ð¸ÑĩÑĮ":7967,"ĠÑĥÑĩÐ¸ÑĤÐµÐ»ÑĮ":7968,"ÐµÑĪÐµÐ½":7969,"ĠÐ´Ð¸Ñģ":7970,"ÑĮÑİÑĤ":7971,"Ð¾Ð²ÑĭÐ¼Ð¸":7972,"ĠÐ¼Ð¸ÑĢÑĥ":7973,"ÑĥÑİÑīÐµÐ³Ð¾":7974,"ĠÐ³ÑĢÐ°Ð½Ð¸ÑĨÑĭ":7975,"ĠÐ¿ÐµÑĢÐµÐ´Ð°ÑĤÑĮ":7976,"Ġ<":7977,"Ð¸Ð²Ð°Ð»Ð¾":7978,"ĠÐ¿Ð¾Ð´Ð½ÑıÐ»Ð°":7979,"ĠÐ»ÐµÐ¹ÑĤÐµÐ½Ð°Ð½ÑĤ":7980,"ĠÑĥÐ²ÐµÑĢÐµÐ½Ð°":7981,"ĠÐ¼Ð¾Ð»Ð¾Ð´ÑĭÑħ":7982,"ĠÐ¡Ð°ÑĢ":7983,"ĠÐ³Ð²Ð°ÑĢÐ´":7984,"Ð½ÐµÐ¹ÑĪÐ¸Ñħ":7985,"ĠÐ´ÐµÐ²ÑıÑĤÑĮ":7986,"ÑĥÐ³Ð¾Ð»ÑĮ":7987,"ĠÑĤÑĢÐ¾Ð³":7988,"ĠÑĢÐ¸Ð¼":7989,"ĠÐ¸Ð·Ð³Ð¾ÑĤÐ¾Ð²":7990,"ĠÐ¾Ð±Ð½Ð°Ð¶":7991,"ĠÐ¿Ð¾Ð´Ð±Ð¾ÑĢÐ¾Ð´":7992,"ĠÑģÑĤÐ°ÑĤÐ¸ÑģÑĤ":7993,"ĠÑģÐ°ÑĢ":7994,"Ġ70":7995,"ĠÑįÐ»ÐµÐºÑĤÑĢÐ¾Ð½":7996,"ÑĳÐ½Ð½ÑĭÑħ":7997,"ĠÐ²Ð½ÐµÑģ":7998,"ĠÑģÐ»ÑĥÐ¶Ð±Ñĥ":7999,"âĢĿ,":8000,"ĠÐĴÐ°Ð»ÐµÐ½ÑĤ":8001,"ĠÑģÑĤÑĢÐ¾Ð³":8002,"ÑģÐ»Ð°Ð²":8003,"ĠÐ°ÑĢÑħÐ¸ÑĤ":8004,"ĠÐ¿Ð¾Ð²ÑĢÐµÐ¶Ð´":8005,"ĠÐ¶Ð¸ÑĤÐµÐ»Ð¸":8006,"ĠÐ½ÐµÐ¸Ð·Ð²ÐµÑģÑĤÐ½Ð¾":8007,"ĠÑĤÑĥÐ¼Ð°Ð½":8008,"ÐµÐ»Ð»ÐµÐº":8009,"ĠÐ´Ð¾ÑĢÐ¾Ð³Ð°":8010,"ĠÐ¾Ð±ÐµÑĢÐ½ÑĥÐ»ÑģÑı":8011,"ĠÐ¸Ð½ÑĦÐ¾ÑĢÐ¼Ð°ÑĨÐ¸Ñı":8012,"ĠÑĤÑĢÐµÐ±Ð¾Ð²Ð°Ð½Ð¸Ñı":8013,"ĠÑĥÐ²Ð»ÐµÐº":8014,"ĠÑİÐ±":8015,"Ð¾Ð¿ÑĢÐ¾":8016,"ĠÑģÐ²Ð°Ð´ÑĮ":8017,"ĠÐ³Ð°Ð·ÐµÑĤÑĭ":8018,"ĠY":8019,"ĠÐ²ÐºÐ»Ð°Ð´":8020,"ĠÐ¿ÑĭÑĤÐ°Ð»Ð°ÑģÑĮ":8021,"ĠÐ¿Ð»Ð¾Ð´":8022,"ÑĤÐ¾ÑĢÐ¾Ð¿":8023,"ĠÐ½ÐµÐ³Ð¾Ð´":8024,"ĠÐ²ÐµÐ·Ð´Ðµ":8025,"ĠÐ¿ÑĢÐ¸Ð¹ÑĤÐ¸":8026,"Ð¿Ð°Ð½Ð¸Ð¸":8027,"ĠÑĥÐ²Ð¸Ð´ÐµÐ²":8028,"ĠÐ´ÐµÑĢÐµÐ²ÑĮÑı":8029,"ĠÐĺÐ·ÑĢÐ°":8030,"ĠÑģÐ»ÑĭÑĪÐ°Ð»Ð°":8031,"ĠÐ¸Ð´ÐµÐ¸":8032,"ÐłÐ¾ÑģÑģ":8033,"ĠÐ¾Ð¿ÑĥÐ±Ð»Ð¸Ðº":8034,"ĠÑĥÐ´Ð°ÑĢÐ°":8035,"ĠÐ²ÑģÐ¿Ð¾Ð¼Ð½Ð¸ÑĤÑĮ":8036,"ĠÐºÑĢÐ¾ÑĪ":8037,"Ġ&":8038,"ĠÐ¾Ð´ÐµÑı":8039,"ĠÑģÐ»Ð¸Ð²":8040,"ĠÑģÑĥÑĤÐ¸":8041,"ĠÐŁÑĥÑĪ":8042,"ĠÑģÑĤÑĢÐµÐ»Ñı":8043,"ĠÑģÑĤÑĢÐ°Ð½Ñĥ":8044,"ĠÐ¸ÑģÑĤÐ¾ÑĩÐ½Ð¸Ðº":8045,"ÐŁÑĢÐ°Ð²":8046,"Ð½ÐµÐ»":8047,"ĠÐŁÐµÑĤÐµÑĢÐ±ÑĥÑĢ":8048,"ĠÐĽÐ°ÑĢ":8049,"ĠÑģÐ¾ÑĤÑĢÑĥÐ´Ð½Ð¸ÑĩÐµ":8050,"ÑģÐ¸Ð½":8051,"Ð¾Ð¼Ð¾Ñī":8052,"ĠÐĴÑģÐµÐ³Ð¾":8053,"ĠÑĥÐ´Ð°ÑĢÐ¸Ð»":8054,"ĠÐ¿ÑĢÐ¾ÑĪÐµÐ¿ÑĤÐ°Ð»":8055,"ĠÑĢÐ°Ð´Ð¾ÑģÑĤÑĮ":8056,"Ð°Ð¶ÐµÑĤ":8057,"ĠÑģÐ¾ÑĤÑĢÑĥÐ´Ð½Ð¸ÐºÐ¾Ð²":8058,"ĠÑĤÑĢÐµÐ±ÑĥÐµÑĤ":8059,"ĠâĢ¦":8060,"ĠÐĲÐ²ÑģÑĤÑĢ":8061,"ĠÐ½Ð°ÑģÐ¼ÐµÑĪ":8062,"ĠÐ²Ð»Ð°Ð´ÐµÐ»ÑĮ":8063,"ĠÐ¸Ð·Ð±Ð¸ÑĢ":8064,"ĠÐ¶Ð¸Ð²ÑĭÑħ":8065,"ÑıÑīÐ°Ñı":8066,"ĠÐ²ÑģÑĤÑĢÐµÑĩÐµ":8067,"ĠÑģÐ¾Ð±Ð¸ÑĢÐ°ÐµÑĤÑģÑı":8068,"Ð¸ÑĩÐ½Ð¾Ð¹":8069,"ĠÐ¿Ð°ÑĢÐ½Ñı":8070,"ĠÑıÐºÐ¾Ð±Ñĭ":8071,"ÑĦÐµÐ»ÑĮ":8072,"ĠÐ½Ð¾Ð²Ð¾ÑģÑĤÐ¸":8073,"ĠÑĢÐµÐ¶Ð¸ÑģÑģ":8074,"ĠÑģÐ°Ð¹ÑĤÐµ":8075,"ĠÐľÐ¸ÑħÐ°Ð¹Ð»Ð¾Ð²":8076,"ĠÐ´Ð¸Ð²Ð¸Ð·Ð¸Ð¸":8077,"ĠÑģÐºÑĢÑĭÑĤ":8078,"ĠÑģÐ»ÐµÐ´Ñĭ":8079,"ĠÑĢÐ°Ð·Ð½Ð¾Ð¾Ð±ÑĢÐ°Ð·":8080,"ĠÐ³Ð¾ÑĢÑĮ":8081,"ĠÐºÐ¾ÑĢÐ°Ð±Ð»ÐµÐ¹":8082,"ĠÐĿÐ°Ð·":8083,"ĠÑĩÐµÐ¼Ð¿Ð¸Ð¾Ð½Ð°ÑĤÐ°":8084,"ÐµÐ²Ð°Ñı":8085,"ĠÐ²ÑĤÐ¾ÑĢÐ¾Ð¼":8086,"ÑĢÐ¾Ð²Ð°":8087,"ĠÐ´ÐµÐ»Ð°Ð»Ð¸":8088,"ĠÑģÐ°Ð½":8089,"ĠÐ·Ð´Ð°Ð½Ð¸Ðµ":8090,"ĠÐ´Ð¾Ð½ÐµÑģ":8091,"ĠÑģÐ¸Ð³Ð½":8092,"ÐµÐ½ÑĨÐµÐ²":8093,"Ð°ÑĤÑģÑı":8094,"ĠÐ³ÑĥÐ»Ñı":8095,"ĠÐ½Ð¾Ð²ÑĭÐ¼":8096,"ĠÐ¾ÑĤÐ½Ð¾ÑģÐ¸ÑĤÑģÑı":8097,"ĠÑģÐµÑĤÐ¸":8098,"âĢĿ.":8099,"ĠÐ¿Ð°ÑģÑĤ":8100,"ĠÐ¿ÑĢÐ¾Ð²ÐµÑĢÐ¸ÑĤÑĮ":8101,"ÂłÂ«":8102,"ĠÐ¿ÑıÑĤÑĮÐ´ÐµÑģÑıÑĤ":8103,"ÐµÐ½ÑĮÑı":8104,"ĠÐ°ÑĢÐ¼Ð¸Ñı":8105,"ĠÑĢÐ°ÑģÑģÑĤÐ°Ð²":8106,"Ð°ÑĩÐµ":8107,"Ð¡Ðº":8108,"ĠÑĢÐ°Ð´Ð¸Ð¾":8109,"ĠÐºÐ¾ÑĢÐ°Ð±Ð»Ð¸":8110,"ĠÐ¿Ð¾Ð´Ð°Ð»ÑĮÑĪÐµ":8111,"ĠÐ¸Ð½Ð¾ÑģÑĤÑĢÐ°Ð½Ð½ÑĭÑħ":8112,"Ð¾Ð±Ð¾ÑĢ":8113,"ĠÐ¿ÑĢÐ¸Ð±Ð¾ÑĢ":8114,"ĠXX":8115,"ĠÐ·Ð°Ð³Ð¾Ð²Ð¾ÑĢÐ¸Ð»":8116,"ĠÐ»Ð¸ÑĩÐ½Ð¾ÑģÑĤÐ¸":8117,"ĠÑĢÐµÐ·ÑĥÐ»ÑĮÑĤÐ°ÑĤÑĭ":8118,"ĠÐ¸Ð³ÑĢÑĥ":8119,"ĠÑģÐ°Ð¼Ð¸Ð¼":8120,"ÐµÐºÐ°Ð½":8121,"ĠÑģÐ¾Ð±Ð°Ðº":8122,"Ð½ÐµÑĨ":8123,"ĠÐ²ÑĭÐ¼":8124,"ĠÐ²Ð¾Ð»Ð¸":8125,"ĠÑıÐ´ÐµÑĢ":8126,"ĠÐ²Ð¾Ð²ÑĢÐµÐ¼Ñı":8127,"ĠÑĩÐ¸ÑģÑĤÐ¾":8128,"ĠÑħÐ¾Ð·ÑıÐ¸Ð½Ð°":8129,"ĠÐ¿ÑĢÐ¾Ð³ÑĢÐ°Ð¼Ð¼":8130,"ĠÐ¿ÑĢÐ¸Ð½ÑıÐ»Ð¸":8131,"ĠÐ¿ÑĢÐ¸Ð½Ð°Ð´Ð»ÐµÐ¶Ð¸ÑĤ":8132,"ÑĩÐ°ÑģÐ°":8133,"ĠÐ¾Ð´Ð¸Ð½Ð¾ÑĩÐµ":8134,"ĠÑģÐ¾Ð²ÐµÑĤÐ°":8135,"ĠÐ³Ð»ÑĥÐ±Ð¸Ð½Ðµ":8136,"ÑĢÐ°ÑģÐ½Ð¾":8137,"ÑĥÐ±Ð¸Ð¹":8138,"ĠÐ¿Ð¾Ð¹Ð´":8139,"ĠÐĸÐµÐ»":8140,"ÑĭÐ²Ð°ÑİÑĤÑģÑı":8141,"ĠÐ¼Ð°ÑĤÐµÐ¼Ð°ÑĤ":8142,"Ġ--":8143,"Ð°ÑĤÐ¾Ðº":8144,"ÐķÐ³Ð¾":8145,"ĠÐ°Ð´Ð¼Ð¸Ð½Ð¸ÑģÑĤÑĢÐ°ÑĤÐ¸Ð²":8146,"ĠÑĢÐ°Ð·Ð¾ÑĩÐ°ÑĢ":8147,"ĠÐĴÐ¸ÑĤ":8148,"ĠÐ¾Ð¿Ð¿Ð¾Ð·":8149,"ĠÐ¾ÑĤÑĭÑģÐº":8150,"ÑģÑıÑĤÑģÑı":8151,"ĠÑĢÐ²":8152,"ÑĢÐ°Ð½Ð°":8153,"ĠÐ¡Ð°Ð»":8154,"ĠÐ³Ð¸Ð¼":8155,"ĠÑĥÑĤÐµÑĪ":8156,"ÑģÑĤÐ²Ð¾Ð²Ð°Ð»Ð¾":8157,"ĠÐ¿Ð¾ÑģÐ»ÐµÐ´ÑģÑĤÐ²Ð¸Ñı":8158,"ĠÑĤÐ²Ð¾Ñİ":8159,"Ð¸ÑĢÐ°Ð»":8160,"ĠÐ¸Ð½Ð¸ÑĨÐ¸Ð°ÑĤÐ¸Ð²":8161,"ĠÑģÑĤÑĢÐµÐ»ÑĮ":8162,"ÑĭÐ³ÑĢ":8163,"ĠÑĤÐ¸ÑĪÐ¸Ð½Ð°":8164,"ĠÐ½Ð°ÑĪÐ»Ð°":8165,"ĠÐ¿ÑĢÐ¾ÑīÐµ":8166,"ÐµÐ²ÑģÐºÐ¸Ð¹":8167,"all":8168,"ĠÐ±Ð¾ÐµÐ²ÑĭÑħ":8169,"ĠÐ¿ÑĢÐµÐ¼ÑĮÐµÑĢ":8170,"ĠÑģÐ¿Ð°ÑģÑĤÐ¸":8171,"ĠÑĨÐµÑĢÐºÐ¾Ð²ÑĮ":8172,"ĠÑĪÐ»ÑıÐ¿":8173,"ĠÑĩÐ¸ÑĤÐ°Ð»":8174,"ĠÑģÑĤÑĥÐ»":8175,"ĠÑģÐ¾Ð¾Ð±ÑīÐ¸Ð»Ð°":8176,"ĠÑģÑĤÐ¾ÑĢÐ¾Ð½Ð°Ð¼":8177,"ĠÐ¼Ð¸Ð½Ð¸Ð¼ÑĥÐ¼":8178,"ĠÐ¿ÑĥÐ»ÑĮ":8179,"ĠÐ¿Ð¾Ð»Ð¾Ð¶ÐµÐ½Ð¸Ñı":8180,"ĠÐ½Ð¾ÑĢÐ¼Ð°Ð»ÑĮÐ½Ð¾":8181,"Ð°Ð²ÑĪÐ¸ÑħÑģÑı":8182,"ĠÑģÑĩÐ°ÑģÑĤÑĮÑİ":8183,"ĠÐ½Ð°Ð·Ð²Ð°Ð½Ð¸ÐµÐ¼":8184,"ĠÐ¿ÑĥÐ»ÐµÐ¼":8185,"Ð¾Ð·ÑıÐ¹":8186,"Åĥ":8187,"Ð¸ÑĢÑĥÐµÐ¼":8188,"ÑĭÐºÐ°":8189,"ĠÐ¾ÑĤÐ¼ÐµÐ½":8190,"Ð°Ð¶Ð½Ð¾":8191,"ĠÐ±Ð¾Ð´":8192,"ĠÐºÐ»Ð°ÑģÑģÐ°":8193,"ĠÐ¾ÐºÑĢÐµÑģÑĤ":8194,"ĠÐ´Ð¾Ð½Ð¾Ñģ":8195,"ĠÐ´ÐµÐ¹ÑģÑĤÐ²Ð¸Ðµ":8196,"ĠÐ¸Ð·Ð¾":8197,"ĠÐ¾Ð±ÑĬÑıÐ²Ð¸Ð»":8198,"ÑĥÐ´Ñĥ":8199,"ĠÐ·Ð°ÑģÑĤÐ°Ð²Ð¸ÑĤÑĮ":8200,"ĠÐľÐ½Ð¾Ð³Ð¸Ðµ":8201,"ĠÐ´ÐµÑģ":8202,"ĠÑĦÐ»Ð°Ð³":8203,"ÐµÐ½Ð¾Ð²":8204,"ĠÐ³Ð¾Ð²Ð¾ÑĢÐ¸ÑĪÑĮ":8205,"ÑĭÐ·":8206,"ĠÐ²ÑĭÑģÐ¾ÐºÐ¸Ð¹":8207,"ook":8208,"ĠÐĴÑģÐºÐ¾ÑĢÐµ":8209,"ĠÐ¿Ð¾Ð²ÐµÐ·Ð»Ð¾":8210,"Ð¸ÑĩÐ½ÑĭÐµ":8211,"Ð¸Ð´Ñĭ":8212,"ĠÑĢÐ°Ð·ÑĢÑĭÐ²":8213,"ĠÐ·Ð¼Ðµ":8214,"ĠÐ²ÑĢÑĥÑĩ":8215,"ĠÐ²Ð¾ÐµÐ½Ð½Ð¾Ð³Ð¾":8216,"Ð¸Ð½ÑĥÐ»Ð¸ÑģÑĮ":8217,"ĠÑģÑĨ":8218,"ĠÐ°Ð³ÑĢÐµÑģÑģ":8219,"Ġ189":8220,"ĠÐ´ÐµÐ½ÐµÐ¶":8221,"Ð³Ð¾Ð²Ð¾ÑĢ":8222,"ĠÐŁÐ¾Ð¶Ð°Ð»ÑĥÐ¹":8223,"Ð¾Ð½ÑıÑĤÐ½Ð¾":8224,"Ð¸ÑĢÐ¾Ð²Ð°ÑĤÑĮÑģÑı":8225,"ĠÐ¾Ð¿ÑĥÑģÐº":8226,"ĠÐ¿Ð¾Ð¿ÑĭÑĤÐºÐ¸":8227,"ĠÐ²ÑĭÑıÐ²":8228,"ÑĨÐ¸Ðº":8229,"ĠÐ¾ÑĤÐºÑĢÑĭÐ»Ð°":8230,"ĠÐ¿Ð¾ÑħÐ¾ÑĢÐ¾Ð½":8231,"Ð¿Ð¾Ð»ÐµÐ·":8232,"ĠÐĳÐ¾Ð»ÑĮÑĪÐµ":8233,"ĠÐ¾Ð³ÑĢÐ¾Ð¼Ð½ÑĭÐ¹":8234,"Ð¾ÑĤÑı":8235,"ĠÑħÐ°Ð»":8236,"ĠÐ¾ÑĤÐ¾Ð·Ð²Ð°Ð»ÑģÑı":8237,"Ð°Ð½Ð¾Ð²Ð°":8238,"ĠÑĩÑĳÐ¼":8239,"ĠÐ¿ÑĢÐµÐ´ÑģÑĤÐ°Ð²Ð¸ÑĤÐµÐ»Ð¸":8240,"Ġfor":8241,"ĠÐŁÐ¾Ð»ÑĥÑĩ":8242,"ĠÑģÐ·Ð°Ð´Ð¸":8243,"Ð¾Ð»ÑĮÑĦ":8244,"ĠÐłÐ°Ð±Ð¾ÑĤ":8245,"ĠÑģÐ»Ð¾Ð¶Ð½Ð¾":8246,"ĠÑģÑĤÐ°ÑĢÑĪÐ¸Ð¹":8247,"ĠÐ¿Ð»Ð°Ð½ÐµÑĤÑĭ":8248,"ĠÐ»ÐµÐ¶Ð°Ð»Ð°":8249,"Ð°Ð¿Ð°":8250,"ĠÐ¡Ð²Ð¾":8251,"Ð¿ÑĢÐ¾Ð¼":8252,"ĠÑĢÐ°Ð²Ð½Ð¾Ð´ÑĥÑĪ":8253,"ĠÐ§ÐµÐ»Ð¾Ð²ÐµÐº":8254,"ÑĭÐ»Ð¾":8255,"ĠÐ¿Ð°ÑĢÑĤÐ½":8256,"ĠÐ¼ÑıÑĩ":8257,"ĠÐ¿ÑĢÐ¾ÑħÐ¾Ð´Ð¸ÑĤ":8258,"ĠÐ¢Ð°Ð¹":8259,"ĠÑĤÐµÐ»Ð¾Ð¼":8260,"ĠÐ¿Ð¾Ð±ÐµÐ´Ñĥ":8261,"Ð¸Ð½Ð¾Ðº":8262,"Ð§ÐµÑĢÐµÐ·":8263,"ĠÐ¼Ð¸ÑĦ":8264,"ĠÐ¿ÑĢÐ¾ÑģÑĤÐ¾Ð¹":8265,"ĠÐ¾ÑģÑĤÑĢÐ¾Ð²Ð°":8266,"ÐµÑĢÐµÐ¼":8267,"ĠÑĢÐ¾ÑģÑģÐ¸Ñı":8268,"Ð¸ÑĨÐ¾":8269,"Ð°Ð²Ð°Ð»Ð¾ÑģÑĮ":8270,"ĠÑĢÐ°ÑģÑĩÐµÑĤ":8271,"ĠÐŀÑģÑĤÐ°Ð²":8272,"ĠÐ·Ð²ÐµÐ·Ð´Ñĭ":8273,"ĠÑĥÐ´Ð¾Ð²Ð¾Ð»ÑĮÑģÑĤÐ²Ð¸Ðµ":8274,"ĠÑģÐ¾Ð±ÑģÑĤÐ²ÐµÐ½Ð½Ð¾Ð³Ð¾":8275,"ĠÐ´Ð²ÐµÑĢÑĮÑİ":8276,"ĠÐĶÐ¾Ð±":8277,"ĠÐ´Ð°Ð½Ð½Ð¾Ð¼":8278,"ĠÐ»Ð¸Ð¼":8279,"Ð¸Ð²ÑĪÐµÐ³Ð¾ÑģÑı":8280,"ĠÑģÑĤÐ°ÑĢÐ¾Ð³Ð¾":8281,"ĠÑĢÐ°Ð·Ð³Ð¾Ð²Ð¾ÑĢÐ°":8282,"ĠÐ±Ð°Ð³":8283,"ĠÐ·Ð°Ð²Ð¸ÑģÐ¸Ð¼Ð¾ÑģÑĤÐ¸":8284,"ĠÐºÑĥÑģÐ¾Ðº":8285,"ĠÑĢÐ¾ÑģÑģÐ¸Ð¹ÑģÐºÐ¾Ð³Ð¾":8286,"ĠÑĦÐµÑĢ":8287,"ĠÐ¿ÑĭÑĤÐ°ÐµÑĤÑģÑı":8288,"ĠÐ¿Ð»Ð°Ñĩ":8289,"ĠÐ½ÐµÐ¿Ð»Ð¾ÑħÐ¾":8290,"ĠÑģÐ¾Ð¾Ð±ÑīÐµÐ½Ð¸Ðµ":8291,"Ġ2011":8292,"ĠÐ¿ÑĢÐ¸Ð¼ÐµÐ½Ñı":8293,"ĠÐŁÑĢÐ¾Ð²":8294,"ĠÐ»Ð°Ð·":8295,"ĠÑģÐ¸Ð»Ð°Ð¼Ð¸":8296,"ĠÐ²ÑĭÑģÐ¾ÐºÐ¾Ð¹":8297,"ÑĳÐ´":8298,"ĠÑĥÑĩÐ°ÑģÑĤÐ½Ð¸ÐºÐ¾Ð²":8299,"ĠÐŁÐ°Ð»":8300,"ĠÐ¾ÑĦÐ¾ÑĢÐ¼":8301,"ĠÐ±Ð¾ÑĤ":8302,"Ð¸Ð¼ÐµÑĤ":8303,"Ð½Ð¾ÑĤ":8304,"Ð±ÑĥÑĢÐ³":8305,"ĠÐĶÐ¾Ð½ÐµÑĨ":8306,"Ð¡ÑĤÐ°ÑĢ":8307,"ĠÐºÐ¾ÑģÑĤÑİ":8308,"ÑĭÑī":8309,"ĠÐ¾Ð±ÑīÐµÑģÑĤÐ²Ð¾":8310,"ĠÐ¿ÐµÐ´":8311,"ĠÐ¡Ð°Ð½ÐºÑĤ":8312,"ĠÐ¾ÑĨÐµÐ½Ð¸Ð²":8313,"ĠÐ²Ð¸ÑĤ":8314,"ĠÐļÐ°":8315,"ĠÐ·Ð°Ð·":8316,"ĠÐ²ÑĭÑģÐ»ÑĥÑĪ":8317,"Ð°Ð¶ÐµÐ¹":8318,"ĠÐ²ÑģÑıÐºÐ¸Ñħ":8319,"ĠÐ²Ð¸Ð´Ð¸ÑĪÑĮ":8320,"ĠÑģÐ½Ðµ":8321,"Ð»Ð¸ÑĨ":8322,"ĠÐ·Ð°Ð´Ð°ÑĩÐ°":8323,"%.":8324,"ĠÐ¿ÑĢÐµÐ´Ð¿Ð¾ÑĩÐ¸ÑĤ":8325,"ĠÐ¿Ð¾Ð³ÑĢÑĥÐ·":8326,"ĠÐ´ÐµÑĢÐµÐ²Ð°":8327,"ĠÐ¾ÑĤÑĨÐ¾Ð¼":8328,"Â»:":8329,"ĠÐ±ÑĢÐ¾ÑģÐ¸Ð»ÑģÑı":8330,"ĠÐ¿Ð¾Ð´Ð¾Ð±Ð½Ð¾":8331,"ĠÐ±ÐµÐ·Ð·":8332,"ÐµÐ»ÑĮÑı":8333,"ĠÐĵÐ°Ð±":8334,"ĠÐ±ÑĥÑħ":8335,"ĠÐ¿Ð¾Ð²ÐµÑģ":8336,"ĠÐ²Ð¾Ð·Ð²ÑĢÐ°ÑĤ":8337,"ĠÐ¿ÐµÑģÐ½Ð¸":8338,"ĠÐļÐ°ÑĢÐ»":8339,"ĠÐ½ÐµÐ¸Ð·Ð±ÐµÐ¶":8340,"Ð°Ð½ÐµÑĤ":8341,"ĠÐºÐ°ÑĢÑĤÐ¾":8342,"ĠÑģÑĥÐ±ÑĬ":8343,"ĠÐºÐ¾Ð½ÑĤÑĢÐ°ÐºÑĤ":8344,"ĠÑģÐµÐºÑģÑĥ":8345,"Ð°ÑĪÐºÐ°":8346,"ĠÐ¿Ð¾Ð½Ð¸Ð¼Ð°ÐµÑĤ":8347,"ĠÐºÐ»ÑĥÐ±Ð°":8348,"ĠÐĿÐ°ÑĪ":8349,"ĠÐ½Ð°ÑĩÐ°Ð»ÑĮÐ½Ð¸ÐºÐ°":8350,"ĠÐ½ÐµÐ²Ð¾Ð·Ð¼Ð¾Ð¶":8351,"ÐµÑģÑĤÐµ":8352,"ĠÐ½ÐµÑĢÐ°Ð·":8353,"ĠÑĥÐ¶Ð°ÑģÐ½Ð¾":8354,"ÐºÐ°ÑĢ":8355,"ĠÑģÑĤÐ¾ÑıÑĤÑĮ":8356,"ĠÐ¿Ð°ÑĢÑĤÐ¸Ð¹":8357,"Ð¾ÑħÐ¾Ð´":8358,"70":8359,"ĠÐĴÐ¿ÐµÑĢ":8360,"Ð´Ð°Ð»":8361,"Ð¸ÑĤÑĭÐ¹":8362,"ĠÑģÐºÐ°Ð·Ð°Ð½Ð¾":8363,"ĠÑģÐ¸ÑģÑĤÐµÐ¼Ðµ":8364,"Ð»Ð¸ÐºÑĤ":8365,"Ġ90":8366,"ĠÑģÐ²ÐµÑĢÐº":8367,"Ð¸ÑģÐºÑĥ":8368,"ĠÐ¿ÑĢÐ¾Ð·ÑĢÐ°Ñĩ":8369,"ÑĢÐ¸Ð³Ð¸Ð½":8370,"ĠÐ·Ð½Ð°Ð½Ð¸Ñı":8371,"ĠÐ½Ð°ÑĢÐºÐ¾ÑĤ":8372,"34":8373,"ÑıÑĤÐµÐ¶":8374,"ĠÐºÐ²Ð°Ð´ÑĢÐ°ÑĤ":8375,"ĠÑģÑĤÑĢÐ°Ð½Ð°Ñħ":8376,"ĠÐ³ÐµÑĢÐ¼Ð°Ð½":8377,"ĠÐľÐµÐ»":8378,"ĠÐ¿Ð¾ÑĤÐ¾Ðº":8379,"ĠÑĦÑĢÐ¾Ð½ÑĤÐ°":8380,"ĠÐ¿ÑĢÐ¸ÑģÐ»":8381,"ĠÐ·Ð²ÑĥÐºÐ¸":8382,"Ġ()":8383,"ĠÐ¿Ð¾Ð½ÑıÐ»Ð¸":8384,"Ð°ÑĤÑĥÑĢÑĥ":8385,"ĠÐ±ÑĥÐ´ÑĥÑĩÐ¸":8386,"ĠÐ²ÐµÑĢÑĪ":8387,"ĠÐ¾Ð±ÑĢÑĥÑĪ":8388,"ĠÐ¿ÐµÑĢÐµÑĢ":8389,"ĠÐºÐ°ÑĢÑĤÐ¸Ð½Ñĭ":8390,"ĠÐ·Ð°Ð¼ÐµÑĤÐ¸ÑĤÑĮ":8391,"ÄĲÅ":8392,"ÂłÐłÐ°Ð·":8393,"ĠÐ½Ð¾ÑģÐ¾Ð¼":8394,"ĠÐ¸Ð½ÑģÐ¿":8395,"ĠÐ¿ÑĢÐ°Ð²Ð¾ÑģÐ»Ð°Ð²":8396,"ĠÐĸÐµÐ½Ñī":8397,"ÐļÐ°ÑĢ":8398,"ĠÐ°ÑĤÐ¾Ð¼":8399,"ĠÐĶÐ²Ð°":8400,"ĠÐ´Ð¾Ð¿ÑĥÑģÐº":8401,"ĠÑĢÐ°ÑģÑĤÐµÑĢÑıÐ½":8402,"ĠÑĥÐ±ÐµÐ¶":8403,"ĠÑģÐ¾ÑħÑĢÐ°Ð½Ð¸ÑĤÑĮ":8404,"ĠÐ¿ÑĢÐ¸Ð·ÑĭÐ²":8405,"ÑĢÐ¾ÑĤ":8406,"ĠÐ¿ÑĢÐ¸ÑĩÐ¸Ð½Ñĭ":8407,"ÑıÐ´Ð¾Ð¼":8408,"ĠÐ·Ð°Ð¿Ð¾Ð¼Ð½":8409,"ĠÑģÐ»ÑĥÑĪÐ°ÑĤÑĮ":8410,"ĠÐ²Ð·Ð³Ð»ÑıÐ´Ð°":8411,"ĠÐºÐ°Ð¶Ð´ÑĥÑİ":8412,"ĠÐ»ÐµÐ´Ñı":8413,"ĠÑĢÑĥÐ³":8414,"Ð²ÑĭÑĢ":8415,"ĠÐ¿Ð¾Ð²ÐµÑĢÐ¸ÑĤÑĮ":8416,"ÑģÐºÐ¾Ð»ÑĮÐ·":8417,"ĠÐ¡ÑĤÐ°Ð»":8418,"ĠÐĹÐ²":8419,"Ð¸ÑĦÐ¸ÐºÐ°":8420,"Ð¸Ð»Ñĥ":8421,"ĠÐºÐ¾Ð½ÑĨÑĥ":8422,"Ð¸ÑĢÑĥÑı":8423,"ĠÐŁÑĢÐ¸ÑĩÐµÐ¼":8424,"Ð¿ÑĢÑĭÐ³":8425,"Ð²ÐµÑĢÑĤ":8426,"ĠÑģÑĥÐ±Ð±":8427,"ĠÐ¼Ð°Ð´":8428,"ĠÐ¾Ð±Ð»Ð°ÑģÑĤÑĮ":8429,"Ð°ÑĤÑĭÐµ":8430,"ĠÐłÐ¾ÑģÑĤ":8431,"ÐĶÐµÐ²":8432,"ĠÐ½ÐµÐ¾ÑĤ":8433,"ĠÐ¡Ð°":8434,"ĠÐ¿ÑĢÐ¾Ð½Ð·":8435,"ÑĥÐ¹ÑĤÐµ":8436,"ĠÐ°ÑĤÐ¼Ð¾ÑģÑĦ":8437,"ĠÐŃÐ»ÑĮ":8438,"ĠÐ¿ÑĢÐµÐ´ÑģÑĤÐ°Ð²Ð¸ÑĤÐµÐ»ÐµÐ¹":8439,"Ð²ÐµÐ´Ð¾Ð¼":8440,"ÑĭÐ²Ð°Ð»Ð°ÑģÑĮ":8441,"Ġ'":8442,"ĠÐ³ÑĢÐ¸":8443,"ĠÑĥÐ²Ð¸Ð´ÐµÐ»Ð¸":8444,"ĠÑģÑĥÐ¼Ð°Ñģ":8445,"ÐµÑĩÐºÐ°":8446,"ĠÐ¼Ð¸Ð½Ð¸ÑģÑĤÐµÑĢ":8447,"Ð¸ÑĩÐ½ÐµÐ²":8448,"ĠÐľÐ¾Ð»Ð¾Ð´":8449,"ĠÐ¿ÑĢÐ¾Ð¹Ð´ÐµÑĤ":8450,"Ð²Ð¾Ð»ÑĮ":8451,"ĠÐ²ÐµÐ»ÐµÐ»":8452,"Ð¾Ð²ÐµÑĢÑĪ":8453,"Ð°Ð´Ð°Ñĩ":8454,"ĠÐ¾Ð¶Ð¸Ð´Ð°Ð»":8455,"ĠÑĢÐ¾ÑģÑģÐ¸Ð¹ÑģÐºÐ¾Ð¹":8456,"ĠÑĩÐµÑĢÐ½ÑĭÐ¹":8457,"ĠÐ¿ÑĢÐ¸ÐºÐ»ÑİÑĩ":8458,"ĠÐ½Ð°ÑĩÐ°Ð»Ð°ÑģÑĮ":8459,"ĠÐ¶Ð¸Ð²Ð¾Ð¹":8460,"ÂłÐľÐ¾Ð¶ÐµÑĤ":8461,"ĠÐ²ÐµÑīÑĮ":8462,"ÑĨÐ¸Ð¾Ð½Ð¸":8463,"ĠÑģÐ¸Ð¼Ð¿Ð°ÑĤ":8464,"Ð½ÐµÐ½Ð¸Ðµ":8465,"ĠÐ¸Ð·Ð¼ÐµÐ½Ð¸ÑĤÑĮ":8466,"ÐµÐ½Ð½Ð¸":8467,"ĠÐ¿Ð¾Ð´Ð¾Ð±Ð½Ð¾Ðµ":8468,"ard":8469,"ĠÐ¶ÐµÑĢÑĤ":8470,"ĠÐ²ÑĭÐ½ÑĥÐ¶Ð´ÐµÐ½":8471,"ĠÑĤÐµÑħÐ½Ð¸ÐºÐ¸":8472,"ĠÐ¿Ð¾Ð½ÑıÑĤÐ¸Ñı":8473,"ĠÐ²ÐµÑĢÐµÐ²":8474,"ab":8475,"ĠÐ»ÑĥÐº":8476,"Ð¸Ð½ÑĮ":8477,"ÑĢÐ¾Ð²Ð°ÑĤÑĮ":8478,"ĠÑħÐ¸ÑĤÑĢ":8479,"ĠÐ¿Ð°ÑĢÐ°Ð´":8480,"ĠÐ¿Ð¾Ð²ÐµÐ´ÐµÐ½Ð¸Ðµ":8481,"ĠÐ¾Ð¿Ð°ÑģÐ½Ð¾ÑģÑĤÑĮ":8482,"ÂłÑģÑĤ":8483,"ĠÑĢÐµÐ»Ð¸Ð³":8484,"ĠÑģÑĤÐ¾ÑıÑĤ":8485,"ĠÐ½Ð°Ð´ÐµÐ»":8486,"ĠÐ²Ð·Ð²":8487,"ĠÐľÐ°ÑĢÐ¸":8488,"ĠÐ½ÐµÐ»ÐµÐ³":8489,"ĠÐ¿ÐµÑĢÐµÑħÐ²Ð°ÑĤ":8490,"ĠÐ¼ÑĥÐ¶Ðµ":8491,"ĠÑĥÐºÐ°Ð·Ð°Ð»":8492,"ĠÐĹÐµÐ¼Ð»Ð¸":8493,"ĠÐ³ÑĢÑĥÐ·Ð¾Ð²":8494,"ĠÐļÐ¸":8495,"ÐµÐ½ÑĨÐ¸Ð¸":8496,"ĠÑĢÐ¸ÑģÑĥÐ½":8497,"Ð½ÐµÑģÑĤÐ¸":8498,"ĠÑĤÐµÐ½ÑĮ":8499,"Ð³Ð¾Ð½":8500,"ĠÑĤÐ¾Ð»Ðº":8501,"ĠÐ´ÑıÐ´Ñı":8502,"ĠÐ¾ÑĢÐ³Ð°Ð½Ð¾Ð²":8503,"Ð¾ÑĩÐµÑĪÑĮ":8504,"ĠÐ¿Ð¾Ð³Ð¸Ð±Ð»Ð¸":8505,"Ð°Ð²ÑĪÐ¸ÐµÑģÑı":8506,"ĠÐ¿Ð¾ÑĢÐ¾Ð¹":8507,"ĠÑĤÐ²Ð¾ÑĢÑĩÐµ":8508,"ÐļÐŀ":8509,"ĠÐĺÑĤÐ°Ðº":8510,"ĠÑĤÑĢÐ°ÑĤ":8511,"ĠÐ¸Ð¼ÐµÐ½ÐµÐ¼":8512,"ĠÐ¿ÑĮ":8513,"ÑĦÐ¸Ð½":8514,"ĠÑĥÑģÐºÐ¾ÑĢ":8515,"ĠÑģÐ¾Ð¾Ð±ÑīÐ°Ð»Ð¾ÑģÑĮ":8516,"ĠÐ¿ÑĢÐµÐ¿ÑıÑĤ":8517,"Ð²ÐµÑĢÑĮ":8518,"ÐĴÐŀ":8519,"ĠÐ¿ÑĢÐµÐ´ÑĥÑģÐ¼Ð¾ÑĤÑĢ":8520,"ÑĪÐ¸Ð²":8521,"ÑĭÐ²Ð°Ð»Ð¾":8522,"Ð½Ð°ÑģÑĤÐ¾ÑıÑī":8523,"ĠÑįÑĦ":8524,"Ð¾ÑģÑĤÐ¾Ñı":8525,"ĠÐ¾Ð¿ÑĢÐµÐ´ÐµÐ»Ð¸ÑĤÑĮ":8526,"ĠÑĢÐ°ÑģÑģÐ²ÐµÑĤ":8527,"ĠÐ¿Ð¾Ð´ÑģÑĤÐ°Ð²":8528,"Ð¸Ð¼Ð¸ÑģÑı":8529,"Ð»ÑıÑıÑģÑĮ":8530,"ĠÐµÐ²ÑĢÐµÐ¹":8531,"ĠÐ³Ð¾ÑĢÐ»Ð¾":8532,"Ð°Ð»Ð¸Ð·Ð¼Ð°":8533,"ĠÑħÐ¾Ð»Ð¾Ð´Ð½Ð¾":8534,"ĠÐ¶Ð¸Ð»ÑĮ":8535,"ĠÐļÐ°Ð¶ÐµÑĤÑģÑı":8536,"!\"":8537,"ĠÑħÐ¸Ñī":8538,"og":8539,"ĠÐ¡Ð¾ÑİÐ·Ð°":8540,"ĠÑĩÑĥÐ²ÑģÑĤÐ²ÑĥÑİ":8541,"ÐºÐ°Ñĩ":8542,"ĠÑħÐ²Ð°ÑĤÐ¸Ð»Ð¾":8543,"ĠÐ²Ð¾ÐµÐ½Ð½ÑĭÐµ":8544,"ĠÐ²ÐµÑĤÑĢÐ°":8545,"ĠÐºÐ²Ð°ÑĢÑĤÐ¸ÑĢÑĭ":8546,"Ġ+":8547,"Ð°ÑĤÐµÐ»Ñİ":8548,"ÑĳÐ½Ð½ÑĭÐ¹":8549,"ĠÐ»Ð°Ð´Ð¾Ð½ÑĮ":8550,"ÑĥÑģÑĤÐ¸Ð»Ð¸":8551,"ĠÐ³Ð½":8552,"ĠÐ°Ð²ÑĤÐ¾Ð±ÑĥÑģ":8553,"Ð»ÑıÐ»Ð°ÑģÑĮ":8554,"ĠÐ½ÑĭÐ½Ðµ":8555,"ĠÐ´Ð¾Ð±Ñĭ":8556,"ĠÐµÐ¿":8557,"ĠÐľÐ°Ð»ÑĮ":8558,"ĠÐ»ÑİÐ±ÐµÐ·":8559,"ĠÑģÐ»ÐµÐ´Ð¾Ð¼":8560,"Ð¸ÑģÑĤÐ¾":8561,"ĠÑģÑĤÑĥÐº":8562,"ĠÐ²ÑģÑĤÐ°Ð»Ð°":8563,"ĠÐ¼Ð¾Ð»Ð¾Ð´Ð¾Ð³Ð¾":8564,"ĠÐ²Ð¾ÑģÐ¿Ð¾Ð¼Ð¸Ð½Ð°Ð½Ð¸Ñı":8565,"ĠÑįÐ½ÐµÑĢÐ³ÐµÑĤ":8566,"ĠÐ½ÐµÐ²ÐµÑĢÐ¾ÑıÑĤ":8567,"ĠÑĪÑĤÑĢÐ°ÑĦ":8568,"Ð½ÐµÐ¶":8569,"ĠÐºÐ¾Ð½ÑĦÐ»Ð¸Ðº":8570,"ĠÑĦÐ°ÑĢ":8571,"ÂłÐ±Ñĭ":8572,"ĠÑĤÐ²ÐµÑĢÐ´Ð¾":8573,"ĠÐ¿Ð¾ÑĤÐµÑĢÐ¿":8574,"ĠÐºÐ¾Ð¼Ð½Ð°ÑĤ":8575,"ĠÐ±Ð°Ð½ÐºÐ¾Ð²":8576,"ĠÐĴÑģÑı":8577,"ĠÐłÐµÑĪ":8578,"ĠÐĶÐµÐ½Ð¸":8579,"ĠÐ°Ð²Ð¸Ð°":8580,"ÑĩÑĥÐ²":8581,"Ð²Ð°Ð»Ð°":8582,"ÑİÑīÐµÐ¹":8583,"Ð°Ð½Ð½":8584,"Ð»Ð¸ÑĤÑĮ":8585,"ĠÑģÐºÐ°Ð¶ÐµÑĤ":8586,"ĠÐ´Ð¾Ð»Ð¶Ð½Ð¾ÑģÑĤÑĮ":8587,"ĠÑĤÐ°Ñī":8588,"ÐŀÑģ":8589,"Ġ80":8590,"ĠÑģÐµÑĢÐ¶":8591,"ĠÑģÐ¾ÑĩÑĥÐ²":8592,"ĠÑĢÐ°ÑģÑģÐºÐ°Ð·ÑĭÐ²Ð°ÑĤÑĮ":8593,"ĠÐ±ÑĥÐ´ÑĥÑīÐµÐ³Ð¾":8594,"Ð¸ÑĤÐµÐ»Ñİ":8595,"Ð»Ð¸Ñģ":8596,"ĠÐ¿ÑĢÐ¸ÑħÐ¾Ð´Ð¸ÑĤ":8597,"ĠÐ¿Ð»Ð¾ÑīÐ°Ð´ÑĮ":8598,"ĠÐ»Ð¾ÑĪÐ°Ð´ÑĮ":8599,"ĠÑģÑģÑĭÐ»ÐºÐ¾Ð¹":8600,"33":8601,"ĠÐ¿ÑĢÐ¾ÑĪÐµÐ¿ÑĤÐ°Ð»Ð°":8602,"ÑĨÐ¸Ð¾Ð½Ð½ÑĭÐµ":8603,"ĠÐ¢Ð¾Ð»ÑģÑĤ":8604,"ĠÐ¼Ð°ÑĤÑĩÐµ":8605,"ĠÐµÐ»Ðµ":8606,"ĠÐ¿Ð¾Ð»ÑİÐ±":8607,"ĠÐ¿Ð¾Ð»ÑĩÐ°ÑģÐ°":8608,"ĠÑĤÐµÑĢÐ¼Ð¸Ð½":8609,"ĠÑİÐ³Ð¾":8610,"ĠÐ¿Ð¾Ð³Ð»ÑıÐ´":8611,"ĠÐ¾ÑĢÑĥÐ¶Ð¸ÐµÐ¼":8612,"ĠÐ½ÐµÐ¿ÑĢÐµÐ¼ÐµÐ½Ð½Ð¾":8613,"ĠÑĪÐºÐ°ÑĦ":8614,"ĠÐĽÐ°":8615,"ĠÐ²Ð¾ÑĪÐ»Ð°":8616,"ÐºÐ¾Ð²Ð¾Ð¹":8617,"ĠÐ¿ÑĢÐ¾Ð²Ð¾Ð´Ð¸ÑĤÑĮ":8618,"ĠÐ¿ÐµÑĢÐµÐ¹":8619,"Ð²Ð¸ÑģÑĤ":8620,"ĠÐķÐ¡":8621,"ĠÑģÐ¼Ð¾Ð³ÑĥÑĤ":8622,"Ð¾Ð½Ð¸Ñı":8623,"ĠÐļÐ°Ð·Ð°Ð»Ð¾ÑģÑĮ":8624,"ĠÐ°Ð½Ð³Ð»Ð¸Ñĩ":8625,"Ð¸ÑĩÐ½ÑĭÐ¼":8626,"ĠÐ²Ð¾Ð»Ð½Ð¾Ð²":8627,"ĠÐ·Ð°ÑģÑĤÐ°Ð²Ð¸Ð»":8628,"ĠÑĥÐ»Ð¾Ð²":8629,"ĠÐ²ÐµÑĩÐ½Ð¾":8630,"Ð°Ð½Ð°Ð²Ð»Ð¸Ð²":8631,"ĠÐ´ÑĢÐ°Ð¼":8632,"ĠÑģÐ¿Ð¸ÑĢ":8633,"ĠÐºÐ°Ð¿Ð¸ÑĤÐ°Ð½Ð°":8634,"ĠÐ»ÐµÑĤÐ¾Ð¼":8635,"Ð¸Ð½Ð³ÑĢÐ°Ð´":8636,"ÐµÑĢÐ°Ð¼Ð¸":8637,"Ð¸ÑĤÐµÐ»ÑĮÐ½ÑĭÐ¼Ð¸":8638,"Ð½Ð¾Ð²Ð¸Ð´":8639,"ĠÐ¿Ð¾ÑģÑĤÐµÐ»ÑĮ":8640,"ĠÐ¿ÐµÑģÐº":8641,"ÑĨÐ¸Ð¾Ð½Ð½ÑĭÐ¹":8642,"Ð¼ÑĥÐ½":8643,"ĠÐ´Ð¾Ð±Ð¸ÑĤÑĮÑģÑı":8644,"ĠÐ´Ð²Ð°Ð¶Ð´Ñĭ":8645,"Ð»ÐµÐ½Ð½ÑĭÐ¼Ð¸":8646,"Ð¿Ð¾Ð¼":8647,"ĠÑĢÑĭÐ½ÐºÐµ":8648,"ĠÑĥÑĩÐ¸Ð»Ð¸":8649,"Ð»Ð¾Ð¶Ð¸Ð»":8650,"ÑĥÑīÐ¸Ñħ":8651,"ĠÐ¿ÑĥÐ±Ð»Ð¸ÐºÐ°":8652,"ĠÐ»ÑĥÑĩÑĪÐ¸Ñħ":8653,"ĠÑģÑĭÐ½Ð¾Ð²":8654,"ĠÐ½Ð°Ð»Ð¾Ð³":8655,"Ð°ÑĢÐ¾Ð´":8656,"Ð´Ð°ÐµÐ¼":8657,"ÑĩÐ°Ð½":8658,"ĠÑĥÐ»ÑĭÐ±ÐºÐ°":8659,"ĠÑģÑİÐ¶":8660,"ĠÐ²ÑĢÐ°Ð¶":8661,"ĠÐ¶Ð¸Ð»Ð°":8662,"Ð°ÑĢÐ¾Ð¼":8663,"ĠÐļÑĢÐµÐ¼":8664,"ÑıÑĤÐ°":8665,"ĠÐ±Ð¾ÑİÑģÑĮ":8666,"ĠÐ´Ð¾Ð¶Ð´ÑĮ":8667,"ĠÐ¾Ð±ÑīÐµÑģÑĤÐ²Ðµ":8668,"ĠÐ¿ÐµÑĪ":8669,"ĠÐ£ÑĢ":8670,"ĠÐ²ÐµÑĢÐ½ÑĥÐ»Ð¸ÑģÑĮ":8671,"art":8672,"ÑĢÐ°Ð¼Ð¸":8673,"ÑĢÐµÑĨ":8674,"ĠÐ½Ð°Ð¿Ð¸ÑģÐ°Ð½Ð¾":8675,"Ð¾ÑĤÑĮ":8676,"ÑĪÐºÐ¸":8677,"ĠÐ·Ð°Ð±ÑĭÐ²":8678,"Ð¾Ð¾Ð±ÑĢÐ°Ð·":8679,"Â»[":8680,"ĠÐ¶ÐµÐ»Ð°Ñı":8681,"ÑĤÐ°Ð½":8682,"Ð»ÐµÐ½Ð½ÑĥÑİ":8683,"Ð°ÑİÑīÐ¸Ð¹ÑģÑı":8684,"ĠÑĢÑĥÐºÐ°Ð²":8685,"Ð¾Ð²Ð°Ð½Ð½Ð¾Ð¹":8686,"ĠÑĨÐ°ÑĢÑı":8687,"ĠÐ±Ð»Ð°Ð³Ð¾Ð¿Ð¾Ð»ÑĥÑĩ":8688,"ĠÐ²ÑĭÐ½ÐµÑģ":8689,"ĠÐ¿ÑĢÐ¸Ð·Ð½Ð°ÑĤÑĮ":8690,"Ð°Ð»ÐµÑĤ":8691,"ĠÐ¸Ð½ÑĤÐµÐ»Ð»ÐµÐº":8692,"Ð¼Ð¾Ð·":8693,"Ð¸Ð½ÑĥÑĤ":8694,"ÑĩÐ¸ÐºÐ¾Ð¼":8695,"ĠÐ¾ÑĤÐ´Ð¾Ñħ":8696,"ĠÐ²Ð°ÑĪÑĥ":8697,"ĠÐ½Ð°ÑĥÐºÐ¸":8698,"ĠÐ¿Ð¾Ð´ÑĤÐ²ÐµÑĢÐ¶Ð´":8699,"ĠÐ»ÐµÐ¿":8700,"Ð¸ÑĢÐ¾Ð²Ð°Ð½Ð½ÑĭÐ¹":8701,"Â»).":8702,"ĠÐºÑĢÐµÐ´Ð¸ÑĤ":8703,"ĠÐºÐ½Ð¸Ð³Ð°":8704,"Ð»ÑıÐ²":8705,"ÐµÐ´Ð½ÐµÐ²":8706,"ĠÐĳÑĭÐ»":8707,"ĠÐºÐ°Ð¶Ð´Ð¾Ðµ":8708,"ĠÑģÑĥÐ¼Ð¼Ñĥ":8709,"ĠÐ¿ÑĢÐµÐ´ÑģÑĤÐ°Ð²Ð»ÐµÐ½Ð¸Ñı":8710,"ĠÐ¿ÑĢÐ¾Ð´Ð°Ð²":8711,"Ð°ÑĤÐµÐ»ÑĮÐ½Ð°Ñı":8712,"ĠÐ½Ð°Ð´ÐµÑİÑģÑĮ":8713,"ĠÐ¿Ð¾Ð½Ð¸Ð¼Ð°Ð»Ð°":8714,"ÑĥÑİÑīÐ¸Ð¼":8715,"ĠÑĢÐ°ÑģÑħ":8716,"ĠÑģÑĤÐ°ÑĢÐ¸Ð½":8717,"ĠÑģÑĤÐ°Ð±":8718,"ĠÐ·Ð°ÐºÑĢÑĭÐ»":8719,"ĠÐĵÐ¾ÑģÐ¿Ð¾Ð´Ð¸":8720,"ĠÐ»Ð¾ÑĪÐ°Ð´Ð¸":8721,"ĠÐĳÐ°Ð±":8722,"ĠÐ¿Ð¾ÑĢÑĭÐ²":8723,"ĠÐ¿ÑĢÐ¾Ð¸ÑģÑĪÐµ":8724,"ĠÑĪÐµÑģÑĤÐ¸":8725,"ĠÐ½ÐµÐ»Ð¾Ð²":8726,"Ð¾Ð²Ð°ÑĤÐ¾":8727,"ĠÐ¢ÐĲÐ¡Ð¡":8728,"Ð¿Ð¾Ñģ":8729,"ĠÐ¾ÑĤÐ·":8730,"ÂłÐĿÐ¸ÑĩÐµÐ³Ð¾":8731,"Ð¸Ð»Ð»Ð°":8732,"ĠÐĺÐ¸ÑģÑĥÑģ":8733,"ĠÐĽÐ¸":8734,"ĠÐ´ÐµÐ±":8735,"ĠÑĢÐ¾Ð¼Ð°Ð½":8736,"ĠÐ¿ÑıÑĤÐ½Ð°Ð´ÑĨÐ°ÑĤÑĮ":8737,"ĠÑģÑĤÐ°Ð½Ð´Ð°ÑĢÑĤ":8738,"ĠÑģÐºÑĢÑĭÑĤÑĮ":8739,"Ð»Ð¾Ð½Ð¸Ð²":8740,"Ð´Ð°ÑİÑĤÑģÑı":8741,"ÐµÐ»ÑıÑħ":8742,"ĠÐŀÐ´Ð½Ð°":8743,"Ð»Ð¾ÑĪ":8744,"ĠÐ´ÐµÑĢÐµÐ²Ð½Ð¸":8745,"ĠÐ´Ñĭ":8746,"ĠÐ±ÑĢÐ¾":8747,"ĠÐ¼Ð¾Ð±Ð¸Ð»ÑĮ":8748,"Ġ35":8749,"ĠÐ¾Ð´ÐµÐ¶Ð´Ñĭ":8750,"==":8751,"Ð·Ð¾ÑĢ":8752,"ĠÐ½Ð¾Ð³Ð°Ñħ":8753,"ÑĳÐ³":8754,"Ð²Ð¸Ð´Ð¸Ð¼Ð¾Ð¼Ñĥ":8755,"ĠÐ½Ð°ÑĢÑĥÐ¶Ñĥ":8756,"ĠÐ°ÑģÑĤÑĢ":8757,"Ð¸ÑĤÐ¾Ð¹":8758,"ĠÐ¯Ð½":8759,"ĠÐ¡Ð¾Ð»":8760,"ĠÐļÐŁ":8761,"ĠÐ´ÑĥÑĪÐµÐ²":8762,"ÐºÐ¾Ð»":8763,"Ð°Ð·Ð°":8764,"ÑģÑİÐ´Ñĥ":8765,"ĠÑĤÐ¸ÑĤ":8766,"ĠÐ¸Ð·Ð±ÐµÐ¶Ð°ÑĤÑĮ":8767,"ĠÑĪÐµÑĢ":8768,"ĠÐ³ÐµÑĢÑĨÐ¾Ð³":8769,"ĠÐĶÐµÐ»":8770,"ĠÐĽÑĮ":8771,"ĠÐ¿ÑĢÐ¾ÑĩÐ¸Ð¼":8772,"ĠÑģÑĭÑĢ":8773,"ĠÐ¿Ð¾Ð´Ð»Ð¸Ð½":8774,"ĠÑģÐ¾Ð²ÐµÑī":8775,"ĠÐ¾ÑģÑĤÐ°Ð½Ð¾Ð²Ð¸ÑĤÑĮ":8776,"ĠÐ±Ð¾Ð»ÐµÐ·Ð½":8777,"ĠÐ¿ÑĢÐµÐ´Ð¼":8778,"Ð°Ð´Ð¾Ð»Ð³Ð¾":8779,"ĠÐ²ÑĢÐ°Ð³Ð¾Ð²":8780,"Ð»ÑİÑģÑĮ":8781,"ĠÐ¼Ð½Ð¾Ñİ":8782,"ĠÐ±ÑĥÐ»ÑĮ":8783,"ĠÑģÐ¾ÑĩÐµÑĤ":8784,"ÑħÐ¾Ð·":8785,"ĠÐŁÐ¾Ð»ÑĮ":8786,"ĠÐ·Ð°Ð¿Ð¾Ð»Ð½":8787,"ĠÐ¡Ð¸ÑĢÐ¸Ð¸":8788,"ĠÐ¿ÑĢÑıÑĤ":8789,"ĠÐ¿ÑĢÐ¾Ð¿ÑĥÑģÐº":8790,"ĠÑĥÐ¶Ð¸Ð½":8791,"ĠÑĢÐ°Ð·Ð»Ð¸ÑĩÐ½ÑĭÐµ":8792,"Ð¾Ð¹Ð´ÐµÐ¼":8793,"ÐµÑĢÐ°ÑĤÐ¾ÑĢ":8794,"ĠÐ¿ÐµÑĢÐµÑģÐµÐº":8795,"Ġ000":8796,"ĠÐ»Ð¾ÑĪÐ°Ð´ÐµÐ¹":8797,"ĠÐĽÐ¸ÑĤ":8798,"ĠÐŁÐµÑĤÑĢÐ°":8799,"ĠÐ±ÐµÐ»ÑĭÐµ":8800,"ĠÐ²Ð¾Ð¿ÑĢÐ¾ÑģÐ°":8801,"ĠÐ¼Ð°Ð»ÑĮÑĩÐ¸ÐºÐ°":8802,"ĠÐ½Ð°Ð¼ÐµÐº":8803,"ĠÐ³ÑĢÑĥÐ¿Ð¿Ñĥ":8804,"ĠÐ¿Ð¾Ð´Ð½ÑıÐ»Ð°ÑģÑĮ":8805,"ĠÐ¿ÑĢÐ¸ÐºÑĢÑĭÐ²":8806,"ĠÐ´ÑĢÑĥÐ³Ð¾Ð¼Ñĥ":8807,"ĠÐ¿Ð°Ð»ÑĮÑĨÐµÐ²":8808,"Ð¸Ð¼Ð¾Ð³Ð¾":8809,"ĠÑģÐ¿Ð°Ð»":8810,"ĠÐ¿ÑĢÐµÐ´ÑĬÑıÐ²":8811,"ĠÐ¥Ð¾ÑĢ":8812,"ĠÑģÑĥÑĤÐºÐ¸":8813,"ĠÐ¿Ð°Ð»ÐµÑĨ":8814,"ĠÐ¿Ð¾Ð»Ð°":8815,"ĠÐ´ÐµÑĢÐµÐ²Ð½Ðµ":8816,"Ð¾ÑĪÐ»Ð¸":8817,"ÑıÐ±ÑĢÑĮ":8818,"ÐµÐ½ÐºÐ°":8819,"ĠÐ¿ÐµÑĢÐµÐ³Ð¾Ð²Ð¾ÑĢÑĭ":8820,"ĠÐŁÑĢÐ¾Ð´":8821,"ĠÑģÑĥÑīÐµÑģÑĤÐ²Ð¾":8822,"ĠÐ²Ð¾Ð·ÑĢÐ°Ð·Ð¸Ð»":8823,"ĠÐ°ÐºÐºÑĥÑĢÐ°ÑĤÐ½Ð¾":8824,"ĠÐ¼Ð¾Ð½Ð°Ñħ":8825,"ĠÑģÐ¿ÐµÐºÑĤ":8826,"ĠÐĽÑĥÑĩÑĪÐµ":8827,"ĠÐ³Ð¾Ð²Ð¾ÑĢÐ¸ÑĤÐµ":8828,"ĠÐ¾ÑĤÐ´ÐµÐ»Ð°":8829,"ĠÐľÐ°ÑĪ":8830,"ĠÐ²Ð¾ÑģÑģÑĤ":8831,"ÑĤÐ¾ÑĩÐºÐ¸":8832,"Ġ2008":8833,"ĠÐ¾ÑĤÐ²ÐµÑĤÑģÑĤÐ²ÐµÐ½Ð½Ð¾ÑģÑĤÑĮ":8834,"ĠÐ¥ÑĢÐ¸ÑģÑĤÐ°":8835,"ĠÑģÐ»ÐµÐ´ÑĥÑİÑīÐµÐµ":8836,"ĠÐłÐµÐ±":8837,"ĠÐ¿Ð¾Ð±ÐµÐ´Ñĭ":8838,"ĠÐ³ÑĢÐµÑĩÐµÑģÐº":8839,"ÐµÐ½ÑģÐ°":8840,"ÐµÐ²ÑĪÐ¸Ðµ":8841,"ĠÑĦÐ»Ð¾ÑĤÐ°":8842,"ĠÐ»Ð¾ÑĢÐ´":8843,"ÑĥÐ»Ð¾Ð²":8844,"ĠÐ´ÐµÐ¹ÑģÑĤÐ²Ð¸ÑĤÐµÐ»ÑĮÐ½Ð¾ÑģÑĤÐ¸":8845,"ĠÐ¼Ð°Ð»ÐµÐ½ÑĮÐºÐ¾Ð¹":8846,"36":8847,"ĠÐºÐ°Ð¼Ð½Ñı":8848,"ÑĢÑĥÐµÑĤ":8849,"ĠÑģÐ²Ð¾Ð±Ð¾Ð´Ñĥ":8850,"ĠÐ¾ÑĤÐºÐ»ÑİÑĩ":8851,"Ð¾ÑĢÐ¸Ñı":8852,"ĠÐ±ÑĢÐ¾Ð²Ð¸":8853,"ĠÐ´Ð°Ð»Ð°":8854,"ĠÑģÐ¾ÑģÑĤÐ¾ÑıÐ½Ð¸Ñı":8855,"Ð¿ÑĢÐ¸":8856,"Ð¸ÑģÐµ":8857,"ĠÐ¾ÑĤÑĩÐµÐ³Ð¾":8858,"ĠÐ½ÐµÐ±Ðµ":8859,"Ð°ÑĤÐµÐ»ÑĮÑģÑĤÐ²":8860,"ĠÐ¾ÑģÑĤÐ°Ð½Ð¾Ð²Ð¸Ð»Ð°ÑģÑĮ":8861,"ĠÐ¿ÑĢÐ¾Ð²Ð¾ÑĢ":8862,"ĠÑģÑĤÑĢÐ°Ð½Ð°":8863,"ĠÑĢÐ°Ð±Ð¾ÑĤÐ°ÑİÑĤ":8864,"ĠÐ½Ð°ÑĩÐ¸Ð½Ð°ÐµÑĤÑģÑı":8865,"ĠÐ²ÑģÐ»ÑĥÑħ":8866,"Ð±ÐµÐ»":8867,"ÐµÐ½Ð¾Ðº":8868,"ĠÐ°ÐºÑĤÐµÑĢ":8869,"ĠÑįÐºÑģ":8870,"ĠÐ¼Ð¾Ð»Ð¾Ð´ÐµÐ¶":8871,"Ð°ÑĢÑĥ":8872,"ĠÑģÑĤÐ°ÑĤÑĮÐ¸":8873,"ĠÐºÐ¾Ð¼Ð¿Ð¾Ð·":8874,"ÐµÐ½ÑĮÐºÐ°Ñı":8875,"ĠÐĴÐ¸Ð½":8876,"Ð½Ð¸ÑĤÑĮ":8877,"ÐłÐĺ":8878,"ĠÑģÐ²Ð¸ÑģÑĤ":8879,"Ð¾ÑĤÐ½Ð¾ÑĪ":8880,"ĠÐ¾ÑĤÐ´Ð°ÑĤÑĮ":8881,"Ð°Ð¹Ð»":8882,"ĠÐ²Ð·Ð»ÐµÑĤ":8883,"ĠÐ¿Ð¾Ð±ÐµÑĢÐµÐ¶":8884,"ĠÐ¿ÑĢÐ¾Ð¸ÑģÑħÐ¾Ð´Ð¸Ð»Ð¾":8885,"ĠÐ¾ÑĤÐ²ÐµÑĩÐ°ÐµÑĤ":8886,"ĠÑĢÐ¾Ð²Ð½Ð¾":8887,"ĠÐ³ÑĢÐ°Ð±":8888,"ÑĤÑĥÑĢ":8889,"ÑĩÐ¸Ð½Ð°":8890,"ÑıÑİÑĤÑģÑı":8891,"ĠÐ¾Ð´ÐµÑĢÐ¶":8892,"ĠÐµÐ²ÑĢÐ¾":8893,"37":8894,"Ð¸Ð½ÑĥÐ»Ð¸":8895,"ĠÑĥÐ²ÐµÑĢÐµÐ½Ð½Ð¾":8896,"ĠÐ±ÑĭÐ²ÑĪÐµÐ³Ð¾":8897,"ĠÐĴÐµÑĤ":8898,"ĠÐłÐ°Ð½":8899,"ĠÐ¿ÑĢÐ¸Ð´ÐµÑĢÐ¶":8900,"ĠÑģÑĩÐ°ÑģÑĤÑĮÑı":8901,"ĠÐĲÐ»ÐµÐºÑģÐ°Ð½Ð´ÑĢÐ¾Ð²":8902,"ĠÐ¿ÑĢÐµÐ»":8903,"ĠÐ²Ð²Ð¾Ð´":8904,"ĠÑħÐ¼Ñĭ":8905,"ÑģÑıÑī":8906,"Ð°Ð±Ð¶":8907,"ĠÐ¾ÑģÑĤÐ°Ð²Ð¸Ð²":8908,"ĠÑģÑĩÐ¸ÑĤÐ°Ñİ":8909,"ĠÐ½Ð°ÑħÐ¾Ð´Ð¸Ð»Ð°ÑģÑĮ":8910,"ÑĢÐ°ÑĤÐ¸ÑĤÑĮ":8911,"ĠÐ¿Ð¾ÑģÐ¾Ð²ÐµÑĤ":8912,"ĠÑĢÐµÑĪÐ¸ÑĤÑĮ":8913,"ĠÐĳÑĥÑĢ":8914,"ĠÐ¼Ð°Ð»ÐµÐ½ÑĮÐºÐ°Ñı":8915,"ÑĢÐ¾Ð·":8916,"Ð¾Ð¿ÑĢÐ¾Ð²":8917,"ÑĦÐ¾Ð½":8918,"ĠÐ¿Ð¸ÑģÐ°ÑĤÐµÐ»ÑĮ":8919,"ÐµÐ²Ñĥ":8920,"ÑĪÑĥ":8921,"ĠÑĨÐµÐ½Ñĭ":8922,"ĠÐºÐ¾Ð¼Ð¸ÑĤÐµÑĤÐ°":8923,"Ð»ÑıÐ»Ð¾":8924,"ĠÐ¾ÑģÑĥÐ¶Ð´":8925,"ĠÐ°Ð»ÐºÐ¾Ð³":8926,"ÑĦÑĥ":8927,"ĠÑįÐ»ÐµÐ¼ÐµÐ½ÑĤ":8928,"Ð¾Ð»Ð¾ÑĤÐ¾":8929,"ĠÐ¿Ð¾Ð½Ð¸Ð¼Ð°ÐµÑĤÐµ":8930,"ĠÐ¾ÑĤÑĢÐ°Ð²":8931,"ĠÐ¿Ð¾Ð´ÑĤÐ²ÐµÑĢÐ´Ð¸Ð»":8932,"ÑĩÐµÑģÑĤ":8933,"ĠÐ¦Ð°ÑĢ":8934,"ĠÑĢÐµÑĦÐ¾ÑĢÐ¼":8935,"ĠÐ½Ð°ÑĥÐº":8936,"ĠÐĽÐ¸Ð´":8937,"ÐµÐ½ÑıÑħ":8938,"ÑĤÐ¾ÑĢÐµ":8939,"ĠÐºÐ¾Ð»Ð»ÐµÐºÑĤÐ¸Ð²":8940,"ĠÐ½Ð°ÑĢÐ¾Ð´Ñĥ":8941,"ĠÑģÑĤÐ°ÑĢÐ¾Ð¹":8942,"Ġ2009":8943,"ĠÐ¿ÑĢÐµÐ¾Ð´Ð¾Ð»":8944,"ĠÐ´ÑĥÐ¼Ð°ÐµÑĤÐµ":8945,"ÑģÐ»Ð°Ð¼":8946,"ĠÐ¾ÑĤÐ²Ð»ÐµÐº":8947,"ĠÑĤÑĢÐ°Ð½Ñģ":8948,"Ð°ÐºÑĤÐ¸Ð²":8949,"ĠÑĪÐ°Ð¿":8950,"ant":8951,"Ð½Ð¾Ð´Ð¾ÑĢÐ¾Ð¶":8952,"ÑįÐ´":8953,"ĠÐ¿Ð°ÑĢÐ»Ð°Ð¼ÐµÐ½ÑĤ":8954,"ĠÑİÑĢÐ¸Ð´":8955,"ĠÐ±Ð¾ÐµÐ²Ð¾Ð¹":8956,"ĠÐ²ÐµÑĢÑģÐ¸Ð¸":8957,"ÑĳÑĢÑĤ":8958,"ĠÑģÑĤÐ°ÑĢÑĭÐµ":8959,"ĠÐ±ÐµÐ»ÑĭÐ¹":8960,"Ð¾Ð²ÑģÐºÐ¸Ð¹":8961,"ĠÐ²Ð¿Ð¾ÑģÐ»ÐµÐ´ÑģÑĤÐ²Ð¸Ð¸":8962,"ĠÑģÐ¾Ð²Ð¿Ð°Ð´":8963,"ĠÐ¿ÐµÑĢÐµÐ½Ð¾Ñģ":8964,"Ð½Ð¸ÑĨÐ¸Ð¿":8965,"ĠÐŀÑĤÐºÑĥÐ´Ð°":8966,"ĠÐºÐ¾Ð½ÑĦÐ»Ð¸ÐºÑĤ":8967,"ĠÐ¿Ð¾Ð²ÐµÑĢÐ½ÑĥÐ»Ð°ÑģÑĮ":8968,"Ð¾ÑĨ":8969,"ĠÑĤÐµÐ¾ÑĢÐ¸Ð¸":8970,"ĠÐ¿Ð¾Ð´Ð´ÐµÑĢÐ¶ÐºÑĥ":8971,"ĠÑģÐ»ÑĭÑĪÐ½Ð¾":8972,"ĠÐ¿ÑĢÐ¾Ð²ÐµÐ´ÐµÐ½Ð¸Ñı":8973,"ÑİÑīÐ¸Ð¼":8974,"ĠÑĢÐ¾Ðº":8975,"ĠÑĤÐµÐ»Ðµ":8976,"ĠÑįÑģÐºÐ°Ð´":8977,"Ð¾Ð¼Ð°Ð½Ð´":8978,"ĠÑĢÐ°ÑģÑģÑĥÐ¶Ð´":8979,"ĠÑģÐ¾Ð»Ð´Ð°ÑĤÑĭ":8980,"Ð¾ÑģÐ¿Ð¾Ð´":8981,"ĠÐºÑĥÑħÐ½Ñİ":8982,"Ð¾ÑİÐ·":8983,"ĠÐºÐ¾Ð¼Ð¼ÑĥÐ½Ð¸ÑģÑĤ":8984,"Ð¾ÑĩÑĥ":8985,"ĠÐ²Ð¾Ð¶Ð´":8986,"ĠÐĿÐ°Ð´ÐµÑİÑģÑĮ":8987,"Ð°ÑīÐ¸Ðµ":8988,"ill":8989,"ĠÐ¿ÑĢÐ¾Ð´Ð¾Ð»Ð¶Ð°ÑĤÑĮ":8990,"ĠÑĢÑĥÐ¶":8991,"ĠÐ·Ð°ÑıÐ²Ð»ÐµÐ½Ð¸Ðµ":8992,"ĠÑĨÐ¸Ðº":8993,"Ð±Ð¸ÑĤ":8994,"ĠÐ¾Ð±ÑĢÑĭÐ²":8995,"ĠÐĶÐµÐ¹ÑģÑĤÐ²":8996,"ĠÑģÑĤÐ¾Ð»ÐµÑĤ":8997,"ĠÐ¾Ð±ÑģÐ»ÑĥÐ¶":8998,"ĠÑĤÐµÐ¼Ð¸":8999,"Ð»ÑĥÐ¿":9000,"ÑĤÐ¸ÐµÐ¼":9001,"ĠÑģÐºÐ°Ð¶Ð¸":9002,"ĠÐ¾ÑĢÐ¸Ð³Ð¸Ð½":9003,"ĠÑģÑĤÐ°ÑĤÑĥÑģ":9004,"ĠÐ½Ð¸ÑĩÑĤÐ¾":9005,"ĠÐ±Ð¾ÑıÐ»ÑģÑı":9006,"ĠÐ¿Ð¾Ð´Ð¾Ð±ÑĢ":9007,"ÐµÑĤÑĮÐ¼Ð¸":9008,"Ð·Ð°Ðº":9009,"ĠÐ¾ÑĤÑħÐ¾Ð´":9010,"Ð¾ÑĩÐ½Ð¸Ðº":9011,"ĠÑĨÐ°ÑĢÑĮ":9012,"ĠÑĢÐµÐ°Ð»Ð¸Ð·":9013,"ĠÐĺÐ½ÑĤÐµÑĢÐµÑģÐ½Ð¾":9014,"ĠÑĥÑħÐ¾":9015,"Ð¸Ð²ÑĪÐµÐ¹ÑģÑı":9016,"ĠÐ´Ð²Ð°Ð´ÑĨÐ°ÑĤÐ¸":9017,"ĠÑĥÑģÐ»ÑĭÑĪÐ°Ð»Ð°":9018,"ĠÐ´Ð°ÑĤ":9019,"ÐµÐ²Ð½Ð¾Ð²":9020,"ĠÑĥÐ½Ð¸Ð²ÐµÑĢÑģÐ¸ÑĤÐµÑĤÐ°":9021,"ĠÐŀÐ»ÑĮÐ³Ð°":9022,"ĠÐ¼ÑĭÑģÐ»ÐµÐ½Ð½Ð¾":9023,"ĠÐ½ÐµÐ±Ð°":9024,"ÐľÐŀ":9025,"ĠÐĺÐ»":9026,"ĠÐ¿Ð¾Ð·Ð´Ð½ÐµÐµ":9027,"ĠÑģÐ¸Ð³Ð½Ð°Ð»":9028,"Ð¸ÑĢÐ°ÑĤÑĮÑģÑı":9029,"ĠÐ²ÑĤÐ¾ÑĢÐ°Ñı":9030,"ĠÐ´Ð¾Ð¿ÑĢÐ¾Ñģ":9031,"ĠÐ¾ÑĤÑĨÑĥ":9032,"ĠÐ¾Ð³Ð½ÐµÐ¼":9033,"ĠÐ²ÐµÑĢÑİ":9034,"ĠÐ´Ð¾Ð±ÑĢÐ°ÑĤÑĮÑģÑı":9035,"ĠÐķÐ³Ð¸Ð¿":9036,"ĠÐ½Ð°ÑĩÐ°Ð»Ð¾ÑģÑĮ":9037,"ĠÑģÐ½ÑıÑĤÑĮ":9038,"ĠÐĵÐ¾ÑģÐ¿Ð¾Ð´ÑĮ":9039,"ĠÐ¿ÑĢÐ¾ÑģÐ¸Ð»":9040,"ĠÑĥÐ¿ÑĢÑıÐ¼":9041,"ÂłÐŀÐ½Ð°":9042,"ĠÐ¿Ð¾Ð²Ð¾ÑĢÐ°Ñĩ":9043,"ĠÐ²Ð»Ð°Ð¶":9044,"ÑĥÑħÐ¸":9045,"Ð°Ð»ÐµÐºÑĥ":9046,"ĠÑģÐ¾ÐºÑĢÐ¾Ð²":9047,"ĠÑĥÑĪÐ»Ð¸":9048,"ĠÐľÐ°Ð´":9049,"ĠÑĢÐ°Ð´Ð¾ÑģÑĤÐ½Ð¾":9050,"ÂłÐ¡Ð¿Ð°ÑģÐ¸Ð±Ð¾":9051,"ĠÐ¿Ð¾Ð´Ð¼":9052,"ĠÐĵÐµÑĢÐ¼Ð°Ð½":9053,"Ð°Ð½ÑģÐºÐ¸Ð¹":9054,"Ð¿Ð¸ÑģÑĮ":9055,"ĠÐłÐµÐ·":9056,"ĠÐĴÐĴ":9057,"ĠÐĴÐ¸Ð»ÑĮ":9058,"ĠÐĶÐ¾Ð»":9059,"ÂłÐĹÐ½Ð°ÑĩÐ¸ÑĤ":9060,"ĠÐ¿Ð¾Ð½Ð¸Ð¼Ð°Ñı":9061,"ĠÑĤÐµÑģÑĤ":9062,"ÑĤÑĢÐ¾":9063,"ĠÐ¸ÑģÐºÑĢÐµÐ½Ð½Ðµ":9064,"Ð°ÑĤÐµÐ»ÑıÐ¼Ð¸":9065,"ĠÑĢÐµÑģÐ¿ÑĥÐ±Ð»Ð¸ÐºÐ¸":9066,"ĠÐ½Ð°ÑģÑĤÐ¾ÑĢÐ¾Ð¶":9067,"ĠÑĢÐ°ÑģÑģÐºÐ°Ð·Ð°Ð»Ð°":9068,"ĠÐĶÐµÐ²ÑĥÑĪÐºÐ°":9069,"ĠÐ±Ð¾ÑĢÑĤÑĥ":9070,"Ð¾ÐºÐ¾Ð½":9071,"ĠÐ²ÑģÐ°Ð´":9072,"ĠÐ¾ÑģÑĤÐ°Ð²Ð°Ð»ÑģÑı":9073,"Ð¾ÑĩÐ¸Ð»Ð°":9074,"Ð½ÑİÐ´ÑĮ":9075,"ÑĢÐ°Ð¹":9076,"Ð¾Ð¶Ð´Ðµ":9077,"ĠÑĪÐ°Ð³Ð¸":9078,"ĠÐ±ÐµÑģÐ¿Ð¾Ð»ÐµÐ·":9079,"ĠÐ´ÑĮÑıÐ²":9080,"ĠÐ´ÐµÐ½ÑĮÐ³":9081,"ĠÐ³Ð°ÑĢÐ°Ð½ÑĤ":9082,"ĠÐļÐ¾Ð½ÑģÑĤÐ°Ð½ÑĤÐ¸Ð½":9083,"Ð¸ÑĢÐ¾Ð²Ð°Ð½Ð½ÑĭÐµ":9084,"Ð°Ð²Ð°Ð¹":9085,"ĠÐ¶Ð´Ð°Ð»Ð¸":9086,"Ð¾Ð»ÐºÐ¾Ð²":9087,"ĠÐ¥Ð°":9088,"Ð¸ÑĤÐ°Ð½Ð¸Ð¸":9089,"ĠÐĴÑģÐµÐ¼":9090,"ĠÐ¾Ð³Ð¾ÑĢ":9091,"ĠÐ¿ÑĢÐ¸ÑĨ":9092,"ĠÐĳÐ¾Ð±":9093,"ĠÑĩÑĢÐµÐ·Ð²ÑĭÑĩÐ°Ð¹Ð½Ð¾":9094,"ÂłÐĽÐ°Ð´Ð½Ð¾":9095,"ĠÑĢÐ°ÑģÑģÑĤÐ¾ÑıÐ½Ð¸Ð¸":9096,"ĠÐ²ÑģÑĤÑĢÐµÑĩÐ°":9097,",-":9098,"ĠÐºÐ°ÐºÐ¸Ð¼Ð¸":9099,"ĠÑĥÐ±Ð¸Ð¹ÑģÑĤÐ²Ð°":9100,"ĠÐļÐ°ÐºÐ°Ñı":9101,"ĠÑĥÑģÐ¿ÐµÑĪ":9102,"ÑĥÑģÐ¿":9103,"Ð¾Ð³Ð¾Ð²Ð¾ÑĢ":9104,"ÐµÐ¹Ð·":9105,"ĠÐ½Ð°Ð´ÐµÐ¶Ð´Ñĭ":9106,"ĠÐ±ÑĢÐ¾ÑĪ":9107,"ĠÐºÐ»Ð°Ð²":9108,"Ð°ÑĤÐ¾Ð»":9109,"ĠÐºÑĢÑĥÐ¿Ð½ÑĭÑħ":9110,"ĠÐ¿Ð¾ÐºÑĢÐ¾Ð²":9111,"ĠÑĥÐ·Ð½Ð°Ð»Ð°":9112,"ĠÑĢÐ¾Ð¶Ð´":9113,"ÑĪÐ¸Ð½Ñĭ":9114,"ĠÐºÐ¾ÑĢÐ¿ÑĥÑģÐ°":9115,"Ð¸Ð²Ñĭ":9116,"Ð´ÐµÐ½Ð°":9117,"ĠÑįÑĤÐ°Ð¶":9118,"ĠÐ»Ð¸ÑĦ":9119,"ĠÑĢÐ°Ð·Ð´ÑĥÐ¼":9120,"Ð¾ÑĢÐ¾ÑĪÐµÐ½ÐºÐ¾":9121,"Ð¼ÐµÐ¹":9122,"ĠÐºÐ¾Ð¶Ð¸":9123,"Ru":9124,"ĠÐ¿Ð¾ÑĤÐµÑĢÐ¸":9125,"ĠÑģÑĤÑĢÐ°Ð½Ð¸ÑĨÐµ":9126,"ĠÑįÐºÐ¾Ð½Ð¾Ð¼Ð¸ÐºÐ¸":9127,"ĠÐ´Ð¾Ð·":9128,"ĠÐĴÐµÐ»Ð¸ÐºÐ¾Ð±ÑĢ":9129,"Ð¶ÐµÐ»":9130,"ĠÑĪÐ»Ñİ":9131,"ĠÑģÐ¾Ð±Ð»Ð°Ð·":9132,"Ð³ÑĥÐ¼":9133,"ĠIII":9134,"ĠÑĦÐ¾ÑĤÐ¾Ð³ÑĢÐ°ÑĦÐ¸Ð¸":9135,"ĠÑģÐ¿Ð¾ÑģÐ¾Ð±Ð½Ð¾ÑģÑĤÐ¸":9136,"ĠÐ²ÑĭÑĪÐ»Ð¾":9137,"ĠÐ¾ÑĢÐ´ÐµÐ½":9138,"ĠÑĥÐ¿Ð°Ð»Ð°":9139,"ĠÐ½Ð°Ð¿ÑĢÑıÐ³":9140,"ĠÑģÐºÐ¾ÑĢÐ¾ÑģÑĤÐ¸":9141,"ĠÐľÐ¾Ñı":9142,"ĠÐ¿ÑĢÐ¾ÑĩÐ¸ÑĤ":9143,"ĠÐľÐ¸ÑĤ":9144,"))":9145,"ĠÑĥÐ±Ð¸Ð¹ÑģÑĤÐ²Ð¾":9146,"ĠÐ¢ÑĢÐ¾":9147,"ĠÐ¿Ð¾Ð¹Ð´Ñĥ":9148,"ĠÐ°Ñģ":9149,"ĠÐ²Ð¾Ð·ÑĮÐ¼Ð¸":9150,"ĠÐ¤Ð¸Ð»":9151,"ÐºÐµÑĤ":9152,"ĠÑģÐ¾Ð±Ð»ÑİÐ´":9153,"ĠÐĴÐ¼ÐµÑģÑĤÐµ":9154,"ĠÐ´Ð»Ð¸Ð½Ð½ÑĭÐµ":9155,"ĠÑģÐ¾Ð±ÑģÑĤÐ²ÐµÐ½Ð½ÑĭÑħ":9156,"ĠÑĩÑĥÐ´Ð¾Ð²Ð¸Ñī":9157,"ĠÐ¿ÑĢÐ°Ð²Ð¾Ð¹":9158,"ĠÐ¼ÐµÑģÑĤÑĥ":9159,"ĠÐ»ÐµÐ¶Ð°Ð»Ð¸":9160,"ĠÐ²ÑħÐ¾Ð´Ð¸ÑĤ":9161,"ĠÐĶÐ°Ð»":9162,"ĠÐ¿ÑĢÐ¾Ð´Ð¾Ð»Ð¶Ð°ÐµÑĤ":9163,"ĠÐ³Ð¾ÑĢÐ¾Ð´Ð¾Ð²":9164,"ĠÐ¸Ð·Ð¾Ð±ÑĢÐµÑĤ":9165,"ĠÑģÐ¾Ð·Ð´Ð°Ð½Ð¸Ðµ":9166,"ĠÐ²Ð»Ð¸":9167,"ÂłÐ½Ð°":9168,"ĠÐ¡ÐºÐ¾ÑĢÐµÐµ":9169,"ÐķÑīÐµ":9170,"Ð°ÑĤÐµÐ»ÑıÐ¼":9171,"ĠÐ¿Ð¾Ð·Ð²Ð¾Ð»Ð¸ÑĤÑĮ":9172,"ĠÐ°ÐºÑĤÐ¸Ð²Ð½Ð¾":9173,"ĠÐ½Ð°Ð¿ÑĢÐ°Ð²Ð»ÐµÐ½Ð¸Ñı":9174,"ĠÑĢÐµÐºÐµ":9175,"ÑĢÑİ":9176,"ĠÑģÑĥÑĤÑĮ":9177,"ĠÐļÑģ":9178,"ĠÐºÐ°Ð¼Ð½Ð¸":9179,"Ð²ÐµÐ¹ÑĨÐ°ÑĢ":9180,"ĠÑĢÐµÐ·ÐµÑĢÐ²":9181,"ĠÑĥÑģÐ¿ÐµÑĪÐ½Ð¾":9182,"ÐµÑĢÐµÐº":9183,"Ð¸Ð¼ÐµÐ½":9184,"ĠÐ¿Ð»Ð°Ñī":9185,"ĠÐ·Ð°Ð½Ð¸Ð¼Ð°Ð»ÑģÑı":9186,"Ð°Ð´ÑĥÑĤ":9187,"ĠÐ¿Ð¾Ð´ÑĢÑıÐ´":9188,"ĠÐµÐ¿Ð¸ÑģÐºÐ¾Ð¿":9189,"ĠÑģÐ½Ð°ÑĢÑıÐ´":9190,"ĠÐ¿ÑĢÐ¸ÑĩÐ¸Ð½Ð¾Ð¹":9191,"ĠÐĵÐ¾ÑģÐ¿":9192,"ĠÐ¿Ð¾Ð»Ð¾Ð²Ð¸Ð½Ñĥ":9193,"ĠÐ¿Ð¾ÑģÑĢÐµÐ´Ð¸":9194,"ĠÑĦÐ°ÑĪ":9195,"ÐµÑĢÑĮÑĳÐ·":9196,"Ð¾Ð²Ð¾ÑĢÐ¸Ð»Ð°":9197,"ĠÐ¿ÑĢÐµÐ´ÑģÑĤÐ¾Ð¸ÑĤ":9198,"ĠÑģÐºÐ°Ð¶ÐµÐ¼":9199,"ÐµÐ½Ð´Ñĥ":9200,"Ð´Ð°Ñİ":9201,"ĠÑĢÐ°Ð·Ð¾ÑĢ":9202,"ÑĦÐ¸":9203,"ĠÑģÐµÐ²ÐµÑĢÐ¾":9204,"ĠÑĦÐ°Ð½ÑĤÐ°ÑģÑĤ":9205,"ÐºÐ¾ÑģÑĤÑĮÑİ":9206,"ĠÐ¾Ð±ÐµÑīÐ°Ð»":9207,"ĠÐ¿Ð¾Ð´ÑĢÐ¾ÑģÑĤ":9208,"ĠÐ½ÐµÑĥÐ´Ð°Ñĩ":9209,"ĠÐ´Ð°ÑģÑĤ":9210,"ĠÐºÐ¾Ð½Ñı":9211,"Ð¾ÑĤÐµÑĢ":9212,"ĠÑģÐ½Ð°":9213,"ĠÐ¼ÑĭÑģÐ»ÐµÐ¹":9214,"ĠÐ¸Ð³ÑĢÐ°Ð»":9215,"ĠÐ¼Ð°Ð¹Ð¾ÑĢ":9216,"ÑĢÐµÐ³":9217,"Ð¸Ð·Ð°ÑĨÐ¸Ñı":9218,"ĠÐ½Ð°Ð²ÐµÑĢÑħ":9219,"ĠÑģÐ²ÑıÐ·Ð°Ð½Ð¾":9220,"ĠÐĴÐ°ÑģÐ¸Ð»Ð¸Ð¹":9221,"ĠÐ³ÑĢÑĥÐ¿Ð¿Ðµ":9222,"ĠÐ½Ð°ÐºÐ¾Ð¿":9223,"ĠÐ²ÑĭÑıÑģÐ½Ð¸ÑĤÑĮ":9224,"ÑģÑĤÐ²ÐµÐ½Ð½Ð¾ÑģÑĤÐ¸":9225,"ĠÐ¼Ð¾Ð·Ð³Ð°":9226,"Ð¸Ð¹ÑģÐºÐ¸Ðµ":9227,"ĠÑĥÐ´Ð°Ñĩ":9228,"Ġ1941":9229,"ĠÐºÐ¾Ð¶Ð°Ð½":9230,"Ġ2000":9231,"ĠÐ¿ÑĢÐ¸Ð±ÑĭÐ»Ð¸":9232,"ĠÑģÐ¸Ð»ÑĮÐ½ÑĭÐ¹":9233,"):":9234,"ĠÐ¼Ð°Ð³Ð°Ð·Ð¸Ð½":9235,"ĠÐ¢Ð°Ð½":9236,"ĠÐ±Ð¾Ð³Ð¾":9237,"ĠÐ¿Ð¾Ð¿ÑĭÑĤÐ°Ð»Ð°ÑģÑĮ":9238,"ĠÐ²Ð¾Ð¸Ð½Ð¾Ð²":9239,"ĠÑĢÐ°ÑģÑĤÐ²Ð¾ÑĢ":9240,"ÐºÐ¾ÑĤÐ¾ÑĢ":9241,"ĠÑĥÐ½Ð¸Ð²ÐµÑĢÑģÐ¸ÑĤÐµÑĤ":9242,"ĠÑħÐ¼ÑĥÑĢ":9243,"ĠÐ½ÐµÐ·Ð°ÐºÐ¾Ð½":9244,"ĠÐ´Ð°ÑİÑĤ":9245,"ĠÐĶÐµÐ½ÑĮ":9246,"ÑĭÐ²Ð°ÐµÐ¼":9247,"ĠÐ¿ÑĢÐ¾ÑħÐ»Ð°Ð´":9248,"ĠÑĦÑĥÑĢ":9249,"ĠÑĥÑģÐ»ÑĭÑĪÐ°ÑĤÑĮ":9250,"ĠÐ²Ð¸Ð´Ð¸ÑĤÐµ":9251,"ÑģÑĤÐ²ÐµÐ½Ð½ÑĭÐ¼Ð¸":9252,"ĠÐ½Ð°ÐºÐ°Ð½ÑĥÐ½Ðµ":9253,"ĠÐ²Ð¾ÑģÐºÐ»Ð¸ÐºÐ½ÑĥÐ»Ð°":9254,"ĠÐĲÐ½ÑĤÐ¾Ð½":9255,"ĠÐ²ÑģÑĤÑĢÐµÑĤÐ¸ÑĤÑĮÑģÑı":9256,"Ð¸ÑĤÐµÐ»ÑĮÑģÑĤÐ²Ð¾":9257,"Ð»Ð¾Ðµ":9258,"ĠÐ¼Ð¾ÐºÑĢ":9259,"ĠÐ¾ÑĤÐºÐ°Ð·Ð°ÑĤÑĮÑģÑı":9260,"ĠÑĤÐ¾ÑĩÐºÑĥ":9261,"ĠÐ¾Ð²Ð»Ð°Ð´":9262,"ĠÐ¿ÑĢÐµÐ²ÑĭÑĪ":9263,"ĠÐ¸Ð³ÑĢÑĥÑĪ":9264,"ĠÐºÑĢÐµÑģÐ»Ð°":9265,"ĠÐ·Ð°ÐºÑĢÐµÐ¿":9266,"ÂłÐĺÐ·":9267,"ÑİÑīÐµÐ³Ð¾":9268,"ĠÐ¾ÑģÐ»ÐµÐ¿":9269,"Ð½Ð°ÑģÑĤÐ¾ÑıÑīÐµÐ¼Ñĥ":9270,"ĠÐĿÐ¸ÐºÐ¾Ð³Ð´Ð°":9271,"ĠÐ½Ð°ÑĢÐ¾Ð´Ð¾Ð²":9272,"ĠÑĥÐ´Ð¸Ð²Ð»ÐµÐ½Ð½Ð¾":9273,"ĠÐ½ÑĳÐ¼":9274,"ĠÐ½Ð¸Ð³":9275,"ĠÐ»Ð°ÑĤ":9276,"ĠÐĿÐ°ÑĨÐ¸Ð¾Ð½":9277,"ĠÑĥÑģÐ¿ÐµÐ²":9278,"ĠÐ²Ð°Ð¼Ð¿":9279,"ĠÐºÐ¾ÑĢÐ¾ÑĤÐºÐ¾":9280,"ĠÐºÑĢÐµÐ¹Ñģ":9281,"ĠÑħÐ¾ÑĢÐ¾ÑĪÐµÐ³Ð¾":9282,"ÑĤÑĢÐ¸":9283,"ĠÐ½Ð°ÑģÑĤÑĢÐ¾ÐµÐ½Ð¸Ðµ":9284,"Ð»Ð¸ÑģÑĤ":9285,"ĠÐ±ÐµÐ·Ð¼":9286,"ĠÐ´ÐµÐ»Ð°Ð¼":9287,"Ð¸ÑģÐ¸":9288,"ĠÐºÐ°Ð¶Ð´Ð¾Ð¼Ñĥ":9289,"ĠÐºÐ°ÑĢÑĤÐ¸Ð½Ñĥ":9290,"Ð°Ð½Ð½Ð¾ÑģÑĤÐ¸":9291,"ĠÐ½Ð°Ð¿Ð¸ÑĤ":9292,"ĠÐ·Ð´Ð¾ÑĢÐ¾Ð²Ð¾":9293,"ĠÐ¼ÑĥÑĤ":9294,"ĠÑĤÐµÑĢÑĢÐ¸ÑĤÐ¾ÑĢÐ¸Ñİ":9295,"ÐµÑĢÐµÐ³":9296,"ÑĤÐ¾ÑĩÐºÑĥ":9297,"ĠÑĥÐ´ÐµÐ»":9298,"Ð¾Ð¸":9299,"Ð»Ð¾Ðº":9300,"ĠÐĵÐµÐ½ÐµÑĢ":9301,"ĠÐĴÐ»Ð°Ð´Ð¸Ð¼Ð¸ÑĢÐ°":9302,"ĠÐ¿Ð¾Ð³ÑĢÑĥÐ¶":9303,"ÐµÐ½Ð½":9304,"ĠÐ¿ÑĢÐ¸ÑĩÐ¸Ð½Ð°":9305,"ĠÐºÐ°Ð±Ð¸Ð½ÐµÑĤÐµ":9306,"ĠÐĴÐ¾Ð¾Ð±ÑīÐµ":9307,"ĠÑģÐ»ÑĭÑĪÐ°ÑĤÑĮ":9308,"ĠÐŁÐ¾ÑģÐº":9309,"ĠÐ½Ð°Ð·ÑĭÐ²Ð°Ð»Ð¸":9310,"ĠÐºÐ¾Ð»Ð´Ñĥ":9311,"ÐµÐºÐ¾Ð²":9312,"ÑįÑĢÐ°":9313,"ĠÐ¿Ð¾Ð»Ð½Ð¾Ðµ":9314,"ĠÐ»ÐµÐ²Ð¾Ð¹":9315,"ĠÐ¾ÑĩÐµÑĢÐµÐ´Ð¸":9316,"ĠÐ³Ð¸Ð±ÐµÐ»Ð¸":9317,"ĠÐŁÐ¾Ð½":9318,"ĠÐ²ÑĭÑĤÐ°ÑīÐ¸Ð»":9319,"ĠÐľÐĴÐĶ":9320,"Ð¸ÑĢÐ¾Ð²Ð°Ð½Ð¾":9321,"ĠÐºÑĢÐµÑģÐ»Ðµ":9322,"ĠÑģÐ¾Ð±ÑĢÐ°ÑĤÑĮ":9323,"ĠÐ²Ð¸Ð½Ð¾Ð²Ð°ÑĤ":9324,"Ð²Ð¸ÑĤ":9325,"ĠÑĢÑıÐ´Ð°":9326,"Ð¾ÑĩÐ½Ð°Ñı":9327,"ĠÐľÐ¾Ð³":9328,"ĠÑĥÐ±Ð¸Ð»Ð¸":9329,"38":9330,"ĠÐ·ÐµÐ¼ÐµÐ»ÑĮ":9331,"ĠÐĲÑĢÑħ":9332,"ĠÐ±Ð¾Ñİ":9333,"ĠÐ¾Ð±Ð¼ÐµÐ½":9334,"ĠÐ³ÐµÐ½ÐµÑĢÐ°Ð»Ð°":9335,"Ð¸Ð·Ð½ÑĮ":9336,"ĠÐ²Ð·Ð¾ÑĢÐ²":9337,"Ð¾ÑĪÐµÐµ":9338,"ÐµÐ»Ð¸Ð²Ð¾":9339,"ĠÐ²ÑģÑĤÑĢÐµÑĤÐ¸Ð»":9340,"ĠÐ²ÑĭÐ¹Ð´ÐµÑĤ":9341,"ĠÐ·Ð°Ð´Ð°ÑĩÐ¸":9342,"ĠÐ²ÑģÑĤÑĢÐµÑĩÑĥ":9343,"ĠÐ´Ð¾Ð±ÑĢÐ¾Ð´":9344,"ĠÐ±Ð°ÑģÑģ":9345,"ĠÐ´Ð¾Ð»Ð¶Ð½Ð¾ÑģÑĤÐ¸":9346,"ĠÐ´ÐµÑĤÑĮÐ¼Ð¸":9347,"ÐĺÐ½ÑĤÐµÑĢ":9348,"ĠÐ´ÐµÑĢÐµÐ²Ð¾":9349,"ĠÐ¸Ð½ÑĤÐµÑĢÐ½ÐµÑĤ":9350,"Ð°ÑĢÐµÐ¹":9351,"ĠÐĽÑİÐ´":9352,"ĠÐĴÐ¸Ð´Ð¸Ð¼Ð¾":9353,"ĠÐ¿ÑĢÐ¾ÑĨÐµÑģÑģÐµ":9354,"ĠÐºÐ°Ð²Ð°Ð»":9355,"Ð¸ÑĤÑĢÐ¸":9356,"ÑĥÑīÐµÐ³Ð¾":9357,"ĠÐ¿ÑĢÐ¾Ð¿Ð°Ð³":9358,"ĠÐ½ÐµÐºÐ¾Ð³Ð´Ð°":9359,"ÑİÑħ":9360,"ĠÐĲÐ½ÑĤÐ¾":9361,"ĠÐĴÐµÐ»":9362,"ÑģÐ°Ð¼":9363,"ĠÐ²Ð°Ð»ÑİÑĤ":9364,"ĠÐ¿Ð¾ÑģÑĭÐ»":9365,"ĠÐ·Ð´Ð¾ÑĢÐ¾Ð²ÑĮÐµ":9366,"Ð»Ð¾Ð±":9367,"ĠÐ°Ð´Ð¼Ð¸Ð½Ð¸ÑģÑĤÑĢÐ°ÑĨÐ¸Ð¸":9368,"ĠÐ±ÑĢÐ°Ðº":9369,"ĠÑĪÐ°ÑĤ":9370,"ĠÐ¢Ð°ÐºÐ¾Ðµ":9371,"ĠÐ²ÐµÐ»Ð¸ÐºÐ¸Ð¹":9372,"ĠÐºÐ°ÑĢÑĤÑĭ":9373,"ĠÑģÐ¾Ð¾ÑĢÑĥÐ¶":9374,"ĠÐ·Ð°Ð¼ÐµÑĤÐ¸Ð»Ð¸":9375,"ÑģÐ¸Ð²":9376,"ĠÐ½ÐµÐ»ÐµÐ¿":9377,"ĠÑĥÑĩÐ°ÑģÑĤÐ¸Ñı":9378,"ĠÑģÐ¿ÑĢÐ°ÑĪÐ¸Ð²Ð°ÐµÑĤ":9379,"ĠÑģÐ°Ð¼Ð¾Ð»ÐµÑĤÐ°":9380,"ĠÐ¿ÑĢÐµÐ¿Ð¾Ð´Ð°Ð²":9381,"ĠÑģÐ»ÑĥÐ¶Ð¸ÑĤÑĮ":9382,"Ð°Ð³Ð¸":9383,"ÐļÑĤÐ¾":9384,"ĠÐ¸ÑģÐºÐ»ÑİÑĩÐµÐ½Ð¸ÐµÐ¼":9385,"ĠÐ¾ÑģÑĤÐ°Ð»ÑĮÐ½Ð¾Ðµ":9386,"ĠÑģÑĥÐ´ÑĮÐ±Ñĭ":9387,"ĠÐºÐ¾ÑģÑĤÐ¸":9388,"ĠÐ½ÐµÑģÐ¿":9389,"ĠÐºÐ¾Ð½ÑĨÐµÐ¿":9390,"90":9391,"ĠÐ²Ð¸Ð½ÑĤÐ¾Ð²":9392,"und":9393,".),":9394,"ĠÐ´ÐµÐ²Ð¾ÑĩÐºÐ¸":9395,"ĠÐ½ÐµÑĥÐ¼":9396,"ĠÐ¿Ð¾Ð¸ÑģÐºÐ°Ñħ":9397,"Ð¸Ð·Ð¼Ð¾Ð¼":9398,"ĠÐ²Ð·Ð³Ð»ÑıÐ´Ñĭ":9399,"ĠÐ¿Ð¾ÑıÐ²Ð¸Ð»Ð¾ÑģÑĮ":9400,"ĠÐ¡ÑĤÐ¸Ð²":9401,"ĠÐ¡Ð°Ð¹":9402,"ĠÑĦÐ°Ð½":9403,"ĠÑĩÐµÑĢÐ½Ð¾Ð¹":9404,"ĠÐŁÐ¾Ð½Ð¸Ð¼":9405,"ĠÑĢÑĥÐ±ÐµÐ¶":9406,"ĠÐ¿ÐµÑĢÐµÐ²ÐµÑĢ":9407,"ĠÐ¼ÐµÐ±":9408,"ĠÐ±ÑĭÑĤ":9409,"ĠÐ°ÑĥÐ´Ð¸":9410,"ĠÂ":9411,"ĠÐ¿Ð¾ÐºÑĢÐ°Ñģ":9412,"ĠÑĤÐµÐ»ÐµÑĦÐ¾Ð½Ñĥ":9413,"ĠÐ²ÑĢÐ°Ñī":9414,"ĠÐ¿Ð¸Ðº":9415,"Ð¸ÑĢÐ¾Ð²Ð°Ð½Ð½Ð¾Ð¹":9416,"ĠÐ¾ÑĤÑģÑĤÑĢÐ°Ð½":9417,"ĠÐ·Ð°ÐºÐ¾Ð½ÑĩÐ¸Ð»":9418,"ĠÑĪÑĤÐ°Ð±Ð°":9419,"ĠÐ²ÑħÐ¾Ð´Ð°":9420,"Ð°ÑīÐ¸ÑĤ":9421,"ÐµÐ»ÐµÐ½Ð½Ð¾Ð¹":9422,"ĠÐ¿ÑĢÐ¸Ð±ÑĭÐ»":9423,"ĠÐ³Ð½Ð¾Ð¼":9424,"ĠÑģÑĤÑĥÐ¿ÐµÐ½ÑĮ":9425,"Ð¸Ð´ÐµÑģÑıÑĤÐ¸":9426,"ĠÐ¿ÐµÑĢÐµÐ²Ð¾Ð·":9427,"ĠÑįÐ¿Ð¸Ð·":9428,"ĠÐ¸Ð·ÑĬ":9429,"ÐĽÐ¬":9430,"ĠÐ»Ñĥ":9431,"ĠÐ²Ð¾Ð·ÑĢÐ°ÑģÑĤÐ°":9432,"ÑĤÑĮÑģÑı":9433,"ĠÑģÐ»ÑĥÐ³":9434,"ĠÐ½ÐµÐ´Ð°Ð»ÐµÐºÐ¾":9435,"ĠÑĤÐ²Ð¾Ð¸Ñħ":9436,"ĠÐ¾ÐºÐ°Ð¶ÐµÑĤÑģÑı":9437,"ĠÑĥÐ¿ÑĢÐ°Ð²Ð»ÐµÐ½Ð¸Ðµ":9438,"Ð¾Ð¿Ð¾Ð»ÑĮ":9439,"Ġ(\"":9440,"ĠÐ·Ð°ÐºÑĢÐ¸ÑĩÐ°Ð»":9441,"ĠÐ²ÐºÑĥ":9442,"ĠÐµÐ¶ÐµÐ´Ð½ÐµÐ²":9443,"ĠÐ¾Ð³ÑĢÐ¾Ð¼Ð½ÑĭÐµ":9444,"Ð½Ð°ÑĩÐ°Ð»Ðµ":9445,"ĠÐ³ÐµÑĢÐ¾Ð¹":9446,"ĠÐ¾ÑĤÐµÑĩÐµ":9447,"ÐºÐ²":9448,"ĠÑĤÐ¾ÑĢÑĩ":9449,"ĠÐĽÐ¸ÑĪÑĮ":9450,"ĠÐ¿Ð¾Ð´Ð²Ð¸Ð³":9451,"ĠÐ¿ÐµÐ²":9452,"ĠÐ¸Ð·Ð¼ÐµÑĢ":9453,"ĠÐłÐ¾ÑģÑģÐ¸ÐµÐ¹":9454,"ĠÐ¶ÐµÐ½ÑīÐ¸Ð½Ð¾Ð¹":9455,"Ð½Ð°Ð´ÑĨÐ°ÑĤÐ¸":9456,"Ð¿Ð¾ÑģÑĤ":9457,"ĠÐ´Ð¸Ð¿Ð»Ð¾Ð¼Ð°ÑĤ":9458,"ÑĢÑĥÐ´Ð½Ð¾":9459,"ĠÐ´Ð°Ð¹":9460,"ĠÐºÐ¾ÑĢÑĢÐµÑģÐ¿Ð¾Ð½Ð´":9461,"Ð¸Ð²ÑĪÐµÐ¹":9462,"ĠÐ¾ÑĦÐ¸ÑĨÐµÑĢÐ¾Ð²":9463,"ĠÐ¼Ð¸Ð½Ð¸ÑģÑĤÑĢÐ°":9464,"ÐµÐ¹Ð½Ð°":9465,"ĠÐ¹":9466,"ĠÐĴÑĢÐµÐ¼Ñı":9467,"ĠÐĵÑĢÐ°Ð½":9468,"ĠÐ¸Ð¼ÐµÐµÑĤÑģÑı":9469,"Ð¸ÑĤÐµÐ»ÑĮÐ½Ð¾Ð¼":9470,"ĠÑģÐµÑģÑĤÑĢÑĭ":9471,"ÐµÐ²Ð¾Ð³Ð¾":9472,"ÐµÑĩÐµÐ½":9473,"ĠÑĪÐµÐµ":9474,"ĠÐ²Ð¾Ð»Ð½Ñĭ":9475,"ĠÑĥÑĢÐ¾Ð´":9476,"ĠÑģÐ¾Ð±ÑģÑĤÐ²ÐµÐ½Ð½ÑĭÐµ":9477,"ÑģÐ»ÑĭÑĪ":9478,"ĠÐ¢Ð°ÐºÐ¸Ðµ":9479,"ĠÐ°ÑģÐ¿":9480,"%,":9481,"ĠÑģÐ»Ð¾Ð²Ð°Ñħ":9482,"ĠÐ°Ð´Ð¼Ð¸ÑĢ":9483,"Â»),":9484,"ĠÐ±ÐµÑģÑģÐ¼ÑĭÑģÐ»":9485,"ub":9486,"ĠÑģÑĤÐ°":9487,"ĠÐ¿Ð¾ÑģÐ»Ð°Ð»":9488,"ÑĩÐµÐ»":9489,"ĠÐ½ÐµÑħ":9490,"ĠÐºÐ°ÑĩÐµÑģÑĤÐ²Ð°":9491,"31":9492,"Ð»ÐµÑģ":9493,"ĠÐ¿ÑĢÐ¾Ð³ÑĥÐ»":9494,"ĠÐºÑĥÑħÐ½Ðµ":9495,"ĠÐ¿ÑĢÐ¾ÑģÐ¿":9496,"ĠÑģÐ¾ÑģÑĤÐ¾":9497,"ĠÑĦÐ¸Ð»ÑĮÐ¼Ð°":9498,"ĠÑĤÑĢÐµÐ±ÑĥÐµÑĤÑģÑı":9499,"ĠÑģÑĥÐ¼Ð°ÑģÑĪÐµÐ´":9500,"Ð»Ð¾Ð¶Ð¸ÑĤÑĮ":9501,"Ð¾ÑĢÐ¾ÑĤÑĮÑģÑı":9502,"ĠÑħÑĢÑĥÑģÑĤ":9503,"ÐŁÑĢÐµÐ´":9504,"ĠÐ²Ð·Ð³Ð»ÑıÐ½ÑĥÐ»Ð°":9505,"ĠÑĥÐµÐ·Ð¶":9506,"ĠÐ¿Ð¾ÑģÑĤÐ¾ÑĢÐ¾Ð½":9507,"ĠÐ±Ð¾ÑĢÐ¾Ð´":9508,"ĠÐ·Ð°ÑĢÐ¾Ñģ":9509,"ĠÑĩÐ»ÐµÐ½Ñĭ":9510,"ĠÐ°Ð½ÑĤÐ¸":9511,"ĠÐ¶Ð¸ÑĢ":9512,"ĠÑĢÐ°Ð±Ð¾ÑĤÐ°Ð»Ð¸":9513,"ĠÐŁÐµÑĤÑĢÐ¾Ð²Ð¸Ñĩ":9514,"ĠÐ³ÑĢÐµÐ±":9515,"ĠÐ¸Ð¼Ð¿ÐµÑĢÐ°ÑĤÐ¾ÑĢÐ°":9516,"Ð°ÑīÐ¸Ð¹":9517,"ÑĳÐ½Ð½ÑĭÐµ":9518,"ĠÐ¿ÐµÑĩÐ°ÑĤ":9519,"ĠÐ¿ÑĢÐ¾ÑĪÐµÐ´":9520,"ĠÑĨÐµÑĢÐµÐ¼":9521,"ĠÐ´Ð²Ð¾ÑĢÑıÐ½":9522,"ĠÐĴÐ´ÑĢÑĥÐ³":9523,"ĠÐ»ÑİÐ±Ð¸Ð»Ð°":9524,"ĠÑĪÐ¸Ð¿":9525,"ĠÐ±ÑĢÐµÐ´":9526,"ÐĺÐĶ":9527,"ĠÐ¿ÑĢÐµÐ´ÑģÐµÐ´Ð°ÑĤÐµÐ»ÑĮ":9528,"ĠÑĦÐ°ÐºÑĤÐ¸ÑĩÐµÑģÐºÐ¸":9529,"ĠÐ²Ð¸Ð½Ð¾":9530,"Ð°ÑģÑĤÐµÑĢ":9531,"ĠÐ¿ÑĢÐ¾Ð´ÐµÐ»":9532,"ĠÐºÐ°ÑĦÐµ":9533,"Ð°Ð¶ÐµÐ¼":9534,"ĠÐ¿Ð°ÐºÐµÑĤ":9535,"ĠÑĤÐ²Ð¾ÑĢÑĩÐµÑģÐº":9536,"ĠÐ²Ð¾Ð¹ÑĤÐ¸":9537,"ÑįÐºÐ¾Ð½Ð¾Ð¼":9538,"ÐµÐ¶Ð°Ð»Ð¸":9539,"Ð°Ð²ÑĢ":9540,"ĠÐ·Ð°Ð±Ð°Ð²":9541,"ĠÐ¿Ð°ÑĤÑĢ":9542,"ĠÐ¿Ð¾Ð²ÐµÐ´ÐµÐ½Ð¸Ñı":9543,"ĠÐ¿Ð¾Ð»ÑĮÐ·Ð¾Ð²":9544,"ĠÐ¿Ð»ÐµÐ¼ÑıÐ½":9545,"ĠÑıÐ·ÑĭÐºÐ¾Ð¼":9546,"ĠÐ±Ð»Ð°Ð³Ð¾ÑģÐ»Ð¾Ð²":9547,"ĠÐ¾Ð¿ÑĥÑģÑĤÐ¸Ð»":9548,"ĠÐ´ÐµÑĤÑģÑĤÐ²Ð°":9549,"?\"":9550,"Ð½Ð¾Ð²ÐµÐ½Ð¸Ðµ":9551,"ĠÐ°Ð·":9552,"ÑĦÐ¸ÐºÐ°":9553,"ÑīÑĥÑĢ":9554,"ĠÐºÑĢÐ¾Ð²Ð°Ð²":9555,"ĠÑĦÑĭÑĢ":9556,"ĠÐºÐ°ÑĢÐ¼Ð°Ð½Ð°":9557,"ĠÑĥÑģÑĤÐ°Ð½Ð°Ð²Ð»Ð¸Ð²":9558,"ĠÐĵÐ»Ð°Ð·Ð°":9559,"Ð¸ÑĩÐµÑģÐºÐ¾Ð¼Ñĥ":9560,"ĠÐŁÐ¾ÑĢÐ¾ÑĪÐµÐ½ÐºÐ¾":9561,"ĠÐ²Ð¸Ð´Ð¾Ð²":9562,"ĠÐºÐ¾Ð¼Ð¼ÐµÑĢ":9563,"ÑĥÑīÐ¸Ðµ":9564,"ĠÐ¾ÑģÐ½Ð¾Ð²Ð½Ð¾Ð¹":9565,"ĠÐ²ÐµÐ»Ð¸":9566,"ĠÐ½Ð°Ð¸Ð²":9567,"ĠÐ½ÐµÐ²Ð¸Ð½":9568,"Ð±ÑĭÑĩÐ½Ð¾":9569,"ĠÐ½Ð°ÑĤÑĥÑĢ":9570,"ĠÐ¸Ð½ÑģÑĤÑĢÑĥÐ¼ÐµÐ½ÑĤ":9571,"ĠÑĤÑĢÐ°ÐºÑĤ":9572,"ĠÑģÐ»ÑĥÐ¶Ð¸Ð»":9573,"ĠÐ¿ÑĢÐ¾ÑģÑĤÐ¾ÑĢ":9574,"ĠÑģÐ¾Ð»ÑĮ":9575,"ĠÐ¿Ð¾Ð»Ð·":9576,"ĠÑĥÐ¼ÐµÑĢÐµÑĤÑĮ":9577,"ĠÐ²Ð·Ð°Ð¸Ð¼Ð¾Ð´ÐµÐ¹ÑģÑĤÐ²":9578,"ĠÐŁÐ¾ÑģÐºÐ¾Ð»ÑĮÐºÑĥ":9579,"ÑģÐ¸Ñħ":9580,"Ġhe":9581,"Ð½ÑĭÐ½Ðµ":9582,"ĠÐ±Ð¾Ð»ÑĮÑĪÐµÐ²":9583,"ĠÐ¾ÑģÐ²Ð¾Ð±Ð¾Ð¶Ð´":9584,"ÑĥÐ´Ð¾Ð²":9585,"ĠÐĶÐ¾Ð»Ð¶":9586,"ĠÐĽÑĥÐº":9587,"ĠÑģÐ²ÐµÑĤÐ¾Ð¼":9588,"ĠÐ´Ð¸Ð½Ð°Ð¼":9589,"ĠÑĤÑĢÐµÑĤÑĮÐµÐ³Ð¾":9590,"Ð²Ð¾Ñı":9591,"ĠÐ²Ð¸Ð´ÐµÐ¾":9592,"ĠÑĥÑģÐ¸Ð»Ð¸Ñı":9593,"ĠÑĢÐµÐ°Ð³":9594,"ĠÐĹÐµÐ¼Ð»Ðµ":9595,"Ð¾Ð³ÑĢÐ°ÑĦÐ¸Ð¸":9596,"ĠÑĩÑĥÐ²ÑģÑĤÐ²ÑĥÑı":9597,"Ð°ÐºÐ°Ð¼Ð¸":9598,"ĠÐ¾ÑĤÐ½ÑİÐ´ÑĮ":9599,"ĠÐ²ÑģÐ¿Ð¾Ð¼":9600,"ĠÐ±ÑĭÐ²Ð°Ð»Ð¾":9601,"ĠÐ¼ÑĥÐ½Ð¸ÑĨÐ¸Ð¿":9602,"ĠÐ¢Ð°ÐºÐ¾Ð¹":9603,"ÐµÑĩÐ½Ð¾Ð¹":9604,"ĠÐ¾ÑģÐ²ÐµÐ´Ð¾Ð¼":9605,"ĠÐ³ÑĢÐ¾Ð¼Ð°Ð´":9606,"Ð½Ð°Ð»Ð¸":9607,"Ð¾Ð»Ð¾Ð³Ð¸Ñı":9608,"ÑıÐ½ÑĥÑĤÑĮ":9609,"ÐĽÐŀ":9610,"ĠÐ¼Ð¾Ð½Ð¸":9611,"ĠÐĴÐ¼ÐµÑģÑĤÐ¾":9612,"ĠÐ¸Ð½ÑģÑĤÑĢÑĥÐº":9613,"Ð¾Ð¼ÐµÑĢ":9614,"ÂłÐµ":9615,"ĠÐ¾ÑĤÐ½ÐµÑģ":9616,"ÑįÐ½Ð´":9617,"ĠÐ¿Ð¾Ð»Ð¾Ð²Ð¸Ð½Ðµ":9618,"ÂłÐ¡Ðº":9619,"ĠÐŁÑĢÐ¾ÑģÑĤ":9620,"ÐłÑ":9621,"Ġ:":9622,"Ð°Ð½Ð½Ð¾Ð¼":9623,"ÂłÐĸ":9624,"ĠÐ´Ð²Ð¸Ð³Ð°ÑĤÑĮÑģÑı":9625,"ĠÐ¿ÑĢÐµÐ´Ð¿ÑĢÐ¸Ð½":9626,"ĠÐ½ÐµÐ¿Ð¾ÑģÑĢÐµÐ´ÑģÑĤÐ²ÐµÐ½Ð½Ð¾":9627,"ĠÑĥÑħÐ¼Ñĭ":9628,"ĠÑĢÐ°Ð·Ð¾Ð±ÑĢÐ°ÑĤÑĮÑģÑı":9629,"ĠÐŁÐ°ÑĢÐ¸":9630,"ĠÐ±Ð»ÑİÐ´":9631,"ÑĢÑıÑħ":9632,"Ð°Ð²ÑĪÑĥÑİ":9633,"Ġ45":9634,"ĠÐ¿Ð¾Ð´ÑĩÐµÑĢÐºÐ½ÑĥÐ»":9635,"ĠÑĪÐµÑĦ":9636,"ĠÐ´Ð°Ð²Ð°ÑĤÑĮ":9637,"ĠÑĢÐ°ÑģÑģÐ¼ÐµÑıÐ»ÑģÑı":9638,"ĠÐ¸Ð¼ÐµÐ½Ð°":9639,"ĠÐ¾ÑģÐ½Ð¾Ð²Ð°Ð½Ð¸Ñı":9640,"ĠÐ¿Ð¾Ð²ÐµÑĢÑħÐ½Ð¾ÑģÑĤÑĮ":9641,"ÑĥÑģÐ»Ð¾Ð²Ð½Ð¾":9642,"Ð¸Ð¼Ñĭ":9643,"ĠÑĪÑĤÐ°ÑĤ":9644,"Ð¸ÐºÐ°Ð¼":9645,"Ð°ÐºÐ¾":9646,"ĠÐ³Ð¾ÑĢÐµ":9647,"ÐµÐ½ÑĤÑĥ":9648,"ĠÐ·Ð°Ð´ÑĥÐ¼Ð°Ð»ÑģÑı":9649,"Ð¸Ð°ÑĤ":9650,"ĠÐ¿ÑĭÐ»":9651,"ĠÑĢÑĭÐ½ÐºÐ°":9652,"ĠÐŀÑĤÐµÑĩÐµ":9653,"ĠÐ²Ð¸ÑĨÐµ":9654,"ÑĥÐ½Ð³":9655,"ĠÐ¼Ð¾Ð»ÑĩÐ°Ð½Ð¸Ðµ":9656,"ĠÑģÐ°Ð¼Ð¾ÑģÑĤÐ¾ÑıÑĤÐµÐ»ÑĮÐ½Ð¾":9657,"ÐµÐ´Ñĥ":9658,"ĠÐ²ÑĭÐ·ÑĭÐ²Ð°ÐµÑĤ":9659,"ĠÐ¿Ð¾Ð¶Ð¸Ð»":9660,"Ð²ÐµÑī":9661,"Ð¾ÐºÑĥÑĢ":9662,"ĠÐ°ÑĢÐ¼Ð¸Ñİ":9663,"ĠÑģÑĤÐ°Ð½ÑĥÑĤ":9664,"ĠÐ»ÑİÐ±Ð¾Ð²ÑĮÑİ":9665,"ĠÑĥÑģÐ¿Ð¾ÐºÐ°":9666,"Ð¿ÐµÑĤ":9667,"ĠÑģÐ¾Ð±Ð¸ÑĢÐ°ÑİÑģÑĮ":9668,"Ð¸ÑĢÐ¾Ð²Ð°Ð½Ð°":9669,"ĠÐ¼Ð°ÑĤÐµÑĢÐ¸Ð°Ð»Ñĭ":9670,"ÑĭÐºÐ¸":9671,"ĠÑģÐ¾ÑģÑĤÐ°Ð²Ð°":9672,"Ð¼Ð¸ÑĤÐµ":9673,"ĠÐ¼Ð°Ð»ÐµÐ½ÑĮÐºÐ¸Ðµ":9674,"ĠÐ¶Ð´Ð°Ð»Ð°":9675,"ĠÐ¿Ð¾Ð´Ð½ÑıÑĤÑĮ":9676,"ĠÐ¸Ð·Ð±Ð°Ð²Ð¸ÑĤÑĮÑģÑı":9677,"ÑĢÐ°ÑĩÐ½Ð¾":9678,"ĠÐ¶ÐµÐ»ÐµÐ·Ð½Ð¾Ð´Ð¾ÑĢÐ¾Ð¶":9679,"ĠÐ½ÐµÑģÐ¾Ð¼Ð½ÐµÐ½Ð½Ð¾":9680,"ĠÐºÐ¾Ðº":9681,"ĠÐ¿ÑĢÐ¸Ð³Ð¾Ð´":9682,"Ð»Ð¸Ð½Ñĭ":9683,"ĠÐ¡ÐºÐ°Ð·":9684,"ĠÐ¿Ð¾ÐºÐ¸Ð½ÑĥÑĤÑĮ":9685,"ĠÐ¶ÐµÐ»ÑĥÐ´":9686,"Ð¼ÐµÑĢÑĤÑĮ":9687,"ĠÐ¾ÑĢÐ¸ÐµÐ½ÑĤ":9688,"Ð¸ÑĩÐ½ÑĭÑħ":9689,"ĠÐłÐ°Ð¼":9690,"ell":9691,"ĠÑĥÑĤÑĢÐµÐ½":9692,"ĠÐµÐ´Ñĥ":9693,"Ð¾ÑģÑĤÐ½Ð¾":9694,"Ð¸ÑĩÐ¸":9695,"Ð°Ð¹Ðº":9696,"ĠÐ²Ð¾ÐµÐ²":9697,"ak":9698,"Ð¸ÑĢÐ°ÑıÑģÑĮ":9699,"ĠÑĤÐ°Ð½ÑĨÐµÐ²":9700,"ĠÐ²ÑĭÐºÐ»ÑİÑĩ":9701,"ÐµÐ²ÑģÐºÐ¾Ð³Ð¾":9702,"ĠÐºÐ¾Ð¼Ð¿Ð°Ð½Ð¸Ð¹":9703,"ĠÐĳÐ»Ð°Ð³Ð¾Ð´Ð°ÑĢ":9704,"ĠÐ°Ð²ÑĤÐ¾ÑĢÐ°":9705,"ĠÐľÐ½Ð¾Ð³Ð¾":9706,"ÐĽÐĺ":9707,"ĠÐ²ÑĭÐ»ÐµÐ·":9708,"ÑĢÐ¾ÑģÐ¸ÑĤÑĮ":9709,"ĠÐ²ÑĭÐ·Ð²Ð°Ð½":9710,"ĠÐ¿ÑĢÐ¸Ð±Ð°Ð²":9711,"ÑĩÐµÐ½ÑĮ":9712,"Ð²Ð¾Ð±Ð¾Ð´":9713,"Ð»ÑĭÑĪ":9714,"ĠÑįÐ²":9715,"ĠÐ·Ð°Ð²ÑıÐ·":9716,"ÑĩÐµÑĢÐ°ÑĪ":9717,"ĠÐ¼Ð¾Ð³ÑĥÑīÐµ":9718,"ĠÐ½Ð°Ð±Ð»ÑİÐ´Ð°Ð»":9719,"ĠÐ½ÐµÐ·Ð°Ð¼ÐµÑĤÐ½Ð¾":9720,"ĠÑĤÐ°ÑĤÐ°ÑĢ":9721,"Ð°Ð¼ÐµÑĢ":9722,"ĠÐ´Ð¾Ð±Ð°Ð²Ð¸Ð»Ð°":9723,"ĠÐ¤Ð¸Ð»Ð¸Ð¿Ð¿":9724,"ĠÐ»ÑĥÐ¶":9725,"ĠÑģÑĥÑīÐµÑģÑĤÐ²Ð°":9726,"ĠÐ®ÑĢÐ¸Ð¹":9727,"ĠÐ¾ÑĤÐ½Ð¾ÑĪÐµÐ½Ð¸ÑıÑħ":9728,"44":9729,"ight":9730,"ĠÑħÐ¾Ð´Ð¸Ð»":9731,"ĠÐ¾ÑĤÐ²ÐµÑĩÐ°ÑĤÑĮ":9732,"Ð¼ÐµÐ½ÑĤÑĭ":9733,"ĠÐ¡ÐµÐ»":9734,"Ð³ÐµÐ»ÑĮ":9735,"ÑİÑīÐ°Ñı":9736,"ĠÑģÐ¾Ð³Ð»Ð°ÑģÐ¸Ð»Ð°ÑģÑĮ":9737,"Ð¾ÑģÑĤÑĢ":9738,"ww":9739,"ĠÐ·Ð°ÑĤÑĭÐ»":9740,"ĠÐ¿Ð¾Ð½ÐµÐ´ÐµÐ»ÑĮ":9741,"ĠÐ±Ð¾Ð³Ð°":9742,"ĠÐ¿Ð¾Ð»Ð¸ÑĤÐ¸ÑĩÐµÑģÐºÐ¾Ð¹":9743,"ÐķÐĿ":9744,"ĠÑĪÐ»ÐµÐ¼":9745,"39":9746,"ĠÐ²ÐµÐ»Ð¸ÐºÐ¾Ð³Ð¾":9747,"ĠÐĶÐ¸Ðº":9748,"ĠÐĴÑģÐ¿":9749,"ĠÐ¾ÑģÐ¾Ð±ÐµÐ½Ð½Ð¾ÑģÑĤÐ¸":9750,"ĠÑģÑĥÑīÐµÑģÑĤÐ²Ð¾Ð²Ð°Ð½Ð¸Ðµ":9751,"ĠÑģÐ¾ÑĢÐ²":9752,"ĠÑĦÐ°Ð½ÑĤÐ°Ð·":9753,"ĠÐŀÐ±ÑĬ":9754,"ĠÑģÐ¿ÐµÐºÑĤÐ°Ðº":9755,"ĠÑĩÐµÑĢÑĤÐ¾Ð²":9756,"ĠÑĦÑĢÐ¾Ð½ÑĤ":9757,"ĠÐ¸Ð³ÑĢÐ°ÐµÑĤ":9758,"ĠÐ¾ÑĤÐ¾Ð´":9759,"ĠÐłÐ¾Ð±ÐµÑĢÑĤ":9760,"ĠÑĢÐµÑĨ":9761,"ĠÑĩÐµÐ¼Ð¾Ð´":9762,"ĠÑĢÐ°Ð·Ð¼Ð°Ñħ":9763,"ĠÐ¾ÑģÐ¾Ð±Ð¾Ð³Ð¾":9764,"ĠÐ³Ð¾ÑĢÐ¾Ð´Ñĥ":9765,"ĠÑģÑĤÐ°ÑĢÑĭÑħ":9766,"ĠÐ½Ð°ÑħÐ¾Ð´ÑıÑī":9767,"ĠÐ´Ð²Ð¸Ð¶ÐµÐ½Ð¸ÐµÐ¼":9768,"ĠÐ¾Ð±Ð½Ð°ÑĢÑĥÐ¶Ð¸Ð»Ð¸":9769,"ĠÐ²Ð¾Ð»Ñİ":9770,"ĠÐ´Ð²Ð¾ÑĢÐµÑĨ":9771,"ÐµÐ½Ð¸ÑĤ":9772,"ĠÐĴÐµÐ»Ð¸ÐºÐ¾Ð¹":9773,"ĠÐ¾Ð±Ð»Ð¾Ð¼":9774,"ĠÐ¸Ð½ÑģÑĤÐ¸Ð½":9775,"ÑĢÐ¸Ð·":9776,"ĠÐ·Ð°ÑħÐ»Ð¾Ð¿":9777,"ĠÐ¼Ð¾Ð´ÐµÐ»ÑĮ":9778,"ĠÑħÐ°ÑĢÐ°ÐºÑĤÐµÑĢÐ¸ÑģÑĤ":9779,"ĠÑģÑĤÑĢÐµÐ¼Ð¸ÑĤÐµÐ»ÑĮÐ½Ð¾":9780,"ĠÐ¾Ð³ÑĢÐ¾Ð¼Ð½Ð¾Ðµ":9781,"ĠÐ²Ð¾Ð»ÑĮ":9782,"ĠÑħÐ°":9783,"Ð½Ð°ÑĢÑĥÐ¶Ð¸":9784,"ĠÐ·Ð°Ð¼ÐºÐ°":9785,"Ð¾ÑģÑģÐµ":9786,"ĠÐ³Ð»Ð°Ð²Ð½Ð¾Ð¹":9787,"ÂłÑĩ":9788,"ĠÐ´Ð¾Ð²Ð¾Ð´":9789,"Ð¸Ð·Ð²Ð¾Ð´":9790,"ĠÐ²ÑģÐ¿Ð¾Ð¼Ð½Ð¸Ð»Ð°":9791,"ĠÐŁÐ°ÑĢÐ¸Ð¶Ðµ":9792,"ĠÑħÐ°ÑĢÐ°ÐºÑĤÐµÑĢÐ°":9793,"ĠÐ´Ð¾ÑĢÐ¾Ð³Ð°Ñı":9794,"ĠÑĪÐµÐ²":9795,"ĠÐ´Ð¾ÐºÑĤÐ¾ÑĢÐ°":9796,"ĠÐ¿Ð»Ð°Ð½Ðµ":9797,"ĠÐºÑĢÑĥ":9798,"ber":9799,"ĠÐ´Ð¾ÐºÑĥÐ¼ÐµÐ½ÑĤÐ¾Ð²":9800,"ĠÐ»Ð¸ÑĤ":9801,"ĠÐ´Ð¾ÑĩÐµÑĢ":9802,"ĠÑĤÑĢÐ°Ð³ÐµÐ´":9803,"ĠÐ¿ÐµÑĢÐµÐ¼ÐµÑī":9804,"ĠÐ³Ð¾ÑģÑĥÐ´Ð°ÑĢÑģÑĤÐ²ÐµÐ½Ð½Ð¾Ð¹":9805,"ĠÐŁÑĢÐ¸Ð´":9806,"ĠÐ¿ÑĢÐµÐ´Ð»Ð¾Ð¶ÐµÐ½Ð¸Ñı":9807,"Ð°ÑĤÐ°Ð¼Ð¸":9808,"ĠÑĥÐ³Ð¾Ð´":9809,"ĠÐ±ÐµÑĢÐµÐ¼":9810,"ÑĥÐ·Ð°":9811,"ĠÐ§ÐµÑĢÑĤ":9812,"ĠÐºÑĢÐ¸Ð²":9813,"ÐŁÐ¾ÑĤÐ¾Ð¼":9814,"ĠÐ°ÑģÑģÐ¾ÑĨÐ¸":9815,"ĠÐ¼ÑıÑģÐ¾":9816,"ÑģÑĤÐ²ÑĥÑİÑīÐ¸Ñħ":9817,"ĠÐµÐ´Ð¸Ð½ÑģÑĤÐ²ÐµÐ½Ð½ÑĭÐ¼":9818,"ĠÐ½Ð°ÑĩÐ¸Ð½Ð°ÑİÑĤ":9819,"Ð¾ÑĤÐ¾Ð¼Ñĥ":9820,"ĠÐ¸Ð·Ð²ÐµÑģÑĤÐ½ÑĭÐ¹":9821,"ĠÑĢÐµÐ°Ð»ÑĮÐ½Ð¾ÑģÑĤÐ¸":9822,"ĠÐ´ÑĥÑħÐ°":9823,"Ð°Ð½ÐºÐ¸":9824,"ĠÐ¾Ð±ÑĬÐµÐºÑĤÐ¸Ð²":9825,"ĠÐ³ÐµÑĢÐ¾Ñı":9826,"ĠÑįÐºÑģÐ¿ÐµÑĢÐ¸Ð¼ÐµÐ½ÑĤ":9827,"ĠÐ½ÐµÐ´Ð¾ÑģÑĤÐ°ÑĤÐ¾ÑĩÐ½Ð¾":9828,"ĠÑģÐ¿Ð¾ÑģÐ¾Ð±Ð½Ð¾ÑģÑĤÑĮ":9829,"ĠÐ£Ð·":9830,"//":9831,"ĠÑĥÑģÑĤÐ°Ð½Ð¾Ð²Ð¸ÑĤÑĮ":9832,"Ð¾ÑģÐµ":9833,"Ð¸ÑģÑĤÑĭÐ¹":9834,"ĠÑĢÑĭÐ½Ð¾Ðº":9835,"ĠÐĲÑĦÑĢ":9836,"ĠÐ¿ÑĢÐ¾Ð²ÐµÐ»Ð¸":9837,"ĠÐ´Ð²ÐµÑĢÐµÐ¹":9838,"Ġ500":9839,"ĠÐºÑĥÐº":9840,"ĠÑıÑīÐ¸Ðº":9841,"ÐºÐ¾Ð²Ð½Ð¸Ðº":9842,"Ð¸Ð²Ð°Ð¹":9843,"ĠÐ¾Ð±Ð¾Ð¶":9844,"ĠRe":9845,"ĠÐ¿ÑĢÐµÐ´ÑģÑĤÐ°Ð²Ð»ÐµÐ½Ð¸Ðµ":9846,"ĠÐ¿ÑĢÐ¸Ð½ÑĨÐ¸Ð¿Ðµ":9847,"ĠÐ½Ð°Ð²Ð¾Ð´":9848,"ĠÑģÐµÐ¼ÑĮÑİ":9849,"ĠÐºÐ¸ÑĢÐ¿":9850,"ort":9851,"ĠÐ¸Ð·Ð±ÐµÐ³":9852,"ĠÑĢÐ¸ÑĤ":9853,"ĠÑģÐ¾ÑĢÐµÐ²Ð½Ð¾Ð²":9854,"ĠÐ²ÑģÐ¿ÑĭÑĪ":9855,"Ð»ÐµÑĤÐ½Ð¸Ð¹":9856,"Ð±Ð¸ÑīÐµ":9857,"ÑĥÐ»Ð¸ÑĢ":9858,"ĠÐ»ÑİÐ±ÑıÑĤ":9859,"ĠÐ·Ð°Ð²Ð°Ð»":9860,"ĠÑĢÑĥÐºÐ¾Ð²Ð¾Ð´ÑģÑĤÐ²Ð¾Ð¼":9861,"ĠÑģÐ»ÑĥÑĩÐ°ÐµÐ²":9862,"Ġ2007":9863,"ĠÑģÐ»ÑĥÑĪÐ°Ð»":9864,"ÑĳÐº":9865,"ĠÐ¡ÑĥÐ´Ñı":9866,"ÐµÑħÐ¸":9867,"ÐµÑĢÐµÐ½ÑĨÐ¸Ð¸":9868,"ĠÐ¾ÐºÐ¾Ð½":9869,"ĠÐ±Ð»Ð°Ð³Ð¾Ð´":9870,"ÑĥÑģÑĤÐ¸Ð»Ð°":9871,"ĠÐ½Ð°ÑĪÐµÐ¼Ñĥ":9872,"Ð»Ð¾Ð²Ð°":9873,"Ð¸Ð½ÑģÑĤÐ²Ð¾":9874,"ĠÑĥÑģÑĤÐ°Ð²Ð¸Ð»ÑģÑı":9875,"ĠÐ²ÑģÐºÐ¾ÑĩÐ¸Ð»":9876,"ĠÐŀÐŀÐĿ":9877,"ĠÑĢÑĥÐºÐ¾":9878,"ĠÐ²ÐµÐºÐµ":9879,"ĠÐ·Ð°ÐºÐ¾Ð½Ð¾Ð¼":9880,"ĠÑĢÐ°Ð±Ð¾ÑĤÐ¾Ð¹":9881,"ÑģÐ¾":9882,"Ð²Ð¾Ð»Ñİ":9883,"ĠÐļÐ°ÑĤÑı":9884,"ĠÐĴÐ¾Ð¹":9885,"ĠÐ¾Ð¿ÑĤÐ¸Ð¼":9886,"ĠÐ¶ÐµÐ½ÑīÐ¸Ð½Ðµ":9887,"ĠÐ¿ÑĢÐ¸ÑĤÐ²Ð¾ÑĢ":9888,"ĠÐĺÑģÐº":9889,"ÑĳÐ¶":9890,"ĠÐ·Ð°Ð¿Ð¾Ð»":9891,"ĠÐŁÐ¸ÑĤ":9892,"ĠÑģÐ¼ÐµÑĢÑĤÑĮÑİ":9893,"ÑıÐ½ÑĥÐ²":9894,"ĠÐĴÐ°Ð»ÐµÑĢ":9895,"ĠÐ´Ð¾Ð±Ð°Ð²Ð¸ÑĤÑĮ":9896,"ĠÐ¿ÑĢÐ¸ÑģÐ¿":9897,"ĠÐ·Ð°Ð»Ð°":9898,"ĠÐĺÐ½Ð°ÑĩÐµ":9899,"ĠÐ¿ÑĢÐµÐ´ÑĪÐµ":9900,"ĠÐºÐ¾ÑģÑĤÑİÐ¼":9901,"ĠÑĢÐ°Ð·Ð¾Ð¼":9902,"Ð³Ð¸Ð½":9903,"ĠÐ½Ð°ÑģÐµÐ»ÐµÐ½Ð¸Ðµ":9904,"ĠÑįÐ¼":9905,"ĠÑĢÐ°ÑģÑģÑĤÑĢÐ¾":9906,"ĠÐ½ÐµÐ´Ð°Ð²":9907,"ĠÐ¿Ð¾Ð¼Ð¸Ð¼Ð¾":9908,"ĠÐ»Ð¸ÑħÐ¾ÑĢÐ°Ð´":9909,"ĠÐ¸ÑĢÐ¾":9910,"ĠÐ±ÐµÑģÐ¿Ð»Ð°ÑĤ":9911,"Ð°Ð½Ð´ÑĢ":9912,"ÐĹÐ°Ð¿":9913,"ĠÐ³ÑĥÐ±Ð°Ð¼Ð¸":9914,"ĠÐĺÑĤÐ°Ð»Ð¸Ð¸":9915,"ĠÐŁÐ°Ð²Ð»Ð¾Ð²":9916,"ĠÐ¸Ð³ÑĢÐµ":9917,"ĠÐļÐ°ÐºÐ¸Ðµ":9918,"ĠÐ¶Ð´ÑĥÑĤ":9919,"ĠÐ¿Ð¾Ð»Ð½ÑĥÑİ":9920,"ĠÐ¿ÐµÑĢÐµÑģÑĤÐ°Ð»":9921,"ĠÐ¿Ð¾Ð´Ð°ÑĢÐ¾Ðº":9922,"ĠÐļÐ»Ð¸":9923,"ĠÐ¿ÑĢÐµÐ´ÑģÑĤÐ¾Ñı":9924,"ĠÐ¾ÑĤÐ´ÐµÐ»ÑĮÐ½ÑĭÑħ":9925,"Ð¾Ð¶ÐµÐ½":9926,"ĠÐ¿ÑĢÐ°Ð²Ð´":9927,"ĠÐ²Ð½ÑĥÑĤÑĢÐµÐ½Ð½Ð¸Ñħ":9928,"ÐłÑĥÑģ":9929,"ĠÑģÐ¾Ð¾ÑĤÐ²ÐµÑĤÑģÑĤÐ²ÐµÐ½Ð½Ð¾":9930,"ĠÐ¾ÑħÑĢÐ°Ð½Ñĭ":9931,"ĠÐ¡Ñĥ":9932,"Ð°Ð½Ð¸ÑıÐ¼":9933,"ÑģÑİÐ´Ð°":9934,"ĠÐ¸ÑģÐºÐ°Ð»":9935,"ĠÐ¾Ð´Ð¸Ð½Ð¾Ñĩ":9936,"ÑĥÐ½ÑĤÐ¾Ð²":9937,"ĠÑģÐ¶Ð¸Ð¼":9938,"ĠÑĢÐ°ÑģÐ¿ÑĢÐ°Ð²":9939,"ĠÐ²ÐµÑĢÐ½ÐµÑĤÑģÑı":9940,"ÂłÐ¶Ðµ":9941,"ĠÑģÐµÑĢÐ¸Ð¸":9942,"ĠÑģÐ¿Ð¾ÑĢÑĤÐ°":9943,"ÐĿÐ¾Ð²":9944,"ĠÐ´Ð¾ÑģÑĤÐ°ÑĤÐ¾Ñĩ":9945,"ĠÐ¿Ð¾Ð½ÐµÑģ":9946,"ĠÐ±ÑĥÑĤÑĭÐ»ÐºÑĥ":9947,"??":9948,"ĠÐ½Ð°ÑĨÐ¸Ð¾Ð½Ð°Ð»ÑĮÐ½Ð¾Ð¹":9949,"ĠÑĥÐ½Ð¸ÑĩÑĤÐ¾Ð¶Ð¸ÑĤÑĮ":9950,"ĠÐľÐ¾Ð¶":9951,"Ð°Ð²ÑĪÐµÐ³Ð¾ÑģÑı":9952,"ĠÐ¿Ð°ÑģÑģÐ°Ð¶Ð¸ÑĢ":9953,"ĠÐ¿Ð¾Ð´Ð°Ð»":9954,"ĠÐ½ÐµÐ¿Ð¾Ð´Ð°Ð»ÐµÐºÑĥ":9955,"ĠÑĤÐµÑĢÑĢÐ¾ÑĢÐ¸ÑģÑĤ":9956,"ĠÑĥÑĤÑĢÐ°ÑĤ":9957,"ĠÑĩÐ°ÑģÑĤÐµÐ¹":9958,"Ð¢ÑĥÑĤ":9959,"ÑıÑīÑĥÑİ":9960,"ĠÐľÐµÑĤ":9961,"ĠÐ¿Ð¾ÑĩÐ¸ÑĤ":9962,"ĠÐ¿Ð¾Ð´Ð½ÑıÑĤÑĮÑģÑı":9963,"Ð¾Ð¿ÑĢÐµÐ´ÐµÐ»":9964,"ĠÑĥÐ¼ÐµÐ»":9965,"ĠÑģÐºÐ°Ð¶ÐµÑĪÑĮ":9966,"ĠÐ´ÑĥÑĢÐ°":9967,"ĠÐºÐ°Ð·Ð°Ð»ÑģÑı":9968,"ĠÐºÐ¾Ð³":9969,"ĠÑħÐ»ÐµÐ±Ð°":9970,"ĠÐ³Ð°Ð·Ð°":9971,"ĠÐŀÐ»Ð¸Ð¼Ð¿":9972,"ĠÐ±ÑĢÐ¾ÑģÐ¸Ð»Ð°":9973,"ĠÐ½Ð¾Ð²Ð¾Ð¼":9974,"Ð¾ÑĢÐ¾Ð¶Ð½Ð¾":9975,"Ð´Ð°Ð²":9976,"ĠÐ¿ÑĢÐ¾Ð¸Ð·Ð½Ð¾Ñģ":9977,"ik":9978,"ÐºÑĢÐ°Ñģ":9979,"ĠÐ¿Ð¾Ð±Ð»Ð¸Ð¶Ðµ":9980,"ĠÑģÐ¿Ð¾ÑģÐ¾Ð±Ð½Ñĭ":9981,"ĠÐ¿ÐµÑĢÐµÐ´Ð°Ð»":9982,"ĠÑģÑĤÑĥÑĩ":9983,"ĠÑģÑĥÑīÐµÑģÑĤÐ²Ð¾Ð²Ð°Ð½Ð¸Ñı":9984,"ĠÐºÐ°Ð¶Ð´Ð°Ñı":9985,"ĠÐ½ÐµÐ¾Ð±Ñĭ":9986,"ĠÑĢÑĥÐºÐ¾Ð²Ð¾Ð´ÑģÑĤÐ²Ð¾":9987,"ĠÐĵÐµÐ¾ÑĢÐ³":9988,"ĠÐ´Ð¸ÑĢÐµÐºÑĤÐ¾ÑĢÐ°":9989,"ÑĥÐ»ÑĮÐ¼Ð°Ð½":9990,"ĠÐ°ÑĢÐ°Ð±":9991,"ĠÑĢÐ¸ÑĤÑĥ":9992,"ĠÐ¿Ð°ÑģÐ¿":9993,"ĠÐ¿ÑĢÐµÐ´Ð¾ÑģÑĤ":9994,"ÐµÑĢÐµÐ´ÐºÐ¾":9995,"ĠÐłÐµÐ´":9996,"ÐµÐ¼Ðµ":9997,"ÐŁÑĢÐ¾":9998,"ĠÐ²Ð¾Ð´Ð¸ÑĤÐµÐ»ÑĮ":9999,"ĠÑĩÐµÑĤÐºÐ¾":10000,"ĠÐ´Ð°Ð±Ñĭ":10001,"ĠÐ¿Ð¾Ð»Ðº":10002,"ĠÑĢÐ°ÑģÑģÑĤÐ¾ÑıÐ½Ð¸Ðµ":10003,"ÐµÐ²ÑĪÐ¸Ñħ":10004,"Ð»ÑĭÐ²":10005,"ÐµÐ¼Ñĭ":10006,"ĠÐ¾ÐºÐ¾Ð½ÑĩÐ°Ð½Ð¸Ñı":10007,"Ġet":10008,"ĠÐ¡Ð»Ð°Ð²":10009,"ĠÐ±Ð»ÐµÑģÐº":10010,"Ð´ÑĢÐ°Ð²":10011,"ĠÑģÐ°ÑħÐ°ÑĢ":10012,"ĠÐ·Ð½Ð°Ð¼":10013,"ĠÑģÐµÐºÑĥÐ½Ð´Ñĭ":10014,"ĠÐĽÐ¸Ð²":10015,"ĠÐ¿Ð¾Ð¿Ð°Ð»Ð¸":10016,"ĠÐľÐ¸":10017,"Ð¸Ð»Ð¸Ñİ":10018,"Ð±Ð°ÑĤ":10019,"ÑģÐ¾Ð½Ð°":10020,"ĠÐ±ÐµÐ»Ð¾Ð¹":10021,"ĠÐ¾ÑĤÐºÑĢÑĭÑĤÐ¾":10022,"Ð¼Ð¸Ð½Ð°":10023,"ĠÑĨÐ²ÐµÑĤÑĭ":10024,"ĠÑĤÐ¸ÑĢ":10025,"ĠÐ½ÐµÐ³Ð°ÑĤÐ¸Ð²":10026,"ĠÐ¿Ð¾ÑıÐ²Ð»ÑıÐµÑĤÑģÑı":10027,"ĠÐ¿Ð¾ÑģÐ»ÐµÐ´Ð½ÑİÑİ":10028,"ĠÐ¾Ð±Ð¾Ð³":10029,"ĠÐ¾ÑģÑĤÐ°Ð²Ð¸Ð»Ð¸":10030,"ÑĤÐµÑħ":10031,"ÐµÐ»Ð»Ð°":10032,"ĠÐ»ÑİÐ±ÑĥÑİ":10033,"ĠÐĶÐ¾Ð½Ð±Ð°Ñģ":10034,"ĠÑĦÐ¾ÑĢÐ¼Ð°":10035,"ĠÐ¿ÑĢÐ¸Ð·Ð½Ð°Ð»ÑģÑı":10036,"ĠÑģÐ¾ÑĤÑĢÑĥÐ´Ð½Ð¸ÐºÐ¸":10037,"ĠÐ²ÑĢÐ°Ð¶Ð´":10038,"Ð½Ð°Ð´ÐµÐ¶":10039,"ÐµÑģÐ»Ð°Ð²":10040,"ĠÑģÑĤÐ¸ÑħÐ¸":10041,"ÐĲÐ»ÐµÐºÑģ":10042,"ĠÐ¾ÑĤÐ¿ÑĢÐ°Ð²Ð¸ÑĤÑĮÑģÑı":10043,"ĠÐ¾Ð±ÑıÐ·Ð°Ð½Ð½Ð¾ÑģÑĤÐ¸":10044,"Ð¢Ð¾Ð»ÑĮÐºÐ¾":10045,"ĠÐ¾Ð±ÑĢÐ°Ð·Ð¾Ð²Ð°Ð½Ð¸Ðµ":10046,"ĠÐ¼Ð°Ð³Ð¸Ð¸":10047,"nd":10048,"ĠÐ³Ð¾ÑĢÐ¾Ð´ÑģÐºÐ¾Ð¹":10049,"ĠÐ¿Ð¾ÑģÐ¿ÐµÑĪÐ½Ð¾":10050,"ÐµÑĩÐ½ÑĭÐ¹":10051,"ĠÐ¶Ð¸Ð²Ð¾Ð¿Ð¸Ñģ":10052,"ĠÐºÑĢÐ¸Ð·Ð¸Ñģ":10053,"Ð¸ÑĩÐ½Ð¾Ð³Ð¾":10054,"ĠÑģÑĤÐ¾Ð¿":10055,"ĠÐ¾Ð¿ÑĢÐµÐ´ÐµÐ»ÐµÐ½":10056,"ĠÑģÐ¾Ð¾Ð±ÑīÐµÐ½Ð¸Ñı":10057,"ĠÐ¿ÐµÐ¿":10058,"ĠÐ¿Ð¾ÐºÐ¾Ð½Ñĩ":10059,"ĠÐºÐ¾Ð¼Ð¸ÑģÑģÐ¸Ð¸":10060,"ÑĭÐ²Ð°Ð½Ð¸Ðµ":10061,"ĠÐ·Ð°Ð¼ÐµÐ´":10062,"ĠÐ³Ð¾ÑģÑĥÐ´Ð°ÑĢÑģÑĤÐ²":10063,"ÂłÐŁÐ¾Ð´":10064,"ĠÐ²ÑĭÐ·Ð²Ð°ÑĤÑĮ":10065,"ĠÐ²Ð¾Ð·Ð¼ÑĥÑĤ":10066,"Ð²Ð¾Ð»Ð½Ð¾Ð²":10067,"ĠÐ²ÑģÑĤÐ°ÑĤÑĮ":10068,"ĠÑĥÐ´Ð¸Ð²Ð¸ÑĤÐµÐ»ÑĮÐ½Ð¾":10069,"ĠÐļÐ¾Ñģ":10070,"ĠÐĽÐ°ÑĤ":10071,"ĠÑģÑĩÐ¸ÑĤÐ°Ð»Ð¸":10072,"ĠÐ´Ð¸Ð·":10073,"ÐµÐ½Ð¾Ñģ":10074,"ÐŁÐ°ÑĢ":10075,"Ð¾Ð½Ð¾Ñģ":10076,"ĠÐ¾Ð¿ÑĭÑĤÐ°":10077,"ÑĤÑĢÐ¾Ð¼":10078,"ĠÐ¿Ð¾Ð·Ð¸ÑĨÐ¸Ñİ":10079,"ĠÐ¿Ð¾Ð»ÑĮÐ·Ð¾Ð²Ð°ÑĤÑĮÑģÑı":10080,"Ð°ÑĤÐ¾ÑĢ":10081,"ĠÐľÑįÑĢÐ¸":10082,"ĠÐłÐ°Ð·ÑĥÐ¼ÐµÐµÑĤÑģÑı":10083,"Ð±Ð¾Ð²":10084,"ĠÐ±Ð¸Ð»":10085,"ÑĢÐ¾ÑģÐ¾Ð²":10086,"ĠÐľÐ¸Ð½Ð¸ÑģÑĤÐµÑĢ":10087,"ĠÑģÑĥÐ¶Ð´":10088,"ĠÐ¾ÑĤÑĤÐµÐ½":10089,"ĠÑĢÐ¾Ð¼Ð°Ð½ÑĤ":10090,"ĠÑĪÐ²ÐµÐ´":10091,"ĠÑĢÑĭÑĩ":10092,"ĠÐŀÐ´Ð½Ð°Ð¶Ð´Ñĭ":10093,"ĠÐ²Ð¾ÑģÐ¿Ð¾Ð»ÑĮÐ·Ð¾Ð²Ð°ÑĤÑĮÑģÑı":10094,"ĠÐŁÐ¾ÑĩÑĤÐ¸":10095,"ĠÐ·Ð°ÑĤÑĢÑĥÐ´":10096,"ĠÐ¾ÑĦÐ¸ÑĨÐ¸Ð°Ð»ÑĮÐ½Ð¾":10097,"Ð¾Ð±Ð½Ð¾Ð²":10098,"ĠÐ²ÑĭÐ³Ð»Ñı":10099,"ĠÐ²Ð¾Ð»Ðµ":10100,"ĠÐ¾Ð´Ð¸Ð½Ð¾Ðº":10101,"ĠÑĥÐ³Ð¾":10102,"Ð±ÐµÑĢÑĤ":10103,"ĠÐ³Ð¾ÑĢÐ¸Ð·Ð¾Ð½":10104,"ĠÐĵÐ»Ð°Ð²Ð½Ð¾Ðµ":10105,"ĠÐ±ÐµÑģÐ¿Ð¾ÑĢÑıÐ´":10106,"ĠÐ½Ð¾Ð³Ð¾Ð¹":10107,"ĠÐ´Ð¾ÐºÐ°Ð·ÑĭÐ²":10108,"ĠÐ½ÐµÐ¶ÐµÐ»Ð¸":10109,"Ð±Ð°Ð½":10110,"ĠÐ²ÐµÑģÑĤ":10111,"ĠÐ¼ÐµÑģÑĤÐ½ÑĭÐµ":10112,"ĠÐ²Ð°ÑĪÐ¸Ð¼":10113,"ĠÐ½ÐµÑĥÐ²ÐµÑĢ":10114,"ĠÐ²Ð¸Ð´Ð¸Ð¼":10115,"ĠÐ¾Ð±Ð¾ÑģÐ½Ð¾Ð²":10116,"ĠÐ¡Ð°ÑĪÐ°":10117,"Ð¸Ð¾":10118,"ĠÐ½Ð°Ð·ÑĭÐ²Ð°ÑĤÑĮ":10119,"Ð½ÑıÑİÑĤ":10120,"ÑĳÑĪÑĮ":10121,"ĠÐĿÐ¸Ð¶":10122,"ĠÐ´ÐµÐ¹ÑģÑĤÐ²ÑĥÐµÑĤ":10123,"ÑĥÑīÐµÐ¹":10124,"ĠÐ²Ð¾Ð¿ÑĢÐ¾ÑģÐ¾Ð¼":10125,"ĠÐ²Ð°Ð½":10126,"ĠÐ¿ÑĢÐ¾ÑĤÑıÐ½ÑĥÐ»Ð°":10127,"ĠÑģÑĥÑĤÐ¾Ðº":10128,"48":10129,"ĠÐ¿ÐµÑĢÐ²Ð¾Ð½Ð°Ñĩ":10130,"ĠÐºÐ¾Ð¼Ð°Ð½Ð´Ðµ":10131,"ĠÑĢÐ°Ð·Ð±Ð¾Ð¹":10132,"ĠÐ²Ð¾ÐºÐ·":10133,"Ð±ÐµÐ·":10134,"ĠÐ°ÑįÑĢÐ¾Ð¿Ð¾ÑĢÑĤ":10135,"ĠÑģÐ¿Ð¾ÑģÐ¾Ð±Ð¾Ð¼":10136,"ĠÑĥÐ¿ÑĢÐ°Ð¶":10137,"Ð´Ð¾ÑĢ":10138,"Ð¸ÑĩÐ½Ð°Ñı":10139,"ĠÐ½ÐµÐ¿ÑĢÐµÑĢÑĭÐ²":10140,"ĠÐ·Ð°ÑħÐ¾ÑĤÐµÐ»Ð¾ÑģÑĮ":10141,"ĠÑģÑĦÐµÑĢÐµ":10142,"ÑıÐ¹":10143,"ĠÐ¸ÑģÐ¿Ð¾Ð»ÑĮÐ·Ð¾Ð²Ð°Ð½Ð¸Ñı":10144,"ÑĩÐµÐ½":10145,"ĠÐºÐ¸ÑĪ":10146,"Ð¸Ð²ÑĭÐ¹":10147,"ĠÐ½Ð°Ð¿Ð¸ÑģÐ°ÑĤÑĮ":10148,"ĠÐ»ÑİÐ±Ð¸ÑĤÑĮ":10149,"ĠÐ¿ÑĢÐ¸ÑģÑĤÐ°Ð»ÑĮÐ½Ð¾":10150,"ÐµÑģÑĥ":10151,"ĠÑĤÑĥÑĪ":10152,"ĠÐľÐ°":10153,"ĠÑĢÐ°Ð·Ð½Ð¸ÑĨÐ°":10154,"ĠÐĽÐµÐ¹":10155,"ĠÐ·Ð°ÐºÐ¾Ð½Ñĭ":10156,"ĠÑĨÐ²ÐµÑĤÐ¾Ð²":10157,"ÐŁÐ¾ÐºÐ°":10158,"ĠÑħÐ¾ÑĢÐ¾ÑĪÐ¸Ðµ":10159,"Ð°ÑıÐ½":10160,"ĠÑĥÐ»ÐµÑĤ":10161,"ĠÐ²ÑģÑıÐºÐ¾Ð¹":10162,"ĠÑĥÐ½Ð¸Ðº":10163,"ĠÐ¿ÑĤÐ¸ÑĨ":10164,"ĠÐ¿Ð¾ÑģÑĤÑĥÐ¿Ð¸Ð»":10165,"ĠÐĴÑĭÐ±":10166,"ĠÐ¸Ð·Ð»ÑĥÑĩ":10167,"ĠÐłÐ°":10168,"ĠÐ´Ð¾ÐºÐ°Ð·Ð°ÑĤÑĮ":10169,"ĠÐ¸Ð·Ð´Ð°Ð»":10170,"ĠÑĥÐ¼ÐµÑĢÐ»Ð°":10171,"32":10172,"ĠÑħÐ¾Ðº":10173,"ĠÑģÑĩÐ¸ÑĤÐ°ÐµÑĤÑģÑı":10174,"Ð»Ð°Ð¼Ð¸":10175,"ua":10176,"ĠÐ¿Ð¾ÑģÑĤÑĥÑĩ":10177,"ĠÐ¿ÑĢÐµÐ´Ð¿ÑĢÐ¸ÑıÑĤÐ¸Ñı":10178,"ĠÐ¼Ð°ÑħÐ½ÑĥÐ»":10179,"Ð°ÐµÐ¼Ð¾Ð³Ð¾":10180,"ĠÑģÐ¾Ð¾Ð±ÑīÐ¸ÑĤÑĮ":10181,"ĠÐ±Ð°Ð½ÐºÐ°":10182,"ĠÐ¼Ð½Ð¾Ð³Ð¾Ð¼":10183,"ĠÐ·Ð°ÑīÐ¸ÑĤÑĥ":10184,"ĠÐ²ÑĭÑıÑģÐ½Ð¸Ð»Ð¾ÑģÑĮ":10185,"ĠÐ»ÑİÐ±Ð¾Ðµ":10186,"55":10187,"Ð³ÐµÐ½ÑĤ":10188,"ĠÐŀÐ»":10189,"ĠÐłÑıÐ´Ð¾Ð¼":10190,"Ð¡Ðł":10191,"ĠÐ±ÐµÐ·ÑĢÐ°Ð·":10192,"ĠÑĥÐµÑħÐ°Ð»":10193,"ĠÑģÐºÐ¾ÑĢÐ¾ÑģÑĤÑĮÑİ":10194,"ÑĩÐ°Ð¹":10195,"ĠÐ±Ð°Ð±ÑĥÑĪÐºÐ°":10196,"ĠÐ²Ð¾Ð·Ð½Ð¸ÐºÐ°ÐµÑĤ":10197,"ÐĿÐ°ÐºÐ¾Ð½ÐµÑĨ":10198,"47":10199,"ĠÐ¤ÐµÐ´Ð¾ÑĢ":10200,"ĠÐ¾ÑĤÐ²ÐµÑĤÑģÑĤÐ²ÐµÐ½Ð½Ð¾ÑģÑĤÐ¸":10201,"ĠÑĥÑħÐ²Ð°ÑĤ":10202,"ĠÐ¿Ð»Ð°ÑĤÐ¸ÑĤÑĮ":10203,"ĠÐ¼ÐµÑĤÑĢÐ¾":10204,"ĠÑģÑĤÐ°Ð½Ñĥ":10205,"ĠÐ¸ÑģÑĩÐµÐ·Ð»Ð°":10206,"ĠÐĵÐ¾Ð»Ð¾Ñģ":10207,"ĠÐ»Ð°Ð³ÐµÑĢÑĮ":10208,"ĠÐ¼Ð¸ÑĢÐ¾Ð¼":10209,"ĠÐ²ÑĭÑĢÐ°ÑģÑĤ":10210,"ĠÐ´Ð¾Ð»Ñİ":10211,"ĠÐ²ÑĤÐ¾ÑĢÑĥÑİ":10212,"ĠÑģÑİÑĢ":10213,"ĠÑĩÑĥÐ´Ð¾":10214,"Ð½Ð¾Ð²ÐµÑģ":10215,"ĠÐŁÑĥÑĤÐ¸Ð½Ð°":10216,"ĠÑģÐ¾Ð´ÐµÑĢÐ¶Ð°Ð½Ð¸Ðµ":10217,"ĠÐĳÐµÐ»Ð¾ÑĢÑĥÑģ":10218,"ĠÐ½ÐµÐ¾Ð´Ð½Ð¾Ðº":10219,"ĠÑģÐ¼Ð¾ÑĤÑĢÐ¸":10220,"ĠÐ¿Ð¾ÑģÐ»ÐµÐ´Ð½Ð¸Ð¼":10221,"ĠÑĩÐµÑĢÑĤÑĭ":10222,"ĠÐ²Ð¾Ð¿Ð»Ð¾Ñī":10223,"ĠÐ¿ÑĢÐ¾ÑĪÐ»Ð¾Ðµ":10224,"ĠÑĦÐ°Ð»ÑĮ":10225,"ÑģÑĤÐ²ÐµÐ½Ð½Ð¾ÑģÑĤÑĮ":10226,"Ð°ÑĢÐ¸Ñı":10227,"ĠÐ·Ð°Ð¿Ð¸ÑģÐ¸":10228,"ĠÐ¾ÑĩÐ¸ÑģÑĤ":10229,"ÑĢÐ°ÑģÑģ":10230,"ÑĤÐ¾Ð±":10231,"ÑįÑĤÐ°Ð¶":10232,"ÑĸÐ²":10233,"ĠÐ¿Ð¾ÐºÐ¸Ð½ÑĥÐ»":10234,"ÐĴÐµÑĢ":10235,"ĠÐ±Ð¾ÑĢÐ¾ÑĤÑĮÑģÑı":10236,"ĠÐ»ÑĥÐ½":10237,"ĠÐ½Ð°ÑĢÑı":10238,"ĠÐ¾ÑĤÐ²ÑĢÐ°ÑĤ":10239,"ĠÐĳÐ°Ð»":10240,"ĠÐ·Ð°Ð½ÑıÑĤÑĮÑģÑı":10241,"Ð¾Ð·ÑĢ":10242,"ĠCh":10243,"ĠÐ¾ÑģÑĤÐ°ÑĤÐºÐ¸":10244,"ĠÑģÐ½ÐµÐ¶":10245,"ĠÐ´Ð¸ÑģÑĨÐ¸Ð¿":10246,"Ð¾Ð¶Ð¸ÑĤÑĮ":10247,"ĠÐ¸Ð¼ÐµÑı":10248,"ĠÐ²Ð¾Ð»Ð¾ÑģÐ°Ð¼Ð¸":10249,"ÂłÐ¡ÑĤ":10250,"ĠÑģÐ½ÑıÑĤ":10251,"Ð¸ÑĤÐµÑĤÐµ":10252,"ĠÑģÐ´ÐµÐ»Ð°ÐµÑĤ":10253,"ĠÐ´Ð¾ÑĢÐ¾Ð³Ð¾":10254,"ĠÑĢÐµÑģÐ¿":10255,"ĠÐ·Ð»Ð¾Ð²":10256,"ĠÑģÐ¾Ð¾Ð±ÑīÐµÐ½Ð¸Ð¸":10257,"ÐľÐĲ":10258,"ĠÑĤÐµÐ½":10259,"Ð°Ð±ÐµÐ»ÑĮ":10260,"ÑİÑģ":10261,"ĠÐ·ÑĥÐ±Ð°Ð¼Ð¸":10262,"Ð¢Ð°Ð¼":10263,"Ġ300":10264,"ĠÐ¾Ð¶Ð¸Ð´Ð°Ñı":10265,"ĠÐ¿ÑĢÐµÐ¾Ð±ÑĢÐ°Ð·":10266,"ĠÑģÐ¿ÑĢÐ°Ð²Ð°":10267,"Ð½ÑıÑĤ":10268,"ĠÐ¿ÑĢÑıÐ¼Ð¾Ð¹":10269,"Ð¾Ð½Ð°Ñħ":10270,"Ð¢Ð¬":10271,"ĠÑĩÑĥÐ²ÑģÑĤÐ²Ð¾Ð²Ð°ÑĤÑĮ":10272,"ĠÐºÐ°Ð½ÑĨ":10273,"ĠÐ·Ð½Ð°ÐºÐ¾Ð¼ÑĭÐ¹":10274,"ĠÐ¿ÑĢÐ¸ÑģÑĥÑĤÑģÑĤÐ²Ð¸Ðµ":10275,"Ġr":10276,"ĠÐ²ÑĭÑģÐ¾ÐºÐ¾Ð³Ð¾":10277,"ĠÐĴÐ°ÑĪÐ¸Ð½Ð³":10278,"ĠÐ¡Ð¸Ð»ÑĮ":10279,"ĠÐ½ÐµÑİ":10280,"ĠÑģÑĦÐ¾ÑĢÐ¼":10281,"ĠÐ¿Ð°ÑĢÐ°Ð»Ð»":10282,"ÑĥÐ»Ðµ":10283,"ĠÐ¿Ð¾ÐºÐ°ÑĩÐ°Ð»Ð°":10284,"ÑĢÑĥÑİ":10285,"ĠXIX":10286,"ĠÐĽÐµÐ³":10287,"ĠÐ½ÐµÐ·Ð°Ð¼":10288,"ĠÐ¼Ð¾ÑĢÑī":10289,"Ð»Ð¸Ð²ÑĭÐ¼":10290,"199":10291,"ÑĢÐ°ÑĨÐ¸Ñı":10292,"ĠÐ¿Ð¾Ð»ÑĤÐ¾ÑĢÐ°":10293,"ĠÐ¿Ð¾Ð»Ð¾Ð²Ð¸Ð½Ñĭ":10294,"ĠÐ¿ÑĢÐ¸Ð½ÑıÐ»Ð°":10295,"Ð¾ÑĪÐ»Ð¾":10296,"ĠÐ½Ð°ÑĨ":10297,"ĠÐ¼ÐµÐ´Ð¸ÑĨÐ¸Ð½":10298,"ÐºÑĥÐ»ÑĮ":10299,"ĠÐ²Ð¾Ð·Ð²ÑĢÐ°ÑīÐ°ÑĤÑĮÑģÑı":10300,"ĠÐºÐ°Ð±Ð¸Ð½ÐµÑĤÐ°":10301,"ĠÐ¸Ð½Ð´ÐµÐ¹":10302,"ĠÐ²Ð½ÐµÐ·Ð°Ð¿":10303,"Ð³ÑĢÐ°":10304,"ĠÑģÑĤÑĢÐ¾Ð¸ÑĤÐµÐ»ÑĮÑģÑĤÐ²Ð¾":10305,"ĠÐ¾Ð±ÐµÑģÐ¿ÐµÑĩÐ¸ÑĤÑĮ":10306,"ĠÐļÑĥ":10307,"ĠÐºÐ¾Ð¼Ð°Ð½Ð´Ð¸ÑĢÐ°":10308,"ĠÐ¼Ð¾Ð³ÑĥÑĩ":10309,"ĠÐ·Ð¾Ð»Ð¾ÑĤÐ¾":10310,"ÐĲÐ²":10311,"ÐµÑĤÐºÑĥ":10312,"ĠÐ¼Ð¾Ð»Ð¾Ð´ÑĭÐµ":10313,"Ġ188":10314,"ĠÐºÐ°ÑĢÑĤÐ¸Ð½Ð°":10315,"ĠÑĤÑĥÑĢÐµÑĨ":10316,"ĠÑģÐ°Ð¼Ð¾Ð´":10317,"if":10318,"ĠÐ´ÐµÑĤÑģÑĤÐ²Ðµ":10319,"ĠÑģÑĤÐ°Ð»Ðº":10320,"ĠÐ¿Ð¾ÐºÐ°Ð·ÑĭÐ²Ð°ÐµÑĤ":10321,"ĠÐ¿Ð°Ñĩ":10322,"Ð°ÐµÐ¼Ð¾Ð¹":10323,"ĠÐ±Ð¾Ð¼Ð±Ð°ÑĢÐ´":10324,"ĠÐĵÑĢÐµ":10325,"ĠÐºÐ°ÑĤÐ¾Ð»":10326,"Ð°Ð»Ð¸Ð·Ð¼":10327,"ĠÐ¾Ð±Ð½Ð¸Ð¼":10328,"ĠÑģÐ´ÐµÐ»Ð°Ð½Ð¾":10329,"ĠÑģÐ¿ÑĢÐ°Ð²Ð¸ÑĤÑĮÑģÑı":10330,"ĠÐļÐ¾ÑĤ":10331,"ĠÑĤÐ¾ÑĢÐ³":10332,"ĠÐ°ÐºÑĨÐ¸Ð¸":10333,"ĠÑģÐ¾Ð±Ð¸ÑĢÐ°Ð»Ð°ÑģÑĮ":10334,"ÑĢÐ°ÑģÑĤÑĮ":10335,"Ð½ÑĥÑĤÑģÑı":10336,"ĠÐ±ÐµÐ»ÑĭÑħ":10337,"Ð¾ÐºÑĢÑĥÐ³":10338,"ĠÐ¿Ð¾Ð´Ð´ÐµÑĢÐ¶ÐºÐ¸":10339,"Ð¸Ð»Ð¸Ð½":10340,"ĠÐ¼Ð°ÑĢÐºÐ¸":10341,"ĠÑĥÑģÑĤÑĢÐ°Ð½":10342,"ĠÑģÐ¼ÐµÑı":10343,"ĠÐ¼Ð¸Ð»Ð»Ð¸Ð°ÑĢÐ´":10344,"Ð¾Ð³Ð¾Ð¹":10345,"ÂłÐŁÐ¾Ñģ":10346,"ĠÑĥÐ±Ð¸Ð²Ð°ÑĤÑĮ":10347,"ĠÑĦÐµÐ²ÑĢ":10348,"ĠÑĥÑİÑĤ":10349,"ĠÐ¾ÑģÐ½Ð¾Ð²Ð½ÑĭÑħ":10350,"ĠÐºÑĥÑĢÑģÐµ":10351,"ĠÐ²ÐµÐ»Ð°":10352,"ĠÑĪÐºÑĥ":10353,"ĠÐ¿Ð¾Ð¼ÐµÑīÐµÐ½Ð¸Ðµ":10354,"ÑĪÐµÐ¹ÑģÑı":10355,"ĠÐ´Ð²Ð¾Ð¸Ñħ":10356,"ĠÑĪÐ°Ð³Ð¾Ð¼":10357,"ĠÑģÑĤÐµÑģ":10358,"ĠÐŁÑĢÑı":10359,"Ð¾ÑĪÐµÐ½":10360,"ĠÐ¾Ð·ÐµÑĢÐ°":10361,"ĠÐ½Ð¸Ð³Ð´Ðµ":10362,"Ð¸Ð¹ÑģÐºÐ°Ñı":10363,"ĠÐ¡ÑĤÐ°Ð½":10364,"ĠÐ½ÐµÐ³ÑĢÐ¾Ð¼":10365,"ĠÑĢÐ°ÑģÐ¿ÑĢÐµÐ´ÐµÐ»":10366,"ÂłÂłÂłÂłÂłÂłÂłÂłÂłÂłÂłÂłÂłÂłÂłÂł":10367,"ÐµÐ¾Ð´":10368,"ĠÐ¿ÑĢÐ¾ÑģÑĤÑĢÐ°Ð½ÑģÑĤÐ²Ð°":10369,"ÑĥÐ´Ð¸Ð»":10370,"ĠÑģÐ°Ð¹ÑĤ":10371,"ĠÐ¾ÑĤÐ¼ÐµÑĤÐ¸ÑĤÑĮ":10372,"ĠÐ½Ð°Ð´Ð¿Ð¸ÑģÑĮ":10373,"Ð¾ÑĩÐ¸ÑĤÑĮ":10374,"ĠÐ¿ÑĢÐ¾ÑĨÐµÑģÑģÐ°":10375,"ĠÐ²ÑĭÐ¿ÑĢÑıÐ¼":10376,"ĠÐ¿Ð¾ÑĢÐ¾Ð³Ðµ":10377,"ĠÐ·Ð°ÑĢÐ¿Ð»":10378,"ĠÐ£Ð²Ð¸Ð´":10379,"ĠÐ½Ð¸Ñī":10380,"ĠÐ²ÑĭÐ·Ð¾Ð²":10381,"ĠÐ·ÑĢÐµÐ»Ð¸":10382,"ĠÐ½ÐµÑĥÐº":10383,"ĠÐ±ÑĭÐ²Ð°ÑİÑĤ":10384,"ĠÐ²ÑĭÐ±Ð¾ÑĢÐ°":10385,"Ð¸Ð¼Ð¾Ð²":10386,"Ð¾Ð³Ð¾Ð¼":10387,"ĠÐ´Ð°Ð²Ð°Ð»":10388,"ĠÐ³Ð¾ÑģÑĥÐ´Ð°ÑĢÑģÑĤÐ²ÐµÐ½Ð½Ð¾Ð³Ð¾":10389,"ĠÐĵÑĢÑĥÐ·":10390,"ÐºÐ½Ð¾Ð²":10391,"Ð²Ð¾ÐµÐ¼Ñĥ":10392,"ĠÐ·Ð°ÐºÐ»ÑİÑĩÐ°ÐµÑĤÑģÑı":10393,"ĠÐ´ÐµÑĢÐµÐ²Ð½Ñı":10394,"ine":10395,"ĠÐ¾Ð±Ð»Ð°Ñĩ":10396,"ĠÐ¯Ð¿Ð¾Ð½Ð¸Ð¸":10397,"ĠÐ²ÑĢÐ°Ð¶ÐµÑģÐº":10398,"ĠÑİÐ½Ð¾ÑĪÐ°":10399,"\">":10400,"ĠÑĢÐ°Ð·Ð³Ð¾Ð²Ð°ÑĢÐ¸Ð²Ð°ÑĤÑĮ":10401,"ĠÐ²ÑĩÐµÑĢÐ°ÑĪ":10402,"ĠÑģÑĤÑĢÑĥÐºÑĤÑĥÑĢ":10403,"ĠÐ¿Ð¾ÐºÐ°Ð·Ð°Ð»ÑģÑı":10404,"ĠÑĤÐ¾ÑĢÐ¾Ð¿Ð»Ð¸Ð²Ð¾":10405,"ÐµÑĤÐµÐ»ÑĮ":10406,"ĠÑįÐºÑģÐ¿Ð»Ñĥ":10407,"ĠÐ¾Ð±Ð½Ð¾Ð²":10408,"ÑİÐ»ÑĮ":10409,"ĠÑįÑģÑĤ":10410,"ÑİÐ¹":10411,"ĠÑĥÑĩÐ°ÑģÑĤÐ¾Ðº":10412,"ĠÑĤÐ¾ÑĩÐ½ÐµÐµ":10413,"Ð²Ð¾ÐµÐ¼":10414,"ĠÐ¡Ð¿Ð°Ñģ":10415,"ĠÐ¾Ð±ÑĢÐ°ÑĤÐ¸Ð»":10416,"ĠÐ¼Ð°ÑģÑģÐ¸Ð²":10417,"ĠÐ¢Ð°ÑĤÑĮÑı":10418,"Ð¿ÑĢÐ¾ÑģÐ¸Ð»":10419,"ĠÐ±ÑİÐ´Ð¶ÐµÑĤ":10420,"ĠÐ²Ð¸ÑĢ":10421,"ĠÑĥÑģÐ¿ÐµÑħÐ°":10422,"Ð¸Ð½ÐºÐµ":10423,"ĠÐ±Ð»Ð°Ð¶":10424,"ÂłÐĿÐ¸Ðº":10425,"ĠÑĢÐ¾Ð´Ð½Ð¾Ð¹":10426,"Ð¸ÑĤÑĭÐµ":10427,"ÐµÐ²ÑĢ":10428,"ĠÐĴÐµÑģÑĮ":10429,"ĠÑĥÐ·Ð½Ð°Ð»Ð¸":10430,"ÑİÑĪÐºÐ°":10431,"ĠÐ¾Ð±Ð¶":10432,"ĠÐ¿Ð¾Ð´Ð½ÑıÐ²":10433,"ĠÐŀÑħ":10434,"ĠÐ¾Ð±Ð¾Ð¹ÑĤÐ¸":10435,"ĠÑģÑĤÐ¾Ð»Ð¸ÑĨÑĭ":10436,"ĠÐ½Ð°ÑħÐ¾Ð´Ð¸ÑĤÑĮÑģÑı":10437,"ĠÑģÑĭÐ½Ð¾Ð¼":10438,"ĠÐ¼ÑıÑģÐ°":10439,"Ġ2006":10440,"ĠÐ¿Ð¾ÑģÐ»ÑĥÐ¶":10441,"ĠÑĥÐ³Ð°Ð´":10442,"ÐµÐ»ÐµÑĤ":10443,"ĠÑĤÐµÐ»Ñĥ":10444,"ĠÑģÑĤÑĢÐ¾Ð¸ÑĤÐµÐ»ÑĮÑģÑĤÐ²Ð°":10445,"ĠÐ²Ð·ÑıÐ²":10446,"ĠÐ¿Ð¾Ð·Ð²Ð¾Ð½Ð¸Ð»":10447,"ĠÐºÐ°ÑİÑĤ":10448,"ĠÑĤÑĢÐµÑī":10449,"ĠÑģÑĤÐ°ÑĢÑĪÐµ":10450,"ĠÐĿÐĲÐ¢Ðŀ":10451,"ĠÐĶÐ¾ÑģÑĤ":10452,"ĠÐ¾ÑĤÐ²ÐµÑĢÐ³":10453,"ĠÐĽÐ¸ÑĨÐ¾":10454,"Ð°Ð»ÐµÐ¹":10455,"ĠÐ¾ÑĤÐ¼ÐµÑĩÐ°ÐµÑĤ":10456,"ĠÑģÐµÐ¼Ð¸":10457,"ĠÐ´ÑĢÑĥÐ·ÑĮÑıÐ¼Ð¸":10458,"ÐµÑħÐ°":10459,"ÑĥÐ¼Ð½Ð¾":10460,"ĠÑıÐ´":10461,"ĠÐľÐµÐ¶Ð´ÑĥÐ½Ð°ÑĢÐ¾Ð´":10462,"ĠÐ½ÐµÐ²ÐµÐ´Ð¾Ð¼":10463,"ĠÐĵÐ¾ÑĢÐ¾Ð´":10464,"Ð½ÐµÐ½":10465,"ĠÐ³ÑĢÐ°Ð½Ð¸ÑĨ":10466,"ĠÐ½Ð¾Ð²Ð¾ÑģÑĤ":10467,"ĠÑģÐ¾Ð»Ð¸Ð´":10468,"ÐºÐ°Ð´":10469,"ĠÑĢÐµÐ³Ð¸ÑģÑĤ":10470,"ĠÑģÐ°Ð¼Ð¸Ñħ":10471,"ĠÑĨÐµÐ»Ð¸ÐºÐ¾Ð¼":10472,"ĠÑģÐ¾Ð¿ÑĢÐ¾Ð²Ð¾Ð¶":10473,"ÐµÑģÑĤÑĢÐ°":10474,"ÑģÑĤÐ°ÑĢ":10475,"Ð°Ð½ÑĨÐµÐ²":10476,"ĠÑĤÐ¾Ð»ÐºÑĥ":10477,"ĠÑģÐ¾Ð³Ð»Ð°ÑģÐµÐ½":10478,"ĠÐ¿ÐµÑĢÐµÐ¼ÐµÐ½":10479,"ĠÑĤÑĢÑıÐ¿":10480,"ÑģÑĤÑĢÐµÐ»Ñı":10481,"ĠÐ³Ð¾ÑģÐ¿Ð¾Ð´Ð°":10482,"ĠÐľÐ°Ð»Ð¾":10483,"Ð¼ÐµÐ½Ð½Ð¾":10484,"ĠÐ²ÐµÑĢÑĭ":10485,"ĠÐ£Ð¼":10486,"ÐµÐ»ÑıÐ¼Ð¸":10487,"ĠÐľÐµÐ¹":10488,"ÂłÐĹÐ½Ð°":10489,"ĠÑĪÐ¾ÑģÑģÐµ":10490,"ĠÐ½ÐµÐ¾Ð±ÑħÐ¾Ð´Ð¸Ð¼Ð¾ÑģÑĤÑĮ":10491,"ĠÐ¼Ð°ÑĤÑĩÐ°":10492,"ĠÐ¾ÑģÐ½Ð¾Ð²Ð°Ð½Ð¸Ð¸":10493,"ÂłÐŀÐ½Ð¸":10494,"ĠÐ´Ð¸ÑģÑĤÐ°Ð½":10495,"ĠÐ²ÑĭÐ¿Ð¾Ð»Ð½ÑıÑĤÑĮ":10496,"ĠÐ¿Ð¾ÑģÐ¾Ð»ÑĮ":10497,"ÑģÐ¸Ð´":10498,"ĠÐ¾ÑĢÐ³Ð°Ð½Ð¸Ð·Ð°ÑĨÐ¸Ñı":10499,"ĠÐ±Ð°Ðº":10500,"ĠÐ¸Ð·ÑıÑī":10501,"ĠÐŁÐ°ÑĤ":10502,"ĠÐ²ÑĭÐ·Ð²Ð°Ð»":10503,"ĠÑĩÑĥÐ¶Ð¾Ð¹":10504,"ĠÐ·Ð°Ð¿ÑĥÑģÐº":10505,"ĠÑĦÐ¸Ð³ÑĥÑĢÐ°":10506,"ĠÐ²ÑĤÐ¾ÑĢÐ¾Ðµ":10507,"ÐµÐ´ÐµÑĤ":10508,"Ð¾Ð²Ð°ÑĤÐµÐ»ÑĮÐ½Ð¾":10509,"ĠÐ½Ð°Ð¿ÑĢÐ°Ð²Ð»ÐµÐ½Ð¸Ðµ":10510,"Ð¾ÑĩÐ½Ð¾Ðµ":10511,"ÐµÑģÐºÐ¸":10512,"ĠÐ¾ÐºÑĢÑĥÐ³Ð°":10513,"ĠÑģÐ»ÑĭÑĪÐ°Ð»Ð¸":10514,"Ð¸ÑħÐ°":10515,"ĠÐ½Ð°Ð´ÐµÑıÐ»ÑģÑı":10516,"75":10517,"ĠÐ¿ÑĢÐµÐ´ÑģÑĤÐ°Ð²Ð»ÑıÐ»":10518,"ĠÐ´Ð²ÐµÐ½Ð°Ð´ÑĨÐ°ÑĤÑĮ":10519,"ĠÐŁÑĢÐµÐ·Ð¸Ð´ÐµÐ½ÑĤ":10520,"Ð»Ð¸Ð²ÑĭÐµ":10521,"ĠÑĩÑĮÐ¸":10522,"ĠÑģÑĤÐ¸ÑħÐ¾ÑĤÐ²Ð¾ÑĢ":10523,"ere":10524,"ĠÐ¾ÑĤÐ¿ÑĢÐ°Ð²Ð¸Ð»Ð¸ÑģÑĮ":10525,"ÑĥÑĢÐ¾Ð²":10526,"ĠÐ¿ÑĢÐ¾ÑĩÐ¸Ñħ":10527,"ĠÐ¾Ð±ÑĬÐµÐºÑĤÐ¾Ð²":10528,"Ð°Ð´Ð¶":10529,"ĠÐ¼Ð¾ÑĤ":10530,"ĠÐŀÐ·":10531,"ĠÑģÑĢÐ¾ÑĩÐ½Ð¾":10532,"ĠÐ¾Ð±ÑĢÐ°Ð±Ð¾ÑĤ":10533,"ĠÐ±ÐµÑģÐ¿Ð¾Ð¼Ð¾Ñī":10534,"ĠÐ¾Ð¶Ð¸Ð´Ð°ÑĤÑĮ":10535,"ĠÐ±ÐµÑĪÐµÐ½":10536,"ĠÑģÐ¾Ð±ÑĢÐ°Ð»Ð¸ÑģÑĮ":10537,"ĠÑĥÐ´Ð°Ð²Ð°Ð»Ð¾ÑģÑĮ":10538,"ĠÐľÐ°Ð¼Ð°":10539,"ĠÐ¿Ð¾Ð·Ð²Ð¾Ð»Ð¸ÑĤ":10540,"ĠÐ¾ÑĩÐºÐ¸":10541,"Ð¸ÑĢÑĥÑĢ":10542,"ĠÑĢÐ°Ð·Ð²Ð¾Ð´":10543,"ÑĥÑģÑĤÑı":10544,"ÑĢÑĭÐ³":10545,"ĠÐ¼Ð°ÑĤÐµÑĢÑĮÑİ":10546,"ĠÐ½Ð°Ð¿Ð¾Ð¼Ð½Ð¸Ð»":10547,"ÐµÐ²Ð¸Ð´Ð½Ð¾":10548,"ĠÑĦÐ¾Ð½Ð´":10549,"Ð½Ð¸ÑĩÐ°ÑĤÑĮ":10550,"ĠÐ½Ð°Ð±Ð»ÑİÐ´Ð°ÑĤÑĮ":10551,"ĠÐ¿ÑĢÑĭÐ¶":10552,"ĠÐ½ÐµÐ²ÐµÑģÑĤ":10553,"Ð²Ð¸Ð½ÑĥÐ»":10554,"Ð¸ÑģÐºÐ°":10555,"ĠÐ·Ð°Ð½Ð¸Ð¼Ð°ÐµÑĤ":10556,"ĠÑįÑĤÐ°Ð¶Ðµ":10557,"ĠÑĤÑĢÑıÑģ":10558,"Ð¾ÐºÑĥÑģ":10559,"ĠÑĥÐ»ÑĭÐ±Ð°ÑıÑģÑĮ":10560,"ĠÐ¿Ð¾ÐµÐ´Ð¸Ð½":10561,"ĠÑģÑĤÑĢÐ°Ð¶":10562,"ÑĳÐ½Ð½Ð¾":10563,"ĠÐ¡ÐŁ":10564,"Ð°ÑİÑīÐµÐ¹ÑģÑı":10565,"ĠÐ¼ÑĥÐ¶ÑĩÐ¸Ð½Ñĥ":10566,"ĠÑĢÐµÐ¹ÑĤ":10567,"ĠÐĶÐ¼Ð¸ÑĤÑĢÐ¸":10568,"ÑĤÐ²Ð¾ÑĢ":10569,"ĠÐ²ÑĨÐµÐ¿":10570,"ÂłÐ¤":10571,"ĠÐĹÐ°ÑĢ":10572,"ĠÐ²Ð°Ð¶Ð½Ð¾Ðµ":10573,"ĠÐºÐ¾Ð½ÑĤÑĢÐ¾Ð»Ñı":10574,"ĠÐ´Ð²Ð¸Ð½ÑĥÐ»ÑģÑı":10575,"Ð°ÑĢÑĤÐ°Ð¼":10576,"Ð»ÐµÑĨ":10577,"ĠÑģÐµÐ´ÑĮ":10578,"ĠÐ·Ð²Ð°Ð»Ð¸":10579,"49":10580,"ÑĤÐµÑģÑĮ":10581,"ĠÐŁÑĢÐµÐ¶Ð´Ðµ":10582,"ĠÑĢÑĭÑĨ":10583,"ĠÐ¾Ð±ÐµÐ¸Ñħ":10584,"Ð²Ð¸Ñģ":10585,"ĠÐĶÐ°Ð¹":10586,"ĠÑģÐ¾Ð±Ð°ÐºÐ¸":10587,"ĠÐ¿ÑĢÐ¸ÑĢÐ¾Ð´Ðµ":10588,"ĠÐŁÐ°Ð½":10589,"Ð¢ÐµÐ¼":10590,"ĠÐ¾ÑĢÐ³Ð°Ð½Ð¸Ð·Ð°ÑĨÐ¸Ð¹":10591,"ÑĥÐ»ÑģÑı":10592,"ĠÐ²ÑĭÐ¿Ð¸ÑĤÑĮ":10593,"ĠÐ¾ÑĤÑĪ":10594,"ĠÐ²Ð·Ð²Ð¾Ð»Ð½Ð¾Ð²":10595,"ĠÐºÑĢÐµÐ¿Ð¾ÑģÑĤÐ¸":10596,"ĠÐ¿ÐµÑĢÐµÑĩÐ¸Ñģ":10597,"ĠÐºÐ¾ÑĢÐ·":10598,"ĠÑĤÑĢÑĳÑħ":10599,"ĠÐ¶ÐµÐ½Ðµ":10600,"Ð»ÑıÐ½Ð´":10601,"tt":10602,"Ð·Ñĭ":10603,"ĠÑįÐ¼Ð¾ÑĨÐ¸Ð¾Ð½":10604,"ÐµÐ¹ÐºÐ¸":10605,"ÑĥÐ´Ñĭ":10606,"ĠÐ¿ÑĢÐµÐ´ÑģÐºÐ°Ð·":10607,"ĠÐºÐ°Ð·Ð°Ð»Ð°ÑģÑĮ":10608,"ĠÐĳÐ°ÑĪ":10609,"ĠÐĸÐ¸Ð²":10610,"ĠÐļÐµÑĢ":10611,"ĠÐ°ÑĢÐ³ÑĥÐ¼":10612,"ĠÑģÐµÐ·Ð¾Ð½Ð°":10613,"ĠÐ¶ÐµÐ½Ð¸":10614,"ÐłÐ£":10615,"ĠÐ¿ÑĢÐ¾Ð¸Ð·Ð²Ð¾Ð´ÑģÑĤÐ²Ð¾":10616,"ĠÐĽÐµÐ¾Ð½Ð¸":10617,"ĠÐ¿Ð»Ð°Ð½ÐµÑĤ":10618,"ĠÐ¿Ð°ÑĢÑĤÐ¸Ð·":10619,"ĠÐĲÐºÐ°Ð´ÐµÐ¼":10620,"ĠÐ¿Ð¾Ð³Ð°Ñģ":10621,"ÑĦÐ¾ÑĢÑĤ":10622,"Ġy":10623,"ĠÐ¾Ð³ÑĢÐ¾Ð¼Ð½Ð¾Ð¹":10624,"ĠÐĽÐ¸Ð³":10625,"ĠÐ±ÑĢÐ°ÑĤÑĮÐµÐ²":10626,"ÑĦÐ¸ÐºÑģ":10627,"ĠÑĥÐ²ÐµÑĢÐµÐ½Ñĭ":10628,"ĠÐ¾ÑĤÐ¾ÑĢÐ²":10629,"Ð¾Ð¿ÑĤ":10630,"ĠÑģÐ»ÐµÐ²Ð°":10631,"ĠÐ¼Ð¾Ð´ÐµÐ»Ð¸":10632,"ÑĨÐºÐ¸Ð¹":10633,"ĠÐ¸Ð½ÑģÑĤÐ¸Ð½ÐºÑĤ":10634,"ÑĢÑĭÐ»Ð°":10635,"ĠÑĥÐ½Ñĭ":10636,"ĠÐ¿Ð¾Ð¿Ð°Ð»Ð°":10637,"ĠÐ°Ð²ÑĤÐ¾Ð¼Ð¾Ð±Ð¸Ð»Ñı":10638,"ĠÐ¤ÑĢÑįÐ½":10639,"Ð¾Ð½Ð¸Ð¼":10640,"ĠÐ¯Ñģ":10641,"ĠÐ¿Ð¾Ð´Ð³Ð¾ÑĤÐ¾Ð²ÐºÐ¸":10642,"ĠÐ½Ð°ÑĩÐ¸Ð½Ð°Ñı":10643,"ĠÐ´Ð¾Ð±ÑĢÐ¾Ð²Ð¾Ð»ÑĮ":10644,"ĠÐĴÐ¾Ð»Ð¾Ð´":10645,"ĠÐ²Ð¾Ð·Ð¾Ð±Ð½Ð¾Ð²":10646,"ĠÐľÐµÐ´Ð²ÐµÐ´":10647,"ĠÐ´ÐµÑĤÐ°Ð»Ð¸":10648,"ĠÐ²ÑĭÑħÐ¾Ð´Ñĥ":10649,"Ð¾ÐºÐ¾Ð»ÑĮ":10650,"Ð¸Ð´Ð¾Ð²":10651,"Ð»Ð°ÑĤÑĭ":10652,"ĠÐ½ÐµÐ±ÑĢÐµÐ¶":10653,"ĠÐ¿Ð¾Ð´ÑħÐ¾Ð´Ð¸ÑĤ":10654,"ĠÐ²ÑģÐºÑĢÐ¸Ðº":10655,"Ð°Ð»ÑĮÑı":10656,"Ð°Ð»Ð¸Ñı":10657,"ĠÐ¡Ð¸Ð±Ð¸ÑĢ":10658,"ĠÑĥÐ¼ÐµÐµÑĤ":10659,"ÑģÐ¸Ñİ":10660,"ĠÑĢÑĤÐ°":10661,"ĠÑĢÐµÐ¼Ð¾Ð½ÑĤ":10662,"ĠÐ³ÑĢÐ°Ð²":10663,"ĠÑĢÐµÑĪÐ°ÑĤÑĮ":10664,"ĠÑĩÐµÐ»Ð¾Ð²ÐµÑĩÐµÑģÐºÐ¾Ð³Ð¾":10665,"ĠÐ¿ÑĢÐ¾Ð²ÐµÐ»Ð°":10666,"ĠÑģÐ¾Ð²ÐµÑĢÑĪÐ¸Ð»":10667,"ĠÑĢÐ°ÑģÐºÑĢÑĭÐ²":10668,"ĠÐ¿ÑĢÐ¸Ð²ÐµÐ»":10669,"ÑĢÐ¾Ð²Ð¾Ð¹":10670,"ĠÐ¾ÑĢÐ³Ð°Ð½Ñĭ":10671,"ĠÐ´ÐµÑĤÑıÐ¼":10672,"ĠÑģÐºÐ¾Ð½Ñĩ":10673,"ĠÑģÑĢÐµÐ´Ñĥ":10674,"ĠÑģÑĤÐ°ÑĢÐ¸ÐºÐ°":10675,"ĠÐ»ÑĥÑĩÑĪÐ¸Ð¹":10676,"ĠÐ³Ð¾ÑģÐ¿Ð¸ÑĤ":10677,"ĠÐ´ÐµÑģÑıÑĤÐ¸Ð»ÐµÑĤ":10678,"ÑĥÐ»ÑĮÐ¿":10679,"ĠÐºÐ¾Ð»ÑĮÑĨÐ¾":10680,"ĠÑĢÐ¾ÑģÑģÐ¸Ð¹ÑģÐºÐ¸Ð¹":10681,"ÑĪÐ¸Ð¿":10682,"Ð²Ð¾Ñī":10683,"ĠÐ¿Ð¾Ð¼Ð¾Ð³Ð°ÐµÑĤ":10684,"ĠÐ¿ÑĢÐ¸Ð¾ÑĤÐº":10685,"ĠÐ½Ð°Ð·Ð½Ð°ÑĩÐµÐ½":10686,"ĠÑģÐµÑĢÑĮÑĳÐ·":10687,"ÑĢÐ°ÑĤÑĮÑģÑı":10688,"Ð±Ð°ÑĢ":10689,"ĠÐľÐ¸Ðº":10690,"ĠÑĢÐ¾ÑģÑģÐ¸ÑıÐ½":10691,"ĠÐ²Ð¾ÐµÐ½Ð½ÑĭÐ¹":10692,"ĠÐ¼ÐµÑħÐ°Ð½Ð¸Ð·Ð¼":10693,"ĠÑģÑĤÐ°Ð½Ð¾Ð²Ð¸Ð»Ð¾ÑģÑĮ":10694,"ĠÐ·Ð´Ð¾ÑĢÐ¾Ð²ÑĮÑı":10695,"ÐłÐķ":10696,"ĠÐĴÐ¾ÑĢÐ¾Ð½":10697,"ĠÐĶÐ¶ÑĥÐ»Ð¸":10698,"ĠÐ¿ÐµÑĢÐµÐ½ÐµÑģ":10699,"ĠÐ¸Ð½ÑĤÐµÑĢÐµÑģÑĭ":10700,"ĠÐ¿Ð¾Ð»Ð¸ÑĤÐ¸ÑĩÐµÑģÐºÐ¸Ñħ":10701,"ĠÑĤÐµÐ¼Ðµ":10702,"ĠÐºÐ»Ð¸ÐµÐ½ÑĤ":10703,"ĠÐ¾Ð±Ð´ÑĥÐ¼":10704,"ĠÐ¿ÑĢÐ¸Ð¼ÐµÑĤ":10705,"ĠÑĤÐµÐ°ÑĤÑĢÐ°":10706,"ĠÐºÐ¾Ð¶Ñĥ":10707,"ĠÑģÑĤÐ°ÑĤÑĥ":10708,"ĠÐ½ÐµÐ´Ð¾Ð»Ð³Ð¾":10709,"ĠÑģÐ¾Ð²ÐµÑĤÑģÐºÐ¸Ñħ":10710,"ĠÐľÐ¸ÑģÑģ":10711,"ĠÐ³Ð¾ÑģÑĤÐ¸Ð½Ð¾Ð¹":10712,"ĠÐ¾ÑĤÑĢÑıÐ´Ð°":10713,"Ð»ÐµÐ½Ð½Ð¾ÑģÑĤÑĮ":10714,"ĠÑĨÐµÐ»ÑĥÑİ":10715,"ÂłÐĵÐ´Ðµ":10716,"ĠÐ¿Ð¾ÐºÐ¾Ñı":10717,"ĠÑĥÑħÐ¾Ð´Ð¸ÑĤ":10718,"ĠÑıÐ²Ð¸Ð»ÑģÑı":10719,"ĠÑģÑĤÐ¾Ð¸Ð¼Ð¾ÑģÑĤÑĮ":10720,"ĠÐĽÐ¸Ð·":10721,"42":10722,"ĠÑĩÐµÐ»Ð¾Ð²ÐµÑĩÐµÑģÐºÐ¾Ð¹":10723,"ĠÑģÑĤÑĢÐ°Ð½Ð½Ð¾Ðµ":10724,"ĠÐ·Ð»Ð¾Ð±":10725,"ĠÐ¿ÑĢÐ¸Ð½ÑıÐ»Ð°ÑģÑĮ":10726,"ĠÑģÐ¾Ð²ÐµÑĤÑģÐºÐ¾Ð¹":10727,"ĠÑħÐ¾ÑĢÐ¾ÑĪÐ°Ñı":10728,"ĠÐ·Ð°Ð±ÑĭÐ»Ð°":10729,"ĠÐŁÐ¾Ð¼Ð½":10730,"ĠÑĤÑĢÐ°Ð´Ð¸ÑĨÐ¸Ð¸":10731,"ĠÑģÐ¾Ð±ÑģÑĤÐ²ÐµÐ½Ð½ÑĭÐ¹":10732,"ĠÑģÑĤÐ°ÑĤÑĮÐµ":10733,"ĠÑĥÐ´Ð¾Ð²Ð¾Ð»ÑĮÑģÑĤÐ²Ð¸Ñı":10734,"ĠÑĨÐµÐ»ÐµÐ¹":10735,"ĠÐ½Ð°Ð´ÐµÐ¶Ð´":10736,"ĠÐ²ÑĭÑģÐ¾ÑĤÑĭ":10737,"ÑĦÐµÐ¹":10738,"Â»âĢ¦":10739,"ĠÑģÑĥÑīÐ½Ð¾ÑģÑĤÐ¸":10740,"ĠÐ·Ð°Ð½ÑıÐ»":10741,"ÑģÑĮÐµ":10742,"Ġ=":10743,"ĠÐ³Ð»Ð°Ð²Ð½ÑĭÑħ":10744,"ĠTh":10745,"ĠÐ·Ð°Ð½Ð¸Ð¼Ð°ÐµÑĤÑģÑı":10746,"ĠÐĿÐ°ÑĢÐ¾Ð´":10747,"ĠÐ°Ð²ÑģÑĤÑĢ":10748,"pp":10749,"ĠÑĢÑĥÐ¼":10750,"ĠÑģÑĥÐ´Ð¸ÑĤÑĮ":10751,"Ð°Ð²Ð°Ð»Ð°":10752,"ĠÐ¿ÑĢÐ¾Ð³Ð½Ð¾Ð·":10753,"ĠÑģÑĥÐ´ÑĮÐ±Ñĥ":10754,"Ð¾Ð»ÑĤ":10755,"ĠÐ´ÐµÐ»Ð°Ñħ":10756,"Ð»ÐµÑģÑĤ":10757,"ĠÐĺÐ½ÑĤÐµÑĢ":10758,"ĠÐ¾ÑģÑĤÐ°Ð½Ð¾Ð²Ð¸Ð»Ð¸ÑģÑĮ":10759,"ĠÐĿÐ°Ðº":10760,"ĠÐ°Ð½Ð³ÐµÐ»":10761,"ĠÑģÐ¾Ð±ÑĢÐ°Ð²":10762,"ĠÐ´ÐµÑĢÐ·":10763,"ĠÐ¿ÑĢÐ¾Ð¸Ð·Ð½":10764,"ĠÐ³ÑĥÐ¼Ð°Ð½":10765,"ĠÐ·Ð°Ð¼ÐµÑĪ":10766,"ĠÑĥÑħÐ¾Ð´Ð¸ÑĤÑĮ":10767,"ĠÐ½Ð°Ð¿ÑĥÐ³":10768,"ĠÐ¿Ð¾Ð²ÐµÑĢÐ½ÑĥÐ»":10769,"ĠÐ¾ÑĤÑĢÐ°Ð·":10770,"Ð³Ð¾Ð´Ð°":10771,"ĠÐ½Ð°Ð´ÐµÑıÑĤÑĮÑģÑı":10772,"ĠÐ¾Ð±ÑĪÐ¸ÑĢ":10773,"ĠÐ¡Ð¾ÐµÐ´Ð¸Ð½":10774,"ĠÑĩÑĥÐ²ÑģÑĤÐ²ÑĥÐµÑĤ":10775,"ĠÐ²ÑĭÐºÑĢÐ¸Ðº":10776,"ĠÑĤÐ¸":10777,"ĠÑģÑĤÐ°Ð½Ð¾Ð²ÑıÑĤÑģÑı":10778,"Ð¿Ð°Ð½Ð¸Ñı":10779,"ĠÑĤÐ¾Ð»Ð¿Ñĭ":10780,"Ð¾ÑĤÐ²":10781,"ĠÐ²Ð¾Ð¶":10782,"ĠÐ°ÑĢÐ¼ÐµÐ¹":10783,"Ġ36":10784,"ĠÑģÐ²ÑıÐ·Ð°Ð½Ñĭ":10785,"ĠÐºÑĢÑĥÐ¿Ð½ÑĭÐµ":10786,"ÑĦÐ°ÐºÑģ":10787,"ĠÐ¸Ð¼ÐµÐ»Ð¾":10788,"Ð´ÐµÐ»ÑĮ":10789,"46":10790,"ĠÑģÐ¾Ð¾Ð±ÑīÐµ":10791,"ĠÐ¿ÑĢÐ¾Ð´ÑĥÐºÑĤÐ¾Ð²":10792,"ĠÑĸ":10793,"ĠÐ²Ð¾ÑģÑĮÐ¼":10794,"ĠÐ²ÐµÐºÐ¾Ð²":10795,"ĠÐ¡Ð´ÐµÐ»":10796,"ĠÑĢÐµÐ³Ð¸Ð¾Ð½Ð°":10797,"ĠÐ½Ð°ÑĢÐµÐ·":10798,"ĠÐĴÐµÑģ":10799,"Ð²Ð¸Ð´Ð°":10800,"Ð½Ð¾ÑģÑĤÑıÐ¼":10801,"Ð¡Ð":10802,"ĠÐ¼ÑĥÐ¶Ð¸Ðº":10803,"ÑĸÐ¹":10804,"Ð»ÐµÐ¼Ñĥ":10805,"ÑĸÐ´":10806,"ĠÐ¿Ð°ÑĢÐ½Ð¸":10807,"ĠÐ¿ÐµÑĢÐµÐ¿ÑĢÐ°Ð²":10808,"ĠÐ²Ð°ÑĪÐµÐ¼":10809,"ĠÐ¿ÑĢÐ¾Ð½":10810,"Ð¾Ð²Ðµ":10811,"ĠÐ§Ð¸ÑĤ":10812,"ĠÐ¿ÑĢÐ¾Ð³Ð¾Ð²Ð¾ÑĢÐ¸Ð»Ð°":10813,"ĠÐĺÐ¸ÑģÑĥÑģÐ°":10814,"Ð¾ÑĩÐ½Ð¾Ð¼":10815,"ĠÐ²Ð¾ÑģÐºÑĢÐµÑģÐµÐ½ÑĮÐµ":10816,"ĠÐŁÐ¾ÑĢÑĤ":10817,"ĠÐºÐ¸ÑģÑĤ":10818,"ĠÐĿÐ°Ð¿Ð¾Ð»Ðµ":10819,"ĠÐ¿Ð¾Ð»Ð¸ÑĨÐ¸Ñı":10820,"ĠÑĢÐ°ÑģÐ¿Ð¾ÑĢÑıÐ´":10821,"ĠÐ²ÑģÑıÐºÐ¸Ðµ":10822,"ĠÐ´ÐµÐ»Ð°Ð»Ð°":10823,"ĠÐ³ÑĢÐ°Ð½Ð¸ÑĨÑĥ":10824,"ÐµÑĢÐ´ÑĨÐµ":10825,"ĠÐ½Ð°ÑģÐº":10826,"ĠÐ²Ð¾Ð¿ÑĢÐ¾ÑģÐ°Ð¼":10827,"ÑĪÐµÐ³Ð¾ÑģÑı":10828,"ĠÐ´Ð°Ð»ÑĮÐ½ÐµÐ¹ÑĪÐµÐ¼":10829,"ĠÐ¿Ð¸ÑģÑĮÐ¼ÐµÐ½":10830,"ÐŀÐ¿":10831,"ĠÐºÐ¾Ð»Ð¸ÑĩÐµÑģÑĤÐ²Ð°":10832,"Ð¡ÐļÐĲ":10833,"Ð°ÑģÑĭ":10834,"ĠÐµÐ´Ð¸Ð½Ð¾Ð³Ð¾":10835,"Ð¾ÑĢÐ°Ð·":10836,"ĠÐ¼ÑĥÐ·ÑĭÐºÐ°":10837,"ĠÐ»Ð¸Ð´ÐµÑĢ":10838,"ÐµÐºÑĤÐµ":10839,"ĠÐ·Ð½Ð°ÑĤ":10840,"ĠÐ´Ð¶Ð¸Ð½":10841,"ĠÑģÐ»ÑĥÑħÐ¸":10842,"ĠÐ³ÑĢÐ¾Ñħ":10843,"Ð¿ÑĢÐ¸Ð·":10844,"ĠÐļÐ¸ÑĤÐ°Ð¹":10845,"ĠÑĪÐ¿Ð¸Ð¾Ð½":10846,"ĠÐ¿Ð¾Ð¿ÑĢÐ¾ÑģÐ¸Ð»Ð°":10847,"Ð¿ÑĢÐ°Ð²ÐµÐ´Ð»Ð¸Ð²":10848,"ĠÑĦÐ¸ÑĢÐ¼Ñĭ":10849,"ĠÐ´ÑĥÐ¼Ð°Ð»Ð¸":10850,"ÑĥÑĢÐ°Ð²":10851,"ĠÐ¸Ð´Ð¸Ð¾ÑĤ":10852,"ĠÐºÑĥÐ¿Ð¸Ð»":10853,"Ð³Ð¾Ð´":10854,"ĠÐ¡ÐµÑĢÐ³ÐµÑı":10855,"ĠÐĳÑĥÐ´ÑĮ":10856,"ĠÐ¸Ð·Ð´ÐµÐ²":10857,"ĠÑĤÐµÐ¼Ð½ÑĭÐµ":10858,"ÂłÐļÐ¾Ð³Ð´Ð°":10859,"Ð¸ÑģÑĤÐ¾Ð¼":10860,"ÐĺÑģÑĤ":10861,"ĠÐ¾ÑĤÑĩÐ°ÑıÐ½Ð½Ð¾":10862,"Ġ186":10863,"ĠÑįÑģ":10864,"ĠÐ¿Ð°ÑģÑģÐ°Ð¶Ð¸ÑĢÐ¾Ð²":10865,"ĠÐĿÐµÐ»ÑĮÐ·Ñı":10866,"ĠÑĥÐ±ÐµÐ´Ð¸ÑĤÑĮ":10867,"ĠÐ±ÐµÑģÑģÑĤ":10868,"ĠÐ¿Ð¾Ð»Ð¾Ð²Ð¸Ð½Ð°":10869,"ĠÐ»Ð¸ÑĤÐµÑĢÐ°ÑĤÑĥÑĢÑĭ":10870,"ĠÑħÑĢÐ°Ð±ÑĢ":10871,"Ð°ÐºÐ¾Ð²Ð°":10872,"ĠÐ½ÑĥÐ¶Ð´":10873,"ĠÐ±Ð¾Ð¹ÑĨÐ¾Ð²":10874,"ĠÐ´Ð°Ð½Ð½Ð¾Ð¹":10875,"ĠÑĢÐ°Ð·ÑĭÑģÐº":10876,"ĠÑģÐ°Ð¼Ð¾ÑĥÐ±Ð¸Ð¹":10877,"ĠÐ¿ÑĢÐµÐ´ÑģÑĤÐ¾ÑıÑī":10878,"ĠÐ½ÐµÐ¾Ð´Ð½Ð¾ÐºÑĢÐ°ÑĤÐ½Ð¾":10879,"ÑĥÐ´ÐµÑĤ":10880,"ĠÑĢÐ°Ð·Ð²ÐµÐ´ÐºÐ¸":10881,"ÐµÐ½ÐµÐ±":10882,"ĠÐ¸Ð·Ð½Ð°Ñĩ":10883,"Ð¾ÑĢÐ´Ð¸Ð½":10884,"ĠÐĿÐ¸ÐºÐ¾Ð»Ð°Ñı":10885,"ĠÐ¿ÑĢÐ¾ÑģÑĤÑĢÐ°Ð½ÑģÑĤÐ²Ðµ":10886,"ĠÐŁÑĢÐ¸Ð²":10887,"ĠÐ¿Ð¾Ñī":10888,"ĠÐ¿Ð¾Ð½ÐµÐ´ÐµÐ»ÑĮÐ½Ð¸Ðº":10889,"Ð¾ÑĩÐ½ÑĥÑİ":10890,"ĠÐ¿ÑĢÑıÑĩ":10891,"ĠÐ½ÐµÐ¿Ð¾Ð½ÑıÑĤÐ½Ð¾":10892,"ÐµÑĩÐºÐ¸":10893,"ĠÐ¼Ð¸Ð»Ð»Ð¸Ð¾Ð½":10894,"ĠÐ¾Ð³Ð¾ÑĢÑĩ":10895,"ĠÑĢÐ°Ð·Ð³Ð¾Ð²Ð¾ÑĢÑĭ":10896,"ÑĢÐ¾ÑħÐ¾ÑĤ":10897,"ĠÐ¿ÑĢÐ¸ÐµÑħÐ°Ð»Ð¸":10898,"ĠÑģÐ¾Ð±Ð¸ÑĢÐ°Ð»Ð¸ÑģÑĮ":10899,".[":10900,"ĠÐ¿Ð¾Ð¼Ð¾ÑĢÑī":10901,"ĠÑģÑĤÐ¾Ð»Ð¸ÑĨÐµ":10902,"ĠÐºÐ°Ð¿Ð»Ð¸":10903,"ĠÑĤÐµÐ»ÐµÐºÐ°Ð½":10904,"ÑĢÐ¾ÑģÐ»Ð°Ð²":10905,"ÑĨÐµÐ¹":10906,"Ð½Ð¸ÑģÑĮ":10907,"ĠÑıÐ±Ð»":10908,"ĠÐ¿Ð¾Ð³ÑĢÐµÐ±":10909,"ĠÑģÐ»ÑĥÐ¶Ð±Ðµ":10910,"ĠÐ¾Ð¼":10911,"Ð½ÑĭÑĪ":10912,"Ð¡Ðķ":10913,"ĠÑĨÐµÐ»Ð¾Ð²":10914,"ĠÐ¿Ð¾Ð»ÑĥÑĩÐ°ÐµÑĤ":10915,"Ð¸ÑĢÐ°Ð»Ð¸":10916,"Ð¾Ð±Ð»Ð°Ð´":10917,"ĠÐ±ÑĢÐ°ÑĤÑĮÑı":10918,"ÐµÐ½ÐµÑĢÐ°":10919,"ĠÐ½ÐµÐ¿ÑĢÐ¾":10920,"ĠÐ¿Ð¾Ð´ÑĢÐ¾Ð±Ð½Ð¾":10921,"ĠÐ¾Ð¿Ð¾Ð»Ñĩ":10922,"ĠÐ²Ð¿Ð»Ð¾ÑĤÑĮ":10923,"ĠÐ¾ÑĤÐ²Ð¾ÑĢ":10924,"ĠÐºÐ¾Ð»ÐµÐ½ÑıÑħ":10925,"Ð»Ð¸Ð²Ð°Ñı":10926,"ĠÑģÐµÐ»Ð¾":10927,"ĠÑģÑĤÐµÐºÐ»ÑıÐ½":10928,"ÑĶ":10929,"ĠÑĢÐ°Ð·ÑĢÐµÑĪÐµÐ½Ð¸Ñı":10930,"ĠÐ°ÑĢÐ¾Ð¼Ð°ÑĤ":10931,"Ġ1990":10932,"ĠÐŁÑıÑĤ":10933,"ĠÐ¿Ð¾ÑıÐ²Ð¸ÑĤÑģÑı":10934,"ĠÐ²ÑĭÐ³Ð»ÑıÐ´ÐµÐ»Ð°":10935,"ĠÐ¿Ð¾Ð·Ð²Ð¾Ð»Ð¸Ð»":10936,"ÐµÑĢÐµÐ±":10937,"Ð¿ÑĢÐ¾Ð²":10938,"ÑĨÐµÐ½ÑĤÑĢ":10939,"ĠÐ¿ÐµÑĢÐµÑĢÑĭÐ²":10940,"Ð¾Ð²Ð°Ð½Ð½Ð¾Ð³Ð¾":10941,"ĠÑĢÐ°ÑģÑģÐºÐ°Ð·ÑĭÐ²Ð°ÐµÑĤ":10942,"ĠÐ³Ð»Ð¾Ð±":10943,"ĠÐŀÐ±ÑĭÑĩÐ½Ð¾":10944,"ĠÐºÑĢÑĥÐ³Ð¾Ð¼":10945,"Ð»Ð¸ÐºÐ°":10946,"ĠÑĥÑģÐ»Ð¾Ð²Ð¸Ð¹":10947,"Ð¾Ð¿Ð¾ÑģÑĤÐ°Ð²":10948,"ĠÑģÐ¾Ð²ÑĢÐµÐ¼ÐµÐ½Ð½Ð¾Ð¹":10949,"ÐļÑĢÐ°Ñģ":10950,"ĠÐºÐ¾Ð»Ð¾Ð½Ð¸":10951,"ĠÑģÐ²Ð¾Ð±Ð¾Ð´Ð½Ð¾":10952,"ĠÑıÑī":10953,"ĠÐļÐ°Ð¹":10954,"ĠÐ¾Ð±ÑģÑĤÐ¾ÑıÑĤÐµÐ»ÑĮÑģÑĤÐ²Ð°":10955,"ud":10956,"ĠÐ°ÑĤÐ°ÐºÐ¸":10957,"ĠÑĢÐ°Ð´Ð¾ÑģÑĤÑĮÑİ":10958,"tr":10959,"ĠÐ´Ð°Ð²Ð°Ð¹ÑĤÐµ":10960,"ĠÐ±Ð°Ð·Ñĭ":10961,"ĠÑįÐ²Ð°ÐºÑĥ":10962,"ĠÐ½ÐµÐ¶Ð½Ð¾":10963,"ĠÐ½ÐµÐ´Ð¾Ð²ÐµÑĢ":10964,"ĠÐºÐ¾Ð½ÑĨÐµÑĢÑĤ":10965,"ĠÐ¡Ð°Ð´":10966,"ĠÐ¿ÑĢÐ¸Ð·ÐµÐ¼":10967,"ĠÑıÐ·ÑĭÑĩ":10968,"ĠÑģÐ°Ð´Ñĥ":10969,"ĠÐ½ÐµÐ¹ÑĤÑĢ":10970,"ĠÑģÐ»Ð°Ð±Ð¾":10971,"Ġ2005":10972,"Ð°Ð·Ñĭ":10973,"ĠÐ¿ÑĢÐ¾Ð´Ð¾Ð»Ð¶Ð°Ð»Ð¸":10974,"ĠÐ°Ð²ÑĤÐ¾ÑĢÐ¸ÑĤÐµÑĤ":10975,"ĠÐ¿ÑĥÑģÑĤÐ¾Ð¹":10976,"ĠÑħÐ¾Ð»Ð¾Ð´Ð½Ð¾Ð¹":10977,"Ð¼Ð¸ÑĢÑĥ":10978,"ĠÐŀÑĤÐ²ÐµÑĤ":10979,"ĠÐ´Ð²Ð¾ÑĢÐ°":10980,"Ð¾Ð³Ð¾Ð´":10981,"ĠÑģÐ»ÑĥÑĩÐ¸ÑĤÑģÑı":10982,"ĠÐ»Ð°Ð´Ð¾Ð½ÑĮÑİ":10983,"ĠÐ³ÑĥÐ´":10984,"ĠÑģÐ¼Ð¾Ð¶ÐµÐ¼":10985,"ÐĽÑİ":10986,"ĠÑģÑĬÐµÐ¼":10987,"ĠÐ¿Ð¾Ð´ÑĢÑĥÐ¶":10988,"ĠÐ²ÑĭÑĢÐµÐ·":10989,"ĠÑĥÐ´Ð¸Ð²Ð»ÐµÐ½Ð¸Ðµ":10990,"ÑĮÐºÐ°":10991,"ĠÐľÐ°ÑĤÑĮ":10992,"ĠÑģÑĢÑĭÐ²":10993,"ĠÐºÐ°ÑģÑĤ":10994,"ĠÐĶÑĢ":10995,"ĠÐ¤Ð»Ð¾ÑĢ":10996,"ÐĵÐŀ":10997,"ĠÑģÐ¾Ð±Ð¾Ñİ":10998,"ĠÐ¸Ð´ÑĥÑī":10999,"ĠÑĤÐµÐ¼Ñĭ":11000,"ĠÐ±Ð¸ÑĢ":11001,"ĠÑĢÐ°Ð±Ð¾ÑĤÐ°Ð»Ð°":11002,"ĠÐ¿ÑĢÐ°Ð·Ð´Ð½Ð¸Ðº":11003,"ĠÑĥÑĩÐ¸ÑĤÑĮÑģÑı":11004,"ĠÐ½ÐµÑģÑĤ":11005,"ĠÑĢÐ°Ð·Ð³Ð»ÑıÐ´ÐµÑĤÑĮ":11006,"ĠÐ½Ð°ÐµÐ¼":11007,"ĠÐ´ÐµÑģÑıÑĤÐºÐ¸":11008,"ĠÐ¿Ð¾Ð»Ð½ÑĭÐ¼":11009,"Ð»Ð¸Ð½Ð³":11010,"ĠÐ²Ð¾Ð·Ð²ÑĢÐ°ÑīÐµÐ½Ð¸Ñı":11011,"ĠÑģÐ¾Ð¼Ð½ÐµÐ½Ð¸Ð¹":11012,"ĠÐ¿ÑĢÐ¾Ð¹Ð´":11013,"ĠÐ»Ð¸Ð±ÐµÑĢ":11014,"ĠÐ¿ÑĢÐ¾Ð¸Ð·Ð¾ÑĪÐµÐ»":11015,"ĠÑĥÐºÐ»Ð°Ð´":11016,"Ð¾ÑĩÐ½ÑĭÐ¼":11017,"ÐºÐ°Ð»":11018,"ĠÐ½Ð°Ð¿Ð¾Ð¼Ð¸Ð½Ð°ÐµÑĤ":11019,"ĠÑģÐ»ÑĥÐ¶ÐµÐ±":11020,"ĠÐ¿Ð¾Ð·Ð´ÑĢÐ°Ð²":11021,"Ð»Ð°Ð½ÑĤ":11022,"ĠÐ°Ñħ":11023,"Ð°Ð²ÑĪÐµÐ¹ÑģÑı":11024,"ĠÐ¿Ð°ÑĢÑĭ":11025,"ĠÐ·Ð°ÐºÐ°ÑĤ":11026,"ĠÐ¤Ð¾ÑĢ":11027,"ge":11028,"ĠÐ¼Ð¼":11029,"ĠÑģÐºÐ¾ÑĤ":11030,"ĠÐ±Ð°Ð·Ðµ":11031,"ĠÐ»ÑİÐ±ÑĭÐµ":11032,"ĠÐºÐ°ÑĢÑĤÑĥ":11033,"ĠÐ¾ÑĤÐ²Ð¾Ð´":11034,"ĠÐ´ÐµÐ²ÑĥÑĪÐºÐµ":11035,"ĠÐ¿Ð»Ð°ÑĤÐµÐ¶":11036,"Ġon":11037,"ĠÐŁÐ¸ÑĢ":11038,"ĠÐ±ÑĥÐ»":11039,"ÐµÐ·Ð°":11040,"ĠÐ¸ÑĤÐ¾Ð³Ð°Ð¼":11041,"ĠÐ¿Ð¾ÑĢÐ°Ð¶ÐµÐ½Ð¸Ðµ":11042,"ĠÐ¿Ð°Ñģ":11043,"ĠÑĢÐ°ÑģÐ¿Ð¸Ñģ":11044,"Ð¸Ð²Ð°Ð»Ð¾ÑģÑĮ":11045,"ĠÐ²ÑĭÐ±Ð¾ÑĢÐ¾Ð²":11046,"ĠÑħÐ¾ÑĢÐ¾ÑĪÐµÐµ":11047,"Ð¾Ð½Ñģ":11048,"ĠÐ¼Ð¾ÑĢÐ¾Ð·":11049,"ĠÐĲÐ½Ð°ÑĤÐ¾Ð»":11050,"ĠÐĴÐ¾Ð¿ÑĢÐ¾Ñģ":11051,"ĠÐ±Ð¾Ð»ÑĮÑĪÐ¸Ð¼Ð¸":11052,"ĠÑģÐ¿Ð»ÐµÑĤ":11053,"ĠÐ¿ÑĢÐ¾Ð²Ð¾Ð´Ð¸Ð»":11054,"ÐµÐ½Ð¾Ð¹":11055,"ĠÐĶÑĢÐ°Ðº":11056,"ÐµÐ¼Ð¾Ð½ÑģÑĤÑĢ":11057,"ĠÐ²ÑĭÐ±Ð¾ÑĢÐ°Ñħ":11058,"ÑģÑĤÐ²Ð¾Ð²Ð°Ð½Ð¸Ñı":11059,"ÐµÐ½ÑĤÐ»ÑĮ":11060,"ĠÐ±ÑĢÐ¾ÑģÐ¸ÑĤÑĮ":11061,"ĠÐ¾Ð±ÑĢÐµÑĤ":11062,"ĠÑĪÐ»Ð¾":11063,"ĠÑĤÑĥÑģÐº":11064,"ĠÐĳÐ¾Ð³Ð¾Ð¼":11065,"ĠÑĥÑĤÐ²ÐµÑĢÐ´":11066,"ĠÐ¾ÑģÑĤÑĢÐ¾Ð²Ðµ":11067,"ebook":11068,"ÐµÐ·Ñĥ":11069,"ĠÐ²ÐµÑĢÐ¸Ð»":11070,"ĠÐ´ÐµÐ²ÑĥÑĪÐµÐº":11071,"ÐµÑĤÐºÐ¸":11072,"ĠÐ·Ð°ÑģÑĭÐ¿":11073,"ĠÐ²ÑĭÑĤÐµÑĢ":11074,"ÐµÐ»ÑĮÑİ":11075,"ĠÐ²ÑĭÑģÐ¾ÐºÐ¸Ðµ":11076,"ĠÐ¾ÑĤÑĢÐ°Ñģ":11077,"ĠÐ´Ð¸Ð½":11078,"ĠÐ¿ÐµÑĢÐ¸Ð¾Ð´Ð°":11079,"Ð½ÐµÐ³":11080,"Ð»Ð°ÑĩÐ¸Ð²":11081,"ĠÐ°ÑįÑĢÐ¾Ð´":11082,"ĠÑģÐ¾Ð±ÑģÑĤÐ²ÐµÐ½Ð½ÑĥÑİ":11083,"ĠÑĦÐ¸Ð³ÑĥÑĢÑĭ":11084,"Ð»ÑĭÐ¼Ð¸":11085,"ÑĥÐ±ÐµÐ¶":11086,"ĠÑģÐµÑĢÐ¶Ð°Ð½ÑĤ":11087,"ĠÐ½Ð°Ð¼ÐµÑĢÐµÐ²":11088,"ĠÐŀÐ¿ÑıÑĤÑĮ":11089,"ĠÐ·Ð°Ð¼ÐµÑģÑĤÐ¸ÑĤÐµÐ»ÑĮ":11090,"ĠÐ¿Ð°Ð»ÑĮÑĤÐ¾":11091,"ĠÐļÐ¾Ð¼Ð°Ð½Ð´":11092,"41":11093,"ĠFac":11094,"ĠÐ¿ÐµÑĢÐµÐ³Ð¾Ð²Ð¾ÑĢÐ¾Ð²":11095,"ĠÐŀÐ±Ð°":11096,"ĠÐ·Ð°Ð²ÑĤÑĢÐ°Ðº":11097,"ĠÐ»ÐµÑĤÐ¾":11098,"ĠÐ¿Ð¾Ð·Ð½":11099,"Ð½ÑıÐ»ÑģÑı":11100,"ĠÑģÐ»Ð°Ð²Ð°":11101,"ĠÐ¿Ð¾ÑĢÑĤÑĢÐµÑĤ":11102,"ĠÐĶÐ°Ð¼":11103,"ĠÐĽÑĥÐ³":11104,"ĠÑĥÑĩÑĳ":11105,"ÑģÐ¼ÐµÐ½":11106,"ĠÐ¾ÐºÐ¾":11107,"ĠÐĶÐ²":11108,"ĠÐºÐ½ÑıÐ¶":11109,"ĠÐ¼Ð¸Ð»Ð»Ð¸Ð¾Ð½Ð°":11110,"Ð¾Ð±Ð¾Ð´Ð°":11111,"Ð¿ÐµÐ´":11112,"ĠÐ³Ð¾ÑģÑĤÑĮ":11113,"ĠÐ³ÑĥÐ»":11114,"ĠÐĿÐ°Ð±":11115,"ĠÐĲÐ³Ð°":11116,"ĠÑģÐºÑĥÐ»ÑĮÐ¿":11117,"Ð½ÐµÐ¹ÑĪÐ¸Ð¹":11118,"ĠÐ¿Ð°ÑĢÑĤÐ¸Ñı":11119,"ĠÐ½Ð°ÑĢÐ¸Ñģ":11120,"ĠÐ¾ÑĤÐºÑĢÐ¾Ð²ÐµÐ½Ð½Ð¾":11121,"ÐĳÐ°ÑĢ":11122,"ĠÐ¿Ð¾Ð»Ð¾Ð¶Ð¸Ð»Ð°":11123,"ĠÐ´Ð»Ð¸Ð½Ð½ÑĭÐ¹":11124,"ĠÑģÐ²Ð¾ÐµÐ¾Ð±ÑĢÐ°Ð·":11125,"ÑĢÐ°Ð»ÑģÑı":11126,"ĠÑĤÐ°ÐºÐ¾Ð¼Ñĥ":11127,"Ð¸Ð´Ðµ":11128,"ĠÐ½ÐµÐ´ÐµÐ»Ðµ":11129,"ĠÐ¿ÑĭÑĪ":11130,"Ð¢Ð¾":11131,"ĠÐ¼ÐµÑģÑĤÐ½Ð¾Ð³Ð¾":11132,"ÑĥÑĦ":11133,"ĠÐ¾ÑĤÐºÐ»Ð¾Ð½":11134,"ĠÑĩÐµÐ»Ñİ":11135,"Ð¸ÑĢÐ¾Ð²ÐºÐ°":11136,"ĠÐ´Ð¸Ð°Ð³":11137,"ĠÐĺÐ½ÑģÑĤ":11138,"ĠÑģÐ¾ÑĨÐ¸Ð°Ð»ÑĮÐ½ÑĭÑħ":11139,"ĠÐ¸ÑģÑĤÐµÑĢ":11140,"Ð°Ð·Ð°Ð»Ð¾ÑģÑĮ":11141,"ĠÑĥÑĤÐ²ÐµÑĢÐ¶Ð´Ð°ÐµÑĤ":11142,"ĠÐ¸Ð½ÑĨ":11143,"ÐºÐ¾Ð²ÑĭÑħ":11144,"ÑĭÐ²Ð°Ð»Ð¾ÑģÑĮ":11145,"ĠÐ²Ð¾Ð¿ÑĢÐ¾ÑģÑĥ":11146,"ĠÐ±ÑĢÐ¾Ð½Ð·":11147,"Ð¼Ð°Ð¹":11148,"ĠÐ²Ð¾ÐµÐ½":11149,"ĠÐ¿Ð¾Ð¸ÑģÐºÐ¸":11150,"ĠÐ²ÑĢÐµÐ·":11151,"ĠÐ½ÐµÐ¼ÑĨÑĭ":11152,"ĠÑħÐ¾Ð·ÑıÐµÐ²":11153,"ĠÐ¸ÑģÑģÐ»ÐµÐ´Ð¾Ð²":11154,"://":11155,"ĠÐ¾Ð±Ð¾ÑĪ":11156,"Ð¾ÑģÐºÐ¾Ð²":11157,"Ġqu":11158,"ĠÐ¾ÑĦÐ¸Ñģ":11159,"ĠÐ·Ð»Ð°":11160,"ĠÐĵÐ»ÐµÐ±":11161,"ĠÑģÐ´ÐµÐ»Ð°Ñİ":11162,"ĠÑĥÐ·Ð½Ð°ÐµÑĤ":11163,"ĠÐ¾Ð±Ð»Ð°Ð´Ð°ÐµÑĤ":11164,"Â»;":11165,"Ġ150":11166,"ĠÐ¼Ð¸ÑģÑĤÐµÑĢÐ°":11167,"ĠÐ°Ð¼ÐµÑĢÐ¸ÐºÐ°Ð½ÑģÐºÐ¸Ñħ":11168,"ĠÐ²Ð¸Ð´Ñı":11169,"ĠÑģÐµÑĢÐ´Ð¸":11170,"ĠÐ¼ÑĥÐ¶ÐµÐ¼":11171,"ĠÐ½Ð°ÑĩÐ°Ð»ÑģÑı":11172,"ÑħÐ¾Ð¼":11173,"ÑıÐ·Ð²":11174,"ĠÐ·Ð°ÑĦÐ¸ÐºÑģ":11175,"ÑĥÑİÑīÐµÐ¹":11176,"ĠÐ²Ð¸Ð·Ð¸ÑĤ":11177,"ĠÐ¿Ð¾Ð¹Ð´ÐµÐ¼":11178,"ĠÐ¿Ð¾ÑıÐ²Ð»ÐµÐ½Ð¸Ñı":11179,"ÐŀÐŀ":11180,"ĠÐ½Ð°ÑħÐ¼ÑĥÑĢÐ¸Ð»ÑģÑı":11181,"Ð¼ÐµÐ»ÑĮ":11182,"Ð¾Ð»Ð»":11183,"ĠÐ¿ÑĤÐ¸ÑĨÑĭ":11184,"Ð°Ð»Ð¸Ñİ":11185,"ĠÐºÐ¾Ð¶Ð°":11186,"Ð°ÑĩÐ¸":11187,"ÐµÐ½ÐºÐ¸":11188,"ĠÑĢÑĥÐºÐ¾Ð²Ð¾Ð´Ð¸ÑĤÐµÐ»ÑĮ":11189,"ÑĩÑĥÑĢ":11190,"ĠÐŀÐ³":11191,"ĠÐĹÐ½Ð°ÐµÑĪÑĮ":11192,"ĠÑĤÐµÐ¾ÑĢÐµÑĤ":11193,"ÐµÑĤÑĭÑĢÐµ":11194,"ĠÐĹÐ°Ð´":11195,"Ð°Ð½ÑĮÐµ":11196,"ĠÐĿÐ¸ÐºÐ¾Ð»Ð°ÐµÐ²Ð¸Ñĩ":11197,"ĠÐ¸Ð»Ð»ÑİÐ·":11198,"ÑĥÐ¼Ðµ":11199,"ĠÐŁÑĢÐ¾Ñħ":11200,"ÑĭÑģÐ¾Ðº":11201,"ĠÐºÐ¾ÑĢÐ¸ÑĩÐ½ÐµÐ²":11202,"ÑĥÑĪÐµÐº":11203,"ĠÐ²ÑĭÑħÐ¾Ð´Ð¸ÑĤÑĮ":11204,"ĠÐĶÑĢÑĥÐ³Ð¸Ðµ":11205,"ĠÐ¿Ð»Ð¾ÑĤÐ½Ð¾":11206,"ĠÑĩÐµÐ»Ð¾Ð²ÐµÑĩÐµÑģÑĤÐ²Ð°":11207,"ĠÐ¾ÑĤÐ¿ÑĢÐ°Ð²Ð¸Ð»":11208,"Ð½Ð¸ÐºÐ¾Ð²Ð°":11209,"Ð°Ð½ÑģÐ°":11210,"ĠÑĩÐµÑĢÐ½ÑĭÑħ":11211,"43":11212,"ÐµÐ´Ð»Ð¸Ð²Ð¾":11213,"ĠÐ¿Ð¾Ð»Ð½Ð¾Ð³Ð¾":11214,
[...]
